node {
  name: "input"
  op: "Placeholder"
  attr {
    key: "dtype"
    value {
      type: DT_FLOAT
    }
  }
  attr {
    key: "shape"
    value {
      shape {
        dim {
          size: -1
        }
        dim {
          size: 784
        }
      }
    }
  }
}
node {
  name: "Variable"
  op: "Const"
  attr {
    key: "dtype"
    value {
      type: DT_FLOAT
    }
  }
  attr {
    key: "value"
    value {
      tensor {
        dtype: DT_FLOAT
        tensor_shape {
          dim {
            size: 784
          }
          dim {
            size: 10
          }
        }
        tensor_content: "\000\000\000\000\000\000\000\000\000\000\000\000\000\000\000\000\000\000\000\000\000\000\000\000\000\000\000\000\000\000\000\000\000\000\000\000\000\000\000\000\000\000\000\000\000\000\000\000\000\000\000\000\000\000\000\000\000\000\000\000\000\000\000\000\000\000\000\000\000\000\000\000\000\000\000\000\000\000\000\000\000\000\000\000\000\000\000\000\000\000\000\000\000\000\000\000\000\000\000\000\000\000\000\000\000\000\000\000\000\000\000\000\000\000\000\000\000\000\000\000\000\000\000\000\000\000\000\000\000\000\000\000\000\000\000\000\000\000\000\000\000\000\000\000\000\000\000\000\000\000\000\000\000\000\000\000\000\000\000\000\000\000\000\000\000\000\000\000\000\000\000\000\000\000\000\000\000\000\000\000\000\000\000\000\000\000\000\000\000\000\000\000\000\000\000\000\000\000\000\000\000\000\000\000\000\000\000\000\000\000\000\000\000\000\000\000\000\000\000\000\000\000\000\000\000\000\000\000\000\000\000\000\000\000\000\000\000\000\000\000\000\000\000\000\000\000\000\000\000\000\000\000\000\000\000\000\000\000\000\000\000\000\000\000\000\000\000\000\000\000\000\000\000\000\000\000\000\000\000\000\000\000\000\000\000\000\000\000\000\000\000\000\000\000\000\000\000\000\000\000\000\000\000\000\000\000\000\000\000\000\000\000\000\000\000\000\000\000\000\000\000\000\000\000\000\000\000\000\000\000\000\000\000\000\000\000\000\000\000\000\000\000\000\000\000\000\000\000\000\000\000\000\000\000\000\000\000\000\000\000\000\000\000\000\000\000\000\000\000\000\000\000\000\000\000\000\000\000\000\000\000\000\000\000\000\000\000\000\000\000\000\000\000\000\000\000\000\000\000\000\000\000\000\000\000\000\000\000\000\000\000\000\000\000\000\000\000\000\000\000\000\000\000\000\000\000\000\000\000\000\000\000\000\000\000\000\000\000\000\000\000\000\000\000\000\000\000\000\000\000\000\000\000\000\000\000\000\000\000\000\000\000\000\000\000\000\000\000\000\000\000\000\000\000\000\000\000\000\000\000\000\000\000\000\000\000\000\000\000\000\000\000\000\000\000\000\000\000\000\000\000\000\000\000\000\000\000\000\000\000\000\000\000\000\000\000\000\000\000\000\000\000\000\000\000\000\000\000\000\000\000\000\000\000\000\000\000\000\000\000\000\000\000\000\000\000\000\000\000\000\000\000\000\000\000\000\000\000\000\000\000\000\000\000\000\000\000\000\000\000\000\000\000\000\000\000\000\000\000\000\000\000\000\000\000\000\000\000\000\000\000\000\000\000\000\000\000\000\000\000\000\000\000\000\000\000\000\000\000\000\000\000\000\000\000\000\000\000\000\000\000\000\000\000\000\000\000\000\000\000\000\000\000\000\000\000\000\000\000\000\000\000\000\000\000\000\000\000\000\000\000\000\000\000\000\000\000\000\000\000\000\000\000\000\000\000\000\000\000\000\000\000\000\000\000\000\000\000\000\000\000\000\000\000\000\000\000\000\000\000\000\000\000\000\000\000\000\000\000\000\000\000\000\000\000\000\000\000\000\000\000\000\000\000\000\000\000\000\000\000\000\000\000\000\000\000\000\000\000\000\000\000\000\000\000\000\000\000\000\000\000\000\000\000\000\000\000\000\000\000\000\000\000\000\000\000\000\000\000\000\000\000\000\000\000\000\000\000\000\000\000\000\000\000\000\000\000\000\000\000\000\000\000\000\000\000\000\000\000\000\000\000\000\000\000\000\000\000\000\000\000\000\000\000\000\000\000\000\000\000\000\000\000\000\000\000\000\000\000\000\000\000\000\000\000\000\000\000\000\000\000\000\000\000\000\000\000\000\000\000\000\000\000\000\000\000\000\000\000\000\000\000\000\000\000\000\000\000\000\000\000\000\000\000\000\000\000\000\000\000\000\000\000\000\000\000\000\000\000\000\000\000\000\000\000\000\000\000\000\000\000\000\000\000\000\000\000\000\000\000\000\000\000\000\000\000\000\000\000\000\000\000\000\000\000\000\000\000\000\000\000\000\000\000\000\000\000\000\000\000\000\000\000\000\000\000\000\000\000\000\000\000\000\000\000\000\000\000\000\000\000\000\000\000\000\000\000\000\000\000\000\000\000\000\000\000\000\000\000\000\000\000\000\000\000\000\000\000\000\000\000\000\000\000\000\000\000\000\000\000\000\000\000\000\000\000\000\000\000\000\000\000\000\000\000\000\000\000\000\000\000\000\000\000\000\000\000\000\000\000\000\000\000\000\000\000\000\000\000\000\000\000\000\000\000\000\000\000\000\000\000\000\000\000\000\000\000\000\000\000\000\000\000\000\000\000\000\000\000\000\000\000\000\000\000\000\000\000\000\000\000\000\000\000\000\000\000\000\000\000\000\000\000\000\000\000\000\000\000\000\000\000\000\000\000\000\000\000\000\000\000\000\000\000\000\000\000\000\000\000\000\000\000\000\000\000\000\000\000\000\000\000\000\000\000\000\000\000\000\000\000\000\000\000\000\000\000\000\000\000\000\000\000\000\000\000\000\000\000\000\000\000\000\000\000\000\000\000\000\000\000\000\000\000\000\000\000\000\000\000\000\000\000\000\000\000\000\000\000\000\000\000\000\000\000\000\000\000\000\000\000\000\000\000\000\000\000\000\000\000\000\000\000\000\000\000\000\000\000\000\000\000\000\000\000\000\000\000\000\000\000\000\000\000\000\000\000\000\000\000\000\000\000\000\000\000\000\000\000\000\000\000\000\000\000\000\000\000\000\000\000\000\000\000\000\000\000\000\000\000\000\000\000\000\000\000\000\000\000\000\000\000\000\000\000\000\000\000\000\000\000\000\000\000\000\000\000\000\000\000\000\000\000\000\000\000\000\000\000\000\000\000\000\000\000\000\000\000\000\000\000\000\000\000\000\000\000\000\000\000\000\000\000\000\000\000\000\000\000\000\000\000\000\000\000\000\000\000\000\000\000\000\000\000\000\000\000\000\000\000\000\000\000\000\000\000\000\000\000\000\000\000\000\000\000\000\000\000\000\000\000\000\000\000\000\000\000\000\000\000\000\000\000\000\000\000\000\000\000\000\000\000\000\000\000\000\000\000\000\000\000\000\000\000\000\000\000\000\000\000\000\000\000\000\000\000\000\000\000\000\000\000\000\000\000\000\000\000\000\000\000\000\000\000\000\000\000\000\000\000\000\000\000\000\000\000\000\000\000\000\000\000\000\000\000\000\000\000\000\000\000\000\000\000\000\000\000\000\000\000\000\000\000\000\000\000\000\000\000\000\000\000\000\000\000\000\000\000\000\000\000\000\000\000\000\000\000\000\000\000\000\000\000\000\000\000\000\000\000\000\000\000\000\000\000\000\000\000\000\000\000\000\000\000\000\000\000\000\000\000\000\000\000\000\000\000\000\000\000\000\000\000\000\000\000\000\000\000\000\000\000\000\000\000\000\000\000\000\000\000\010\016\307\270\306\2704\267P\244\305\271o\226\276\267a\357\304\271;(\221\270\205\004\243:\375M\013\271\010\200\200\270\220j\320\270\035l\332\2707NF\2673\337\330\271\236!\321\267\252\030\330\271\323G\237\270\373\340\262:\317\333\030\271\272\000\215\270\322\261\344\270[\315_\267\2350\313\265\2536^\270GHV\266>k]\270(4#\267\343H79\245\237\234\267\317y\020\267\326Sj\267\000\000\000\000\000\000\000\000\000\000\000\000\000\000\000\000\000\000\000\000\000\000\000\000\000\000\000\000\000\000\000\000\000\000\000\000\000\000\000\000\000\000\000\000\000\000\000\000\000\000\000\000\000\000\000\000\000\000\000\000\000\000\000\000\000\000\000\000\000\000\000\000\000\000\000\000\000\000\000\000\337,\374\271T2\351\271(\301(\272\363\177\362\271\346\313~\272\321A\365\271%\277\252;w\007\352\271\231\007\016\272S\320D\272\226\337\225\271x\220w\271\004\331\002\2721\215\207\271\277<t\272\357b\215\271)et;\243\200y\271\177\226\277\271\203\007)\272\255[*\271\035\313\253\270\222\263%\271\211\177_\270\010\327u\271\027?S\271\272\022\300:t\242\232\270\035\364#\271\3272\264\271\242\177Z\271\022pq\271dv\264\271N\002\331\270.\372\274\271\335w\371\271\204\363(;]\222\340\270 Z\257\271\225\374\330\271\226\301\304\267\370\236 \271\014$Q\271\352\304O\270\236\030\032\271\\F\217\271\354\342\216:\352\315\315\267\205}=\271V\271#\270\000\000\000\000\000\000\000\000\000\000\000\000\000\000\000\000\000\000\000\000\000\000\000\000\000\000\000\000\000\000\000\000\000\000\000\000\000\000\000\000\000\000\000\000\000\000\000\000\000\000\000\000\000\000\000\000\000\000\000\000\000\000\000\000\000\000\000\000\000\000\000\000\000\000\000\000\000\000\000\000\000\000\000\000\000\000\000\000\000\000\000\000\000\000\000\000\000\000\000\000\000\000\000\000\000\000\000\000\000\000\000\000\000\000\000\000\000\000\000\000\000\000\000\000\000\000\000\000\000\000\000\000\000\000\000\000\000\000\000\000\000\000\000\000\000\000\000\000\000\000\000\000\000\000\000\000\000\000\000\000\000\000\000\000\000\000\000\000\000\000\000\000\000\000\000\000\000\000\000\000\000\000\000\000\000\000\000\000\000\000\000\000\000\000\000\000\000\000\000\000\000\000\000\000\000\000\000\000\000\000\000\000\000\000\000\000\000\000\000\000\000\000\000\000\000\000\000\000\000\000\000\000\000\000\000\000\000\000\000\000\000\000\000\000\000\000\000\000\000\000\000\000\000\000\000\000\000\000\000\000\000\000\000\000\000\000\000\000\000\000\000\000\000\000\000\000\000\000\000\000\000\000\000\000\000\000\000\000\000\000\000\000\000\000\000\000\000\000\000\000\000\000\000\000\000\000\000\000\000\000\000\000\000\000\000\000\000\000\000\000\000\000\000\000\000\000\000\000\000\000\000\000\000\000\000\000\000\000\000\000\000\000\000\000\000\000\000\000\000\000\000\000\000\000\000\000\000\000\000\000\000\000\000\000\000\000\000\000\000\000\000\000\000\000\000\000\000\000\000\000\000\000\000\000\000\000\000\000\000\000\000\000\000\000\000\000\000\000\000\000\000\000\000\000\000\000\000\000\000\000\000\000\000\000\000\000\000\000\000\000\000\000\000\000\000\000\000\000\000\000\000\000\000\000\000\000\000\000\000\000\000\000\000\000\000\000\000\000\000\000\000\000\000\000\000\000\000\000\000\000\000\000\000\000\000\000\000\000\000\000\000\000\000\000\000\000\000\000\000\000\000\000\000\000\000\000\000\000\000\000\000\000\000\000\000\000\000\000\000\000\000\000\000\000\000\000\000\000\000\000\000\000\000\000\000\000\000\000\000\000\000\000\000\000\000\000\000\000\000\000\000\000\000\000\000\000\000\000\000\000\000\000\000\000\000\000\000\000\000\000\000\000\000\000\000\000\000\000\000\000Xq\177\271{k\213\270\270hG\271\307\366i\271!\246\273\271\375^\210\271\371:\327:gi\231\270\265\034\335\270\353\003\000\271\310\231\035\272\311M!\271\226\022\366\2718S\005\272\237\032a\27279\033\272!\313\177;\346%>\271\224\276\203\271[L\226\271\035\214r\272\274\250\237\272\344~\003;\372F\r\272~Wi\272\356\230L\271\265\236;;\032\313\226\271@\207\026\272\003\235{\271\263\007\215\272\363:\333\272\356\276\';*\033M\272N\362\200\272o\261\246\271\260\276~;\321\346\327\271l\222[\272\221%\277\271\300<\211\272\365\246\017\273\032\304-;\242\357\251\272?\360\230\272\034M_\272A(\346;\356\036`\272\334\331\263\272\217]j\272Q\260\005\273$\035-\273\244\256J;\200\232\370\272\303B\020\273\007\210\272\272UQC<\026\\\241\272\030\364\013\273\271`\275\272\3243\266\272\332,\013:\236\351F;K\256\320\272\323T\353\272\242\314w\272GD\334;\346\331H\272\310\303\373\272\303,\366\272(N!\273A+\261:D\325\234:\336\251/\273\016u\215\273.\034\022\273\2726\220<)\372\304\272\335\303C\273j;\202\273\222\314\232\273\013\010\022\273\336b\244:f\200`\273H\321\210\273\325\263b\273\363\315\347<\356\216\021\273\373{\214\273\030\321\244\273\220\203\263\273\206\366\037\273\010B\204\273\200\300\\\273`\200\364\272\302\374k\2736\024\006=\324\207-\273q\250\230\273\304\365\227\273~\351V\273\322\361\306\272R\351\230\273=\242\014\273\032\304\037\2735\2708\273\n`\315<\320\376\333\272d\225C\273\356\027h\273\001;\303\272\271\357W\272F\374\344\272\001\333\033\272\363\344\215\272\245\345\320\272\247\0131<\013c\317\271\235\366\222\272LS\000\273Oe\035\273\232\274c\272\202H\304\272H\236\n\272\307\006o\272V\360\326\272\355a*<\214\243\250\271\030\245\200\272!\215\243\272\326\010a\273\030\270\326\272\203m\025\273!\356\301\272\271\205\343\272\016\250J\273x\001\211<\003\351\343\271v\341\323\272\007\323\204\272\357\213\010\273;:\301\272|\253\014\273\276)\370\272\356t\350\272s\303\025\273@\375q<\370\256\016\272\234\377\330\272o\210o\272%j\035\272\013\031*\272\254\225_\272\010\004\220\272\270\354u\2722c/\272z\376\335;-\321\375\271$\377h\272<\233\033\272\000\000\000\000\000\000\000\000\000\000\000\000\000\000\000\000\000\000\000\000\000\000\000\000\000\000\000\000\000\000\000\000\000\000\000\000\000\000\000\000\000\000\000\000\000\000\000\000\000\000\000\000\000\000\000\000\000\000\000\000\000\000\000\000\000\000\000\000\000\000\000\000\000\000\000\000\000\000\000\000\000\000\000\000\000\000\000\000\000\000\000\000\000\000\000\000\000\000\000\000\000\000\000\000\000\000\000\000\000\000\000\000\000\000\000\000\000\000\000\000\000\000\000\000\000\000\000\000\000\000\000\000\000\000\000\000\000\000\000\000\000\000\000\000\000\000\000\000\000\000\000\000\000\000\000\000\000\000\000\000\000\000\000\000\000\000\000\000\000\000\000\000\000\000\000\000\000\000\000\000\000\000\000\000\000\000\000\000\000\000\000\000\000\000\000\000\000\000\000\000\000\000\000\000\000\000\000\000\000\000\000\000\000\000\000\000\000\000\000\000\000\000\000\000\000\000\000\000\000\000\000\000\000\000\000\000\000\000\000\000\000\000\000\000\000\000\000\000\000\000\000\000\000\000\000\000\000\000\000\000\000\000\000\000\000\000\000\000\000\000\000\000\000\000\000\000\000\000\000\000\000\000\000\000\000\000\000\000\000\000\000\000\000\000\000\000\000\000\000\000\000\000\000\000\000\000\000\000\000\000\000\000\000\000\000\000\000\000\000\000\000\000\000\000\000\000\000\000\000\000\000\000\000\000\000\000\000\000\000\000\000\000\000\000\000\000\000\000\000\000\000\000\000\000\000\000\000\000\000\000\000\000\000\000\000\000\000\000\000\000\000\000\000\000\000\000\000\000\000\000\000\000\000\000\000\000\000\000\000\000\000\000\000\000\000\000\000\000\000\000\000\000\000\000\000\000\000\000\000\000\000\000\000\000\000\000\000\000\000\000\000\000\000\000\000\000\000\000\000\000\000\000\000\000\000\000\000\000\000\000\204\3533\271\037\010\036\270QG0\271\257\254j:\272A\037\270\271\304\234\270\327]&\271\3066\002\270F\217\020\271\217\240\242\270\250\366\177\272\234\211\222\271\224\341z\272\2120);b\354B\272\241+1\272\366K#;01z\271\204\3046\272&l\004\272\374\331\002\273\306C\024\272\036\354d\272\237\"\233:M\352X\2734\325\235\272|)!<<r\\\272\312\355\233\272\325Q\210\272\354Xu\273\257\3511\273\231o\014<\206R\215\271\370\331\253\273\337w\n\273\242\035Y<Y\365\001\273\240\336S\2735H%\273\257\351\321\273\3619\227\2738\260N<\251\322\036;\307\262\243\273\207\202b\273\266q\227<4\037|\273\371\310\263\273\\\240\232\273L\027\034\274R\316\367\273\0202\253<\375\360\030<&e\336\273y+\310\273\356 \254<\035\206\270\273\236\237\r\274\036\333\344\273\216\314\341\273z\231#\274\207T\300<.1><\000L\r\274k\214\007\274\253\212\304<OD\317\273\310r0\274u\202\006\274\211\332\\\273\245O%\274\316\342\271<\247k]<*\243D\274\364\314\366\273#\237\371<\320 \005\274\320\324`\274\370\351A\2749hk\274de*\274\372\327\275<\311L?<\275Wq\274\244\201\001\274\352\032T=\201\235\022\274\350\005\205\274\026\030f\274\251\033\211\274\226~\033\274\352mn<\3059\373;\304\242h\274t\326,\274\240\342\221=B\232\023\274\263W\223\274\t\247}\274&aa\274s\300\037\274V\273+<\0359\270:\337\366\025\274J\303T\274\324B\230=\234\266\014\274dK\211\274\362\257y\274\250\237\027\274\217|,\274v\020-<@\231\355\272-\331k\273\323}N\274\335tp=z~\001\274\02632\274\336\356O\274\240\265\016\274\257\035\331\273\024\377\006<D\337S\273\207\346\334\272y\017L\274t\233T=\023\326\270\273\030\322N\2740G\026\274\372\230\002\274\032\177\307\272\202\353\007;/U\312\273L-\031;V\213%\274\303\0341=n\034\202\273D\204)\274\360\317\367\273W\372\235\273\253\227\"\273.\002\241\272c\300\235\273\314\310\2429 T\275\273\255\300\006=\037\323A\273y\260\335\273\257\374\216\273\223*\347\272Sos\273.q\325\272\300\216\210\273^X?\273h;\252\272\222\311\330<9<2\2734\253\257\273-i=\273`\312\014\273%\227\235\272\344\374\227\272<%\372\272\024g\255\272\227^\221:&h.<\014\365|\272I\323\004\273\223\311\205\272(\000#\272\3657H\271oq\000\271\243\322\267\271h\345A\271\364\n\2349\212\200\367:\222\314S\271\036n\247\271\264<K\271\000\000\000\000\000\000\000\000\000\000\000\000\000\000\000\000\000\000\000\000\000\000\000\000\000\000\000\000\000\000\000\000\000\000\000\000\000\000\000\000\000\000\000\000\000\000\000\000\000\000\000\000\000\000\000\000\000\000\000\000\000\000\000\000\000\000\000\000\000\000\000\000\000\000\000\000\000\000\000\000\000\000\000\000\000\000\000\000\000\000\000\000\000\000\000\000\000\000\000\000\000\000\000\000\000\000\000\000\000\000\000\000\000\000\000\000\000\000\000\000\000\000\000\000\000\000\000\000\000\000\000\000\000\000\000\000\000\000\000\000\000\000\000\000\000\000\000\000\000\000\000\000\000\000\000\000\000\000\000\000\000\000\000\000\000\000\000\000\000\000\000\000\000\000\000\000\000\000\000\000\000\000\000\000\000\000\000\000\000\000\000\000\000\000\000\000\000\000\000\000\000\000\000\000\000\000\000\000\000\000\000\000\000\000\000\000\000\000\000\000\000\000\000\000\000\000\000\000\000\000\000\000\000\000\000\000\000\000\000\000\000\000\000\000\000\000\000\000\000\000\000\000\000\000\000\000\000\000\000\000\000\000\000\000\000\000\000\000\000\000\000\000\000\000\000\000\000\000\000\000\000\000\000\000\000\000\000\000\000\000\000\000\000\000\000\000\000\000\000\000\000\000\000\000\000\000\000\000\000\000\000\000\000\000\000\000\000\000\000\0000Q\206\272\357(+\267\020\302\370\271y\003<\267\360r\001;\025\247\n\270\205\004n\271\261;~\270\206\010\224\270W\332\204\270\237|\215\272\340\235\270\270\026\303\301:\035\257\317\271\350N\n;\032E\220\270?\371\341\271\334\033\244\2706\013\256\272\343\360\371\270\316\246\256\272\"\\\030\272\315\262[;p\246\251;{\tB\271+\003\2639*\332\262\272\344\254D\272T?m\273\321\372\207\272Fr\344\272Dc\324\272\362#\353;\360\267\363;\ty\225\272\340\235x\271\275\255\2359\232\263\363\272\022\370\257\273c\362@\273\266\232\205\273?\300z\273\242\215t<\324{,<*\037H\273\013U\007\273\226\347\025<\201\000\253\273V\350\034\274\376[\336\273\263\014\017\274\344L\014\274\374D\t=\353\224\220<\036\326\361\273\2175\221\273\2201Q<h\326\017\274,\034q\274R\2359\274\377yJ\274\354\203X\274j\306[=_\320\363<yaS\274\342\311\302\273*\375\022<\303 <\274>.\262\274\010vq\274\216\233n\274\356;y\274\227\233\203=.$\037=\036TF\274\343\215\000\274P\331.<\231\003\210\274\3310\350\2743\222\234\274\351\275\324\273\034~S\274\032\201\206=\261\221(=\326/\206\274\tz,\274\032\255A<\321\342\257\274lk\335\274\266T\303\274\323\265\224\273F\345\202;\200\335\215=\205\0062=\227M\353\274\345GA\274C\203\237<\2409\355\274mq\365\274\312\372\003\275\'\306\031\274\264\361j<v7\200=\270\002\030=\253E\025\275W\033\245\274G<[={\036\005\275\244\313\370\274-\241\036\275\326\200 ;\255n\363;s\242t=\276_\247<>F\020\275v\003\364\274\205\024r==I\003\275\356\334C\274JT$\275\212kG<W\335\003<\324\000M=\350\356Y<\327\361\000\275\363\252\025\275\333\204y=>_\376\274\"\304\346\273\264.\035\275\217\201\325<\215[Q<\200I\004=\240\332\375\271\225\217\354\274\ny\010\275HE\211=s\311\367\274\202\255\t\274\033\337\026\275\240r\344<\016\232@<87Q<\242Ez\273\031\326\231\2749z\301\274&ti=g\223\307\274\032k\014\274\225\341\367\274\016\301g<*\236\203<\326\374\207;\365\357H\274\206\210I\273/\177v\274\300\273>=n{\251\274\001\327\252\273\224\333\311\274\336\300\017;\316\330X<\202\364\033;\360\205s\274\002\336\006<g\326\337\273\\\260\345<\036\220Z\274:\377p\273\326\303{\274Ld\3628\320\350\037;(\341\025:\n\317\377\273\200[\373;\241N\262:\010\246\247<Y\212\371\273\245=\005\274\\\226\024\274n\346G\273\302~>\273\262\250D\273(8L\273\320\243\003<\360\270\255;:\326C<\304&t\273\362\205n\273\243\263\277\2732\013%\273a\336\331\272\231r\004\273\376\302\323\272\276\346U;\325\373\364;E\362\211;~e\231\272nsE\273ONA\273\243\276\336\271\371\320\376\271\247\n\231\271\215\342\377\271\212\362\311\271\324\254J;\315(@\271\201\345\210\270D\221\030\272\340\rC\271E\234\212\267\266\373\213\266%\317\216\266hy#\2676X\004\267\005\335\2048\004X\020\267\245\261A\265\217C\023\267v\0073\266\000\000\000\000\000\000\000\000\000\000\000\000\000\000\000\000\000\000\000\000\000\000\000\000\000\000\000\000\000\000\000\000\000\000\000\000\000\000\000\000\000\000\000\000\000\000\000\000\000\000\000\000\000\000\000\000\000\000\000\000\000\000\000\000\000\000\000\000\000\000\000\000\000\000\000\000\000\000\000\000\000\000\000\000\000\000\000\000\000\000\000\000\000\000\000\000\000\000\000\000\000\000\000\000\000\000\000\000\000\000\000\000\000\000\000\000\000\000\000\000\000\000\000\000\000\000\000\000\000\000\000\000\000\000\000\000\000\000\000\000\000\000\000\000\000\000\000\000\000\000\000\000\000\000\000\000\000\000\000\000\000\000\000\000\000\000\000\000\000\000\000\000\000\000\000\000\000\000\000\000\000\000\000\000\000\000\000\000\000\000\000\000\000\000\000\000\000\000\000\000\306\010\224\267\306\010\224\267\306\010\224\267\336\211&9\306\010\224\267\306\010\224\267\306\010\224\267\306\010\224\267\306\010\224\267\306\010\224\267\201\245\274\272\377\340h\271\345ec\272\353\232\376:\326\033O;\346\246\013\272\354\027I\272b\273\341\271e+\274\271\252\023\376\271IG\324\272_?\237\272\004\2609;\230\244\347: \366\006<\2422\263:6\256q\273\305\342\207\272\271J\230\273\306\373\002\273.\266\007\273\203tJ\273\265d\260;\213\345\240<B\260\245;\314\177\233\272\203e\333\273\256f\206\272\036p&\274o\326\277\273\0263\261\273\017q\323\273\274\223\275<\\\207\016=\354#\026\272\230e\367\273\330\247\233\273u\363\226\2732\306\214\274\306\003;\274\243\276=\2744vU\274\3163<=\003\016/=N|\013\273\213\177I\274\262\221\332:e+\036\274\000\016\272\274M?\233\274[\230U\274\333G\302\274\270P\237=\237 D=`\030\370\273M}\230\274\212\021\204;4\377c\274\217P\316\274\350\240\342\274\30403\274u\317\363\274O\\\261=:\220\202=\340\225\033\272{d\237\274I\361\302\273y\242\270\274_\006\335\274\374\321\013\275v;:;\264u\004\275&\253\265=\316)\215=\255\225\273\273\332\307\211\274\025\340\241\274`\202\005\275\210\232V\274=h$\275jF\224<\313Q\245\274\314 \250=F\217{=\370\304\243\274z\315S\274$k\030\274\334\3563\275\333\225\006\2748\306@\275\330\\i<0\264\323<\335u\226=\004\272\226=#\300L\275Z\022\203\274G\2761<r\317w\275FK)\274\022\225z\275\204`\214<\256V7=\346\213\216=\226\r\256=D\370\204\275\362\236\013\275z\303\347<\236\016\222\275\376\234\237\273\252}\216\275H^v<\317~\314<\340\314\211=g0\303=\220\200X\275\352\037\026\275Du\237<\375\177\232\2756Y6<\004\301\213\275\022\363\014=\333Eg<H\337>=s\022\206=\204t\026\2755\001\023\275\274j\305<\366\221\250\275\275\0209=\227z\231\275\340.G=f7E<\302\263\n=\0106\364<\235(\022\275\002~ \274\003,\205<\002R\233\275\347\216e=&B\232\275\267c0=\223\213\\<\241\260\247<@\223\007<U0o\273\320-\225\273q*\251;\272\023u\275\225\306 =)\203|\275\030\\\016=\245\340\262<\024\216\340:N\016%\273\346((<<\234\026<\032c\032;\226\035;\27506\223<\366TL\275\200\251\237<\214\361\230<\327{\t\274tI\316\273}$\226<f\242\210<\366\236\351:\275\307\006\275ie\367;\276\372\016\275@\010*\270\037]O;/\330\2649<%\"\274\312\025\203<\2168\t=n\0372\273f\207\222\274\244\266\013\271\205\373\266\274Vq\033\274\036\225\202\273\315S\217\273\362\021\322\273\2323\243<\256\350+=\212\247_\273{w;\274\034\004\276\273\336\033\213\274O\255\025\274\226\004\034\273U\r\004\274Z\366\245\273\322\276\277<t\016\373<\014sO\273\210\307\355\273\374\245\355\273\022P@\274K\320\234\273\357\030h\273\215\233r\273\226\274\255\273\302\372\272;\273q\343<\353\000\"\273B/H\273r\022\303\273\004\260\230\273`rn\272\245\233\036\272J}\'\272o\273\217\272O\371\241\271\305\016\365; \223\344\271%\276\034\272C\246\005\273\216\326]\272J\301\375\270t;x\270\\\255\204\270\354\350\033\271\376\305>\270\017\007\207:\023\343\310\267/\215\257\270\243\303\241\271\233\3558\271\000\000\000\000\000\000\000\000\000\000\000\000\000\000\000\000\000\000\000\000\000\000\000\000\000\000\000\000\000\000\000\000\000\000\000\000\000\000\000\000\000\000\000\000\000\000\000\000\000\000\000\000\000\000\000\000\000\000\000\000\000\000\000\000\000\000\000\000\000\000\000\000\000\000\000\000\000\000\000\000\000\000\000\000\000\000\000\000\000\000\000\000\000\000\000\000\000\000\000\000\000\000\000\000\000\000\000\000\000\000\000\000\000\000\000\000\000\000\000\000\000\000\000\000\000\000\000\000\000\000\000\000\000\000\000\000\000\000\000\000\000\000\000\000\000\000\000\000\000\000\000\000\000\000\000\000\000\000\000\000\340M\030\272\262f\367\271\246\r\202\271\200\211\212;;\253\322\2710\333U\272~.\371\271\305\231\257\271\353x\n\2723l\302\271\360\256.\273\273V\226\272EX\000\272I\257L<N\0145;\343\267\250\273\344\255Z\273\372\217\244:\320*\010\273\"\261\327\272 \177\237\272\302\177d\273\200\025\256;O\001\234<\243,\262;\024\247\257\273\211\336\006\274\302X\013;\035\t\007\274\272]\260\273w\224y\273W\344\325\273\373S\205<\334t\343<\372\024\244;,_\017\274\304\2677\274\330M\030<\240\320\202\274\212\332E\274\325\204=\274\270\314\203\274\370n =llC=\025\273\352:\223wr\274\222(7\274$\007\210<\371\260\354\274nY\272\2742\361\"\274\016\307\312\274\235\350y=\373\264;=\224\311\034;\261e\260\274\035\346\362\273\326\204.<\tr\301\274\364\242\005\275j\361$\274\213\217\023\275\371\215\215=Z\346i=F\325\207;9\342\306\274$X\n\274*\251I;\\\"Q\274\351{+\275\360\205\314\272\255\033$\275}\274\221=\217\340\246=\235\352\261\273\306B\351\274 \304\335\274p\033f\274\200\t\304\271\210\352\021\275Q\2654<t\223B\275?o\217=\310\n\235=\234\2411\274\317\375i\274V\265\036\275\201\210\375\274\344/\201<\364\210\377\274\201w\320<\271\254\002\275\245\313w=;\354\213=\252\230:\275\311\025\277:\253\213\203\274R\277S\275\\~\000<2[\226\274@\304\030= \335\007\272\244\0059=\014\253z=\317\302\270\275\377C\245\273\210->:\274\274\232\275\325\316\261<\270\217\253;\037F:=0\212\271<\275\005&=Xvj=\257\t\356\275\271\215\255\274\235q\306\273\345:\265\275K\351E=5[\221<\020\361M=C\002\271<\374\007\'=\\\014\205=\320\271\316\275>\367\366\274`\367\353\273\307\t\264\275\010\001H=sG\242\272D\032H=\356p\013<\250\037\005=\272\004\201=K\002\226\275\266\3310\274/\317\232\274S\355\255\275*5?=2^?\274@\356h=\032\231}\273\222\033\231<\363\246O=\347\321W\275>\334\313<H\2371\275\267U\245\275\343\372p=\262+\360\274V6{=\201\306\003<\026\3243<\232X\330<\364p\265\273\3763 =\327rs\275\221b\240\275\004\033,=6\2626\275PD\\=\360\026\377;\026\345\003\274\273(\240;\332\002\221<\376\\_= \267F\275\351\023{\275b\351\352<\024\273J\275%\013\n=\266\356\025;\222\356\203\274D\033y:W\254\222<\274:\223=\311g+\275\032;9\275\373\003\251<\366\0015\275\017\226;<+\320\'\274\032\346\203\274\010\347\331\273\3463\323<<\237\241=\"9\024\2752\330\322\274_\200\333;\217\311\344\274\264\343\221\273u\230A\274\225\036y\274\236\003\274\273\257\237\363<.\330\210=\334\311\266\274\276\014\245\2745g(;Ya\237\274\370\210\327\273v\345\370\273\344\275e\274\002\324\005\274h\242\217<zE\200=\270\2371\274\002=D\274\364\350\305\273N\326t\274\266\336\244\273]\231\311\273~\251\345\273[J\001\274\177\3603;\275\277S=\3122\242\273\327v\255\273\373r\t\274\"X\037\274\352;<\273\262\021\372\272xK\377\272\235\242;\273O\374\006\2732\214\275<\317\273\016\273\254\361\316\272W\306E\273\217n\232\2739\242-\272\277\312P\271\252\370\010\271`\345#\272\324\252\024\272&^\304;4Gi\271tv\252\271p\256\243\272\000\331\003\273\000\000\000\000\000\000\000\000\000\000\000\000\000\000\000\000\000\000\000\000\000\000\000\000\000\000\000\000\000\000\000\000\000\000\000\000\000\000\000\000\000\000\000\000\000\000\000\000\000\000\000\000\000\000\000\000\000\000\000\000\000\000\000\000\000\000\000\000\000\000\000\000\000\000\000\000\000\000\000\000\000\000\000\000\000\000\000\000\000\000\000\000\000\000\000\000\000\000\000\000\000\000\000\000\000\000\000\000\000\000\000\000\000\000\000\000\000\000\000\000\034\355\017\2711\256\t\271\345|\353\270\032I\314:C\364\004\271\n}\237\271R\230\035\271,-\005\271\374\207\243\2712+%\271u\273\262\272\234\340g\272\344gO;\200g\340;\257\300f\272\2320A\273W\272\240\272N\265!\2723\343\253\272\227\020M\272\013{_\273\312\233\306\272~\276\";\245\316\201<p\352\360:\330\311\003\274\210\251\222\273\330\207\303:\256\317\023\273\266Y\000\273\313\346\226\273\035\203\237\273X]\263;^\315\226<t+\352;\266\3514\274\216i$\274cW\214<\322\372\363\273F\210&\274\3703\371\273\'\220Z\274\321\021\277<\030\330\n=\226!\252:v\372\212\274\315\306\201\274\376\345\021=\213\224\231\2748E\261\274\024\223^\274\223\207\305\274\256\317\016=1\2564=\311X\313\272h\213\227\274\031\030U\274\013}K=\"\353\267\274K6\021\275kw[\274\337\337\005\275<w\n=\370w\021=\300\203\226\272\357\241\313\274\205D[\274\010GQ=2\236*\273ix\004\275Y\327\331\273\237\"A\275\244\333\027=\216\250\375<\2267}\273\234\232E\274\2662\314\274\315\022,=\342\374(<\343\241\322\274P\330Q\272\031\257Z\275/7\031=\367\375\r=\314\264\341\273\310\217\322\273\320\3122\275\252\324`<?\032\273<\242&%;\343\225\177<H\204\200\275x\274\371<tD\316<\375\n\026\275\262\310\254<\000$%\27595\216;\356\253x<4\367\343<\004\257\243<\247\311N\275\026/\244<\276\321\331;>i\231\275\333\314\007=3\003;\274\211U+\274\260\036(;!\335\204=\020\223\246<\264\006\275\274\020\206\030<cn\033\273\277\257\364\275\236\330\304<N\322\251\273\005i\331\274\376\230\271<Vr\315=0\342$=\274dH<B@\266;\316\037#\273\363^\023\276\3137\322;\323\276\031\274$^\377\274\231\352\252<m&\320=\004\307\002=\014\354\004=1\001G<r`\366;\227\177\366\275\376\311\240;\331\343\311\274\375O\351\274H9\033\274]\207\300=\266T\034=\216\232\033<\250\333y<mu\306<\323\345\260\2758\333\000<b\010Q\275\014F\300\274\322\2064\274zz\235=z\004S=\0348\3429g\353C<\353\207D=\222\303X\275=\306\237<l\370\253\275\014\t\323\274R,r\2741\225<=Il\204=\024\035\322\272\207q\212<x\337;=4h|\274i]\317<\221\253\317\275\336\343\307\274\236\233P\274\366\2657;\332\301\216=\275\005k\274\004\026#;\343=\035<p\031=<2?\033=\013\253\264\275~\240\035\274\350\037r;\345X\272\274u\tf=\231z\301\274NU?\274\276h+\274 \177w<\324bl=\024\207\217\275\222\3344\274\212\016\370<>\241\004\275\250Z\007=\264U\345\274\332-k\274\370\033C\274\t\021\326<\357\254\220=\201\020^\2756\n\244\274\346Z\300<-/\313\274\004G\203<3\016\243\274x\233\223\274\234Oz\2749\275\252<\221 \231=\226/\016\275\256\264\230\274,\215)<\214\317|\274\010\036\322\272\025\215|\274\255e\245\274\226`\"\274U\234\216;\377\017\241=\333\000\207\274\246~\033\274\364E\217;\004\364i\274\3650\335\273\300+\035\274\367(7\274u\"\036\274\244G\205\273\261\266\233=(\373\006\274hi\005\274\200}\217\273\274\336e\2747\302\273\273\344\321\205\273\351l\250\273\277v\276\273`3\275\273\267\200<=\375\251u\273\001\370\221\273\360f\233\273\247&\326\273\230\366Q\272\304l:\272I4\315\271\3446W\272\020G\n\273\244\257\025<:\007\021\272\01439\272\361J\300\272\272l\316\272\026\354\017\271\026\354\017\271\026\354\017\271\026\354\017\271\026\354\017\271\230\351\241:\026\354\017\271\026\354\017\271\026\354\017\271\026\354\017\271\000\000\000\000\000\000\000\000\000\000\000\000\000\000\000\000\000\000\000\000\000\000\000\000\000\000\000\000\000\000\000\000\000\000\000\000\000\000\000\000\000\000\000\000\000\000\000\000\000\000\000\000\000\000\000\000\000\000\000\000\000\000\000\000\000\000\000\000\000\000\000\000\000\000\000\000\000\000\000\000#\\\247\271\351\327\334\2719D\240\271\034\023~;\365\246\326\271\346\3505\272\224\343\325\271B0\242\271\360\335\022\272 \330\353\271\020N\235\272\nD\204\272\307\310X;\006J\310;5\201\260\272\n\000Q\273\311I\327\272\220\031\032\272\222\212\177:\373\024\272\272\263^P\273Xr#\273nA\215;}^s<\236\025\007\272\355\361\017\274\303\261\266\273\321H\327;\332T\032\271\270\023\245\273\nt\353\273N\230\002\274\207RS<Y\277\206<\"\232\272;\307\357}\274@\236>\274\226\267\357<\340\217\326\273)e}\274\347\377W\274\022\364\217\274\232\022\313<\031\216\325<\372L\210\273P}\332\274\010\031\217\274\243\210q=j\207\033\274\250P\256\274\376\353\210\274\275%\354\274f\257\272<\307$\326<\n>B\272\207\037\361\274,du\274\014R\217=\254D!\274\302\204\226\274\257:K\274z},\275\350]\232<\210\213\227;\314\017\326\272\267[\224\274l;\302\274\3063\232=\256\273U<\224\272b\274\022\276\205\273\317\251k\275k\272J<\247o\013\274\220\n\262;\344\356\363;I\r\016\275ts\203=\362\350\\<\360y\367:\360L=;\217\024\207\275G:\021<m\375\267\274l\221\"\273\230fz<Nd8\275\rs^=\376\'\263<#\361\005=b\364`<&\347\222\2758\275T\272\313\342\004\275\324v\000\275\367\021\337<=,\324\274\301\334J=~\320\204;\017\252\212=\342\343u<\261I\200\275\302\024\215\274Lt9\275:\250\230\275\r\3634=&\320\363;\006\207^= \241-\272\372\225\242=\362Y\315<e\340\261\274n\201\301\274\031\251-\275\232l\316\275I\\\342<>\203\237;\271\273\201=nl\231\273\346\016\224=z^\010=\327(\t=\215\227Y\274\227/\020\275n\177\360\275\026%v<\332|\033\274gv\205=\013|#\275\031\371\213=\360A\312<\312\177\200=Z\317\254;\004\010\213\274\340l\343\275Ce\356;\342\252\017\275#u\206=\373/\223\275\231\373\215=\343K\231<K\201\010=\326}\201<n\351;<]|\205\275\320pA<\022\246\234\275\213\345\217=\331}\203\275\30586=\335\255\033=D\351y<\021\342\324<\036\025\031=\276V\010\275\016!\365;\324\321\346\275$\302\177=C\336\221\275\236D\373<\000\215Z=\026\3502\274\027\247\277<\363\201E=\342\335}\274\352d\367:F7\376\275D\361_=\252cF\275\223\351\216<\365\317\234=\3408\022\2751H\307<\353+l<\352\020\255;\303\001\232\272\352\305\354\275riT=Dm\231\274x\345\241\272X\351\241={+A\275\265\254\006<pkn\274Rs{<\346:\327;=\204\257\275`\t\344<\000F\017=\354{\311\274Uf?=J\304\r\275$/?\274D\362D\274\271\240\264<\036\267\n=\237\253w\275\276h\016\274\31537=V\036\243\274\0249\344<\0202\274\274\360\013\216\274\347\232\204\274\202\367\266;\354\020a=\315~\016\275\r\022V\274\231o\371<\277Qm\274 \333\001<\201\333\220\274S\371\213\2742\022Z\274\360\343\225\273\262$\242=\301\270\211\274n\026)\274\026Lc<\205\213\255\274(\277\220\273\317\242A\274\\yI\274(\2642\274<P\006\274U\215\244=\2545\035\274r\317\025\274xG\372:0\027\202\274\\5\343\273\310@\223\273\274\263\302\273\032\232\240\273V\177\303\273\016\"/=_W\213\273\217\302\257\273\2523\223:\034\200\305\273\321\225\303\271\177\010\333\2711i\270\271\025\341\321\271\374\014B\272xD\202;\000\003\310\271+\037\316\271\356\373\376\271\332&\342\271\207{\244\271\207{\244\271\207{\244\271\207{\244\271\207{\244\271\366\n9;\207{\244\271\207{\244\271\207{\244\271\207{\244\271\000\000\000\000\000\000\000\000\000\000\000\000\000\000\000\000\000\000\000\000\000\000\000\000\000\000\000\000\000\000\000\000\000\000\000\000\000\000\000\000\000\000\000\000\000\000\000\000\000\000\000\000\000\000\000\000\000\000\000\000\000\000\000\000\000\000\000\000\000\000\000\000\000\000\000\000\000\000\000\000\347\322\203\267R\260\262\267\324\355\212\267\356\016\3068|\363\257\267\351S\316\267\233,\243\267uB\2038\316\366\220\267\270i\261\267\367\2644\272\216\217\017\272\r\343\256\272k\311\025;xh\246\272X\020\020\273\027\320\335\272D\302\236;H\353];\365\2116\273\261\312^\2737\331\031\273\373\254\034;zi\253;\210[.\271\310\375\320\273L\314\260\273\035\242\217<\204\257f9\005\357\373\273\303x\347\273Z\360\021\274\3230\022<\244\220\357;\220 @;X\252m\274\320^>\274\272\247%=\304\363\301\273n\360=\274\256\224N\274Z\366\227\274\245\232\277<7\177\342;;\244\221\272\030\002\353\274\242\265h\274$\313b=\252s\343\273\207\337i\273z\372\022\274\366f\353\274\336d\237<$6\265\273\312F\356:\033d\331\274\023=\216\274U\362\207=\214\371\222\273\270\372\201;\310)I\272u<6\275\370\2604<\240\306\370\274\302V\211\273\214\370\316;\274J\330\274m6\231=2NA;H\0366<\364\277S<)\235o\275C\210r\274\345\327`\275;\022\030<\337n\325<\351\033\373\274\306\350\227=0g\356;L\265\356<\364\222\242<\275\237\206\275nm\331\274\307\022\203\275$p!<=Z\305<\254\260\307\274\203\337\200=\305\261f<\3755L=\376\364\261<0\230\223\275\010 \025\275t\307\222\275v)e\274O\t\314<<\217\030;\360\227\213=&\032\360;4\267\216=\370\371\366<\265^}\275R\201M\275c*\221\275\016x[\2753\2267=\031\210\301<\272\371\272=3\034\204<\031\250\371<\035{\'=E&\001\274\200\3634\275\020OS\275\344\330\233\275p\244\032=?\362\256<\033x\321=\363|\212\274\000d\270\273z\263\303<aDk=\264\037\362\274K3\310\274\366\213\271\275\022\303#=\236\267\237\273;S\345=\312\234z\275\377d\271\274(\0267;;\034\300=R\273\252\273\000\361(<\310\336\223\275\225\324M<\0109(\275\242]\350=\302}\273\275\010\232\273\274\260\024J:\037|\214=\r\350\220<R.\001=F\345\301\274\362\350A\274\350\361\266\275\302\247\365=dZ\240\275\372\014\021\275\250\204r<\264\202\267<\362\237#=\366yd=\222g\036;$\230\324\274\232g\357\275\234\346\306=\314x\247\275\356\214\000\274\3406\355<\"Z\236\274xA\350<\354\0267=v|\016\273\212\343\314\274xU\360\275\250M\270=L\\9\275\336>\214<\260\354\224=\236*n\275\274F\351<B\371\003<T\265(;\331\311\010\275%\272\332\275Q0\224=,\021\303;`~\006<\250\307\276=\332\207n\275\3063<<U\377\204\274:\354{<\023\311\205\274\217,\260\275|\331\'=\376B\035==\335\270\274\323\036\231=*\242,\275\316\341H\274\320\006^\274\272\215\255;\377\251\204<\022\241q\275\000\r\031<E\201\034=\002\027\212\274v\316O=I\375\276\274\242^\260\274\256xi\274\232\032\262\273\204V\036=\326\365\353\274\210\336\342\273\274\027\361<K\025\230\274V\'\257<\266\016\214\274\225\224\214\274\335\320Y\274d8\017\274\004\243L=\237\202@\274\343\343\371\273\001\324\307<1_\244\2746w\240\271\354\203\020\274Z\336\000\274\035\244\021\274\356m\334\273\"eA=\001\233\371\273\303\352Z\273)e\341;\333},\274\221w\233\273\202\211V\273T1\234\273{P[\273\362\th\273!O\355<\336\360k\273\247\240\325\272\324\014C:\247\242\235\273>g\275\270X\3169\271l5\216\271\200=\231\271\360\206\263\270\207\250\366:\265\232K\270\276=\227\270\022xK\2727f\217\270\000\000\000\000\000\000\000\000\000\000\000\000\000\000\000\000\000\000\000\000\000\000\000\000\000\000\000\000\000\000\000\000\000\000\000\000\000\000\000\000\000\000\000\000\000\000\000\000\000\000\000\000\000\000\000\000\000\000\000\000\000\000\000\000\000\000\000\000\000\000\000\000\000\000\000\000\000\000\000\000\000\000\000\000\000\000\000\000\000\000\000\000\000\000\000\000\000\000\000\000\000\000\000\000\000\000\000\000\000\000\000\000\000\000\000\000\000\000\000\000z\360\331\271z\360\331\271z\360\331\271z\360\331\271z\360\331\271z\360\331\271z\360\331\271\207.u;z\360\331\271z\360\331\271\336\367\337\272!\360\254\272;a\016\273s\203\371\272E_\031\273\356?\371\2729\225\001\273\346\353|<\331\377 ;\010\302\225\273\221\004\231\273\177\267.\273\343\341\002\2739~\375\272M\332\224\272f\006\206\273\245\255\243\273\307\265\364<\031\222\027\272i\311\377\273H\000\024\274\024\250\006\274\230\233\007;\234\0019\273p\246H\273\373pM\274Q\272\026\274\016\020-=\311\033P\273\004vt;\2074\333\273r\377\211\274B\nz;\014Jf\274\030\340\227\273Gq\257\274O*\377\273\226A\202=D\202\270\273\330\374\035<\374x\366;y\213\354\2740\247\331\272(A\n\275=\322\t;^\333d\274M\366\225\274\231\217\222=D\202\003\274q\266\277<.\332\257<\314\366/\275\210+4\274\035\000[\275\361\245\223<\311\017,<\334\223\004\275K\241\235=\201\266\200\274\231\324\351<\034\231\315<)\322h\275c\236\364\274\353\345\211\275\362\205|<\244k\317<Ag\237\274\352\034\220=\260wI\274\017!K=\3509\363<\306\312\204\275\021K?\275\325\342\242\275h\2523<\303%\274<\205-\236\273%3g=\222S}<\177Iw=\362\325\024=\377v\232\275\340\375\220\275\366\225\262\275\242\374\310;]\242a=\202\370\303<\262?a=\374\237\270<\323\361\014=B\324\"=\242{w\275\332\377\212\275\002M\201\275\326\266\200\274\273\326\221=b.\021=p\000V=\263\242\033=\372\304\361\274d\202\324<\002\366:<\244\231s\275\312\233\242\274\325\310X\275\301\327R=\027\345\375<\240\353h=\326\204\241:j\020;\275\234\002{\273\013\376\307=\342\357\003\275\306\t\341<\357\302\214\275]\031\310<\363f\335\273\374\206\213=w\017u\275b\271=\275\326|\310\2744(\013>#k\311\273w\272C=\033\355S\275\326}*\274\'-O\2758\307\222=\020\305\220\275\026:)\275\204[\371\274\355e\246=$\211\221<\2552\217=\227\021\225;\347\030P\275U\256\232\275Br\214=M~t\275\264\265\321\274\264I\333\274O\006\221<d\003\351<~\301\211=\330X\007=\241\021\213\275T;\270\275\n:\210=\256\2036\275Y\333\204<6\357\254\273d\231\031\275`&\020=\324Q\025=mw\227<\265\177\242\275\024B\267\275\006\277\272=<7s\273U<\013=504=\366\315\205\275=\341\314<<\270-\274\373\035\207<\030\216\250\275]~\246\275\205\007\241=v\2724=\230)\000=z\330\272=\270\200`\275\306\026\020\273\255[\341\274x\371;<\r?\200\275\206jj\275\'r7=Z\250^=Z\354$;e6\303=D3\016\275\344\353\326\274\351\337\260\274D\364\"\273\017F\353\274\376\263\034\275\350\217^<\312\\;=\276\341,\273\355\t\220=\325\322\221\274\263B\241\274\324\355\250\274x ,\274\254\274g;\277o\266\274&\305u\273\311!\007=\302MH\274[\027%=M\274/\274[d}\274,\013M\274I\215?\2745\216\212<\300\322\001\274\016\350\300\273\"\005\252<9\204a\2748\272\355;\260\252\237\273\014Y\212\273\003\305\307\273\375\002\327\273\211\024\242<\030\035\214\273\337\250\210\272:\216\354;\215\207\353\273\356\212\010\273\226\336\377\272G\214\322\272i\276\024\27360\014\273>BA<D\303\016\273\340\3374:\314\202F;zQW\273X\217\300\271)r\321\271\266\004\033\272\263?\026\272F\246\311\271\214(\272;\342p\241\271iw\203\272p(\335\272\332g\300\271\027!\345\270{\336-\270\214\240\\\270\231\030\272\267X1\001\271=;\237:\356\363\367\270\273\032\366\271\372\024\033\271\303\360\010\271\000\000\000\000\000\000\000\000\000\000\000\000\000\000\000\000\000\000\000\000\000\000\000\000\000\000\000\000\000\000\000\000\000\000\000\000\000\000\000\000\000\000\000\000\000\000\000\000\000\000\000\000\000\000\000\000\000\000\000\000\000\000\000\000\000\000\000\000\000\000\000\000\000\000\000\000\000\000\000\000\3302\264\271z\325\215\271a\371\232\271\211\260\250\271\324|\226\271\346\222\240\271\313\333\245\271+\\K;i\360\235\271\234)-\272\331\347z\272\344\346+\272u\306r\272%\234\225\272_\020\232\272\026\227X\272=\031{\272@\360\022<*V\0009\300\236 \273\236\3034\273\223\266\'\273w\301\227\273\323` \273\350\254\027\273??s\273\236\225\240\273\245\342\357<\244\371I\272\270\020\252\273\241@\321\273\360v\257\273\365\312\006\274\341\356&\274\227\302^\2739\031\037\274\001\301\311\273\270w\t=\366\352f\272\345\'\211<\341K\031<\361\377W\274\010_\331\273\200~\355\274\003\3027;Jg\\\274\315\222\227\273D\307\014=\250\\8\273p\315\275<`\225\375<\237\367\340\274+\234\256\274<VC\275\037v\264<\257\025r\273\r)\235\274\360\262%=\203?\272\273Be\001=\233\307\034=h\216/\275\324R)\275\301\363\207\275\300X6=^&r<3|\315\274\332\323\"=\354\t>\274\212\213L=\266J\016=J\312j\275\305{l\275\300\234\224\275\362\327\346<5\0030=P\"\206\273\303\017\314<\014P\273\274\014\225\253=\350\3166=\360\344\215\275\0273\236\275\244\344\223\275\350\206\374<\342\314\207=\nui<t)(<\020\353\327\273\372\342q=. \375<\315V\242\275\213,\272\275\'\315K\275\257\317\002=\312\360\271=\375\037\033=Z\320Y<\344\007\317<>\026&\274\017L\211<\214;n\275\360\274\272\275\362\3614<v\356\236\273\013l\224=\251\271s=\377r\242;\206bb=\371\310\206\275\370\361B\274\243S\031=\3459\212\275\n\361z=\312KU\275\334\t\r=\006\353\323<H)\026\273b\310\002=\314-j\275V\r\024\275R\257\017>\312\033\001\275\361\345\257==\002\210\275\200.\300\271\216p\344\274\330\225\355\27333\250\274\232\326\023\275Z|3\275\354\201\'>\266\314=\274\334y\263=\267\267\023\275Q5\017\275d2k\275_\2352\273|\207)\275Bv\276\274\212sC\275/\177\221=\000p\315\266E6\270=\177\373\342<\275\257\227\275B\327\202\275\312\325^<hF\347\274\0304><\033\303\\\275\352\ry\274\236\347\241<\234d~=\334\201I=\267\325\355\275\256{\220\275\272d;=F\323P<\307\232\207=\260\373\037\275\201\204\206\275\022k6=\025\243#<=\216\031=\374\264\001\276,\323\205\275\215}\251=?\254W=\305\372\215=\036\272\265<\241b\204\275\223\\\220<\321\255\340\274n\362a<\252R\360\275\0104$\275\304\322\233=\242\223\204=\304\240a=\021P\240=\310};\275N\227V\274q\237\305\274?=\277;\230h\263\275G\003\367\273r\267\277<\265\340<=X\301\310<~G\353=\363\355\363\274\350\020\352\274\237\326\006\275\272\365f\274\006\023k\275(\276^\272\300\224\266\272\23467=9\204\260;xL\262=E\212\200\274\366\344\245\274PF\301\274\021\236\235\274[\265\002\275^\3359<\357\010\023\273MY\312<\350\264&\274\200\266T=\2100\014\274\215@x\274\325\275b\2747AI\274\244\3258\274\363\366\226;;t\245:r\364\206<*\247W\2741\rm<\200Qf\273Lm\'\273\372\031\322\273/\341\262\273\233{\352:D\315\327\272\255,\030\273\315\266?<\262B\306\273\306\010\223\272@\303\204\272\367B!;\005\250\342\272\356 \325\272\365\347\250;J\026\366\272\273\204\215\272\n\360&;\333\325\340\272$\273#\271\352.\304\270<%\010\271\370^\314\270\273\2144\271\325,\377:z\315$\271r\374\033\272\245\031\301\271\003\3009\271\254\000\r\271\"\376U\270C\305\207\270\226\n\345\267\250\001\037\271%\372\303:\035\226\030\271\352r\027\272\276\336>\271\311\212(\271\000\000\000\000\000\000\000\000\000\000\000\000\000\000\000\000\000\000\000\000\000\000\000\000\000\000\000\000\000\000\000\000\000\000\000\000\000\000\000\000\000\000\000\000\000\000\000\000\000\000\000\000\000\000\000\000\000\000\000\000\000\000\000\000\000\000\000\000\000\000\000\000\000\000\000\000\000\000\000\000\000\000\000\000\000\000\000\000\000\000\000\000\000\000\000\000\000\000\000\000\000\000\000\000\000\000\000\000\000\000\000\000\000\000\000\000\000\000\000\000\345\254f\271\212\372s\270\252N\037\271Sw\206\2717\233\341\271\230`\024\271Z\326e\271yl\';<\247E\271\210\362h\272\212[\303\272\317\334\241\272\032\211\336\273\313\232\000\273g\347\267\273c\323\021\273\332\300f\273\246\004\246<\216\350\232\272T\373u;\304\"\205;tb\243\273\234 \307\2734\363U\274\264@|\272@\265\033\274?U\307\273\245\010\350<\3071\361\273n\'\200<\202\337\020=_\021f\274\0031\247\274\233I\356\274\254n\211<\205!B\274\334;\324\273^\360w<\216H!\274n!\310<\360\251D=\212\371\323\274\302,\r\275\364M>\275\034\025A=M\024\240\271\3473\215\274\332F\303;\222\346\364\273\000\215\373<\010V>=\003\2414\275\240\303k\275\263\233g\275?\026\211=\017\243\271<;\235w\274P\212\310;\260\230\313\274\247Ne=f\374*=>\223\204\275k\364\254\275\002\3049\275\370\031\177=F\212\201=\250d\026</\241\253\274E\200\373\274\374\317\216=\202\004,=p\316\236\275Yi\320\275\375\251\320\274\251\310y=\212 \325=\216U\312<?\361\376\274$\322\376\2742m\020=\242m\035<\303\303\244\275\365\017\320\275B\017\377<\r:\375<c-\320=\177*{=i\277)\275t\3179<\272$\270\274\321\223u\274\220\232N\275\354s\264\275\003\350\254=\270\354\210\274\376\246\246= RQ=\024qb\275\032g\212=\222oq\275\236hI\275\301\233w=\302\230\213\275m\301\356=($P\275\2605\002=d\222\033<\303G\205\275s4\204=\372SK\275~\032\201\275\211,*>\253\013<\275\034\310\375=E2w\275\2448\365\273\211m\345\274\356\r{\275\224\371\232<}\340/\275\014_\226\275is%>n\300\372\274X4\362=\275r\303\274t-0\275<;D\275\336\343D\275\303\2742\274\322.\006\273\244\351\254\275\361+\020=\317!\242\274\370\340\315=P\\\030=\271\324\272\275\335\244@\275*+\214\272T\321\221<\366`X=\332\376\257\275iam\275\\R_<#l\'=\371\324k=\231\352\345\275\357\\!\275\366\332y=\3271?=_7\233=\"\332N\275\030\266\236\275RV\000=\260\275n\274\231\024\033=6\253\363\275\354\032\221\274\341\202\236=\377~6=\370t\264=<\341\304;v\277d\275\254\3119;v;\215\274\3307\205<U~\324\275\227\245\035<\341\207\202=\252\010\303<\260\207_=\324\364\205=\330\357\023\275S\377L\274\340\260\253\274\225\037\332\273\350r\253\275\267\232\352<x\247E<U\300\247<\320\260\010=\316:\330=\242|\302\274\355\211\273\2745\177\333\2748\266G\274]\025_\275V\235\013=b\370\357\273\33244<\376\264U\273L\325\304=I3a\274\344\306\256\274/H\271\274\005\224S\274\352o\025\275\312\023\304<X\276\343\273xp\364;\351\205\\\274\305\222\202=\357\216\t\274\207\220\201\274\304\200h\274\244T\301\273ZO\261\274Bw\212<\221\353\224\273\023VD;\253\252W\274\254K\242<\244\004`\273\230\205\253\272W\003\276\273\013%,\273\000\235\267\273%k\342;\343f\212\273\214|\234:\204\273\241\273\236\261\325\2718\335\"\272\324\246\344:\255\301W\272\354\346o\271\300%\325\271X\216V\272o\325\243\271[\320#;\271\021$\272\000\000\000\000\000\000\000\000\000\000\000\000\000\000\000\000\000\000\000\000\000\000\000\000\000\000\000\000\000\000\000\000\000\000\000\000\000\000\000\000\000\000\000\000\000\000\000\000\000\000\000\000\000\000\000\000\000\000\000\000\000\000\000\000\000\000\000\000\000\000\000\000\000\000\000\000\000\000\000\000\000\000\000\000\000\000\000\000\000\000\000\000\000\000\000\000\000\000\000\000\000\000\000\000\000\000\000\000\000\000\000\000\000\000\000\000\000\000\000\000\000\000\000\000\000\000\000\000\000\000\000\000\000\000\000\000\000\000\000\000\000\000\000\000\000\000\000\000\000\000\000\000\000\000\000\000\000\000\000\000\000\000\000\000\000\000\000\000\000\000\000\000\000\000\000\000\000\000\000\000\000\000\000\000\000\000\000\000\000\000\000\000\000\000\000\000\000\000\000\000\314\346J\270\307\360h\267\004O]\270\350\377\322\270\207\221\203\271\224\201\n\270\373\356\234\2701\235S:\031v\223\270Rb*\271J5<:\274\035*\272\355\027\253\273\376\214=\273\362\225\233\273\305\366\247\272\274\351 \273\201\347k<\301o\035\273\335\214\224;\360\023\250<f;\264\273\235J\023\274\024\354z\274\321\\\303;\006\\\036\274\272@\363\273U\345w<\375\304}\274\021-\252<\r\2612=]\325n\274\3018\257\274Z|\352\274\030\261\003=\217u \274\321*\212\273\242\313\230;\276\212\326\274\315x\307<4Q}=z4\327\274\272\374\"\275#\234\r\275\303\200\226=&uZ\274d\262p\274A\212m\274\0340\001\275\357<!=DSi=\204\317D\275rr\224\275\266\262\300\274\227\300\317=\253\205\207<q\037\313\2733\362\232\274f\207A\275\345\332)=g)F=\373c\221\275U\267\304\275\ns\266\274\374\027\326=\000x\226=\275\321\232<\024e@\275`\001R\275^$-=8\220\316<\332\364\252\275\025,\333\275xT\036<\313\202\261=\344\242\343=d\003Q=B\021\234\275\004\247/\275\316\276\323<9\273G\274\3705\251\275J\355\264\275\017\201n=E\3467=O\253\345=\372\000\232=\324d\251\275v\2614\273\263\353\262\274\333\246H\275\214\246\016\275_S\223\275\'\375\314=\217{\367\273\233\317\256=\034\232\375<\0332\271\275\021\314\214=\362\266\000\275\246\027\227\275\024\342\251=\377\217d\275C\030\327=\201R\027\275\351\014\"=\346(\363\273F\337\316\275\361\360\230=\036\\\337\2746\323\272\275=\0336>a\017Y\275\2332\302=\325\342.\275\030\017\235;\002\250\n\275\264\001\273\275\250+8=\313n)\274\302\"\327\275\3229\006>\274v-\275\313\t\265=\004\204.\272\212\321\'\275\360\260u\274\177r\203\275\304\000\266<\261;\331<\273\224\346\275\361s\231\274\274\313\213\274!\336\246=\373Ws=\205c\227\275\206 H\274\272\276\316;\026*\210<\256\313\220=\305@\331\275\"G\303\275j\000=<a\326_=\344;\231=\221(\270\275\032CP\274\264\223f=`\363\205<\010+\271=M(\201\275\246>\251\275\031B\346;\326J\217<\232xG=\223\257\270\275%\004\263;\360\256\217=\206\310\212\273\272\360\272=\300\010\361:\226\322S\275 =I\274\260\000\267\271\016\\\340<o\271\220\275\3004\367<%6 =\366\017\351\273\353\2352=<\326x=Xz\013\275\016\017\230\2740f,\2746\325i<\316\025m\2758*]=\010Y\314;\342\332\212\274T\3341;\223\207\310=J\323\251\274\262\372\341\274\332\251\200\274\270\310 ;\251~1\275M\270G=\2132{\274B[8\274\355\327x\274\276\213\314=IBQ\274?[\313\274\211[\256\274\222T);\034\t\005\275\234e\003=\374a\214\274!\374\025\274\216Z\212\274q\242\202=\027\225\026\274\314\026>\274|\037y\274\273\2651\273\372\250\265\274z\213\250<I}\315\273\300\204o\273\354\377]\274\321\227\221<\375\317\223\273QH<\273\n\377\274\273\271\2505\272\266\030\376\273\377Q\220<\271a\016\273\272=\241\273\245w\333\273f\267v\2721\'\210\272\036t\212;\001\304E\272C\3767;H[\203\272\242\014\207\272pV5\272\33691\272\034pk\272\001\271\325\270\'\267\261\271t\2638;\241h\025\271\334\2576\272\217\357\242\271\312\273\255\271\331\350E\271\231Q\307\271\326p\253\271\000\000\000\000\000\000\000\000\000\000\000\000\000\000\000\000\000\000\000\000\000\000\000\000\000\000\000\000\000\000\000\000\000\000\000\000\000\000\000\000\000\000\000\000\000\000\000\000\000\000\000\000\000\000\000\000\000\000\000\000\000\000\000\000\000\000\000\000\000\000\000\000\000\000\000\000\000\000\000\000\000\000\000\000\000\000\000\000\000\000\000\000\000\000\000\000\000\000\000\000\000\000\000\000\000\000\000\000\000\000\000\000\000\000\000\000\000\000\000\000\000\000\000\000\000\000\000\000\000\000\000\000\000\000\000\000\000\000\000\000\000\000\000\000\000\000\000\000\000\000\000\000\000\000\000\000\000\000\000\000\361\237,\270\006\366\254\266\220\'\2556\032w\003\270\343\273?9D\254,\267xS\327\267\310E/\267 D\230\267a\026@\2701\"z;\335\225`\272\362U\217\273eP[\273\246{Q;\036[>\2730\177h\273\324\353\254;\376\026@\273\311\316\271;\3757\026=9\027\366\273\262%\203\274\366\031\202\274\360Z\257<yl\021\274\347\344\001\274T\302\t;\226\206\236\274\022\343{<\010\373w=\n\023\213\274\357\013\332\274Y\311\005\275\361qc=\234+\303\274s\364\246\273\261 \222\273\206\025\010\275\257s\333<,\016\245=\376\326\352\274\'\306S\275\254-\006\275\266\037\306=X\317\361\274\370\366\267\273T\371\303\274\035\324@\275\333\272+=\300\311\216=\364cA\275\362C\215\275\265\032k\274\333\034\002>\343\313B\274p\216\243;\223\212 \275l\000}\275\302w*=\206\365B=g\347\221\275(>\245\275Z\032K\274sf\001>\244?$=vf\024=\340^\222\275h\r{\275i\247?=\3240X<8\362\252\275\212\245\210\275Jh\332;\031\003\322=\320\311\217=\220\200\223=\034!\302\275\273qM\275y\336\371<\250r\t\275\211\"\236\275\'q5\275\254\327\007=\024\352X=\035\246\226=FW\220=_]\304\2758\207d\273\n\337\306<)J\202\275\276uw\274\270,\363\274\262\3506=L]\333<,\013P=[\316\035<\360\351\331\275&\261T=^)\376<\277\\\270\275\326\330\337=\\&\013\275\320[\004=c2J<\364\301\227<\r\250\002\275f\233\345\275\2218\234=\006\245\235<&\014\344\275\270\0021>\362-\375\274R\274Y<v8\217\272\306F`\274 \354\"\274o\022\300\275\212\234\201=5\2369<7\302\367\275\367\232\306=:*\335\274\322pD<Y\301\n=gL\234\274\272\216\223<\274\3720\275\242\005\323<\235\271\301<\242\227\002\276\304\212\224\275\352\"\216\273C\261\035=yI\255=>\"\031\2752f\024<d\253\031=\314\014\034\273$\211\230=\014\262\354\275\276\363\330\275\235\213\311<r\241X=\245\374\307=\230\316i\275,{\361:\252Em=lFL\275B\227\277=P*r\27529\245\275PN\340\2720\256o=O\177y=\312)\206\275.\211\246<\254<n=\217\302\177\275A\203\222=\222\250\343;\314\354e\275\310\275\"\273\345`\033=\256\2745=\376\250\\\275\254\177\026=\037\310\336<V\303V\275a:@<\302`y=~E\033\275\220\023\270\274b_\222<n\315\010=\203(\017\275\361\325d=@2x\273D|F\2758y\247\274\254\013\301=&\271\313\2748,\306\274\210\212\262\273\2127\214<\362\253\004\275\226\205O=\353T\206\274\006\"\335\274J\r\002\275\264J\274=<<\212\274\375\237s\274\327\331\251\274\202gU;\376u\365\274K!\372<\234B\254\2736\332`\2749\037\307\274\267\216x=\230\262@\274\351\324B\273\242^\200\274\310\246c\273\377\010\277\274\245\316\316<}\007\016\273\023\234\n\274\267L\224\274\312,\240<S\304\267\273\204\206d:n\201\325\273l\001\306\272\202\274\022\274\212(\243</\034\037\273\354\374\372\273\370\033\373\273s\034\027\272\226\321\205\272\327\310\177;\317\240=\272J\356F\272u\036\006\272\357\\\';{\203\356\271S\312\230\272\304)\243\272Y l\270\035K\000\272Q\307);P\250\263\271\020\360\355\271A\333\325\270l\347\333\271^\214\342\270\345\366\241\271\244\217\242\271\000\000\000\000\000\000\000\000\000\000\000\000\000\000\000\000\000\000\000\000\000\000\000\000\000\000\000\000\000\000\000\000\000\000\000\000\000\000\000\000\000\000\000\000\000\000\000\000\000\000\000\000\000\000\000\000\000\000\000\000\000\000\000\000\000\000\000\000\000\000\000\000\000\000\000\000\000\000\000\000\000\000\000\000\000\000\000\000\000\000\000\000\000\000\000\000\000\000\000\000\000\000\000\000\000\000\000\000\000\000\000\000\000\000\000\000\000\000\000\000\'f\177\270\0378l\270\356\247R\270\304\023\3729\313\275X\270\366\016\263\270wG_\270V\023\273\267\276 \220\2706\323\354\267\016t\252\272\255\315\004\271Q \023;\243=\210:g\230\354\271\332G\321\2710\236\234\271$\361]\271S\232\267\271ba\031\271\315!\363;\030g\234\272\013\233\2709]\321l\273\313\316=<V\177\240\273\371\'\276\273\024o\331\272\217\335\213\273\0104\010;\215)d=\254\270(\274\320\"d\274\001\332\216\274\330\200\017=\215\3272\2743^/\274r\210\007\274H\201\256\274\275\232\n;\016Q\236=\206\354\244\274\276\362\376\274\334&\000\275F\032v=\207\325\263\274\324\035H\273\366^\200\274\001\226\022\275z\030\261<s{\272=\2232\356\274\221L8\275<\3620\275\014G\306=>\021\016\275\034R\310;\027A\033\275)\n4\275O%#=\366\332\243=\203\2548\275\345\314#\275\362\2672\275OH\n>t\n\004\275(\320\253<M\347\202\275\230LP\275\304\227\"=\017*(=\363@\211\275^\250\036\275\007G>\2755\277\023>\336\376\267;\240\306b=L%\252\275\277\203T\275=R\'=\240\233_:h\023\244\275\314\357\224\274\223\274\010\275\013,\356=.\325?<\301\266\257=\3063\272\275\233\243\377\274P[ =\262\0319\275R\022\210\275J\311\264;\371b\317\274\010\025\231=(`\177<\352me=\370\346\256\275\"\242\252<~cK=+\225\235\275*\r*<\266\202\306<\3637\271\274/\036Z=,\'O;?\007\203\274\000\033\276\275\037+\231=`T.=\237\266\305\275\200\236\t>\252\t\310<6E`\275\211\215!=E\020\215\274\367(\276\274\212p\321\275v\376\233=\275M\240<\036!\361\275\255;&>\210#\271<\270\274\210\275\2075:=\004\251\010\275P\343\213<w\313\207\275s\363D=\356}:\274\342\000\003\276D\346l=T5\246<\332\350C\275\354,\233=?K\'\275\200\362\303<\354\320x;\366\366\201<(\266\234<\313[\000\276\266\337\254\275\351\244y<\371\025\037;\243\320\316=\211\026\r\275\327\r\207;\200-\200=\202\316\251\274\340\371\242=\211.\260\275{\342\310\275\023\031\032<\213\324!=\t\362\274=\215\033)\275&\025o;\235Q\206=k\274\233\275{q\272=~\223\r\275\232\306\237\275\354\023\371\273y\222\212=4\324u=u\260\374\274\330!\221<\234\275N=M0\275\275Q\264B=\225}\262<\262\324h\275\001?o\274^CZ=\305\245T=+\275\r\275R\355:=\003N\271<\311\206\222\275)\232\220\274Z\260\177=\266\251!\275\323\364\273\274\343\311\000=\"&\022=\264\\\260\274\217U]=\032\244\251\273\211\307o\275f\'\023\275\324\353\231=A\235\333\274M\371\233\274U+5<_I\004<k\264\204\274\\\277a=\034\344 \274\363H\030\275\274L%\275\235\306\224=\246\357\217\274\020\3054\274\031\357\252\272\2328\215;\222\240\342\274\372\314\373<|~\010\274.\3733\274\022W\374\274\002\334]=L\323G\274%\354\002\273\r\205I\274\004\n\220\272\032n\260\274\260\301\254<\260\200\265\273\014\273\230\273[r\202\274\036\370\276<\355{\270\273\204\235.;n-\004\274\022\206\'\272\313\346\361\273\247\263]<\206\256\233\273Z\267\320\273L\202\332\273\271\223G\272\\\246\224\272\220\271!;\202u\177\272:\251\215\272(\355\035\272\344\314\251;\273G*\272o\247\230\272\242\020\250\272\026}\221\267\243\0225\271\313\336d:\272\304\002\271J\327\027\271;!\335\267\026x\031\271a\273\014\270\261\241\326\270\350\001\334\270\000\000\000\000\000\000\000\000\000\000\000\000\000\000\000\000\000\000\000\000\000\000\000\000\000\000\000\000\000\000\000\000\000\000\000\000\000\000\000\000\000\000\000\000\000\000\000\000\000\000\000\000\000\000\000\000\000\000\000\000\000\000\000\000\000\000\000\000\000\000\000\000\000\000\000\000\000\000\000\000\000\000\000\000\000\000\000\000\000\000\000\000\000\000\000\000\000\000\000\000\000\000\000\000\000\000\000\000\000\000\000\000\000\000\000\000\000\000\000\000D\262(\272s\003+\272\254\360M\272\032\216\322;\226|)\272\203\303\203\272\273\303\005\272\205\026\000\272\241)\222\272Q\231\027\272\277P+\273\241\334\205\272\305O.;/[\001<0\250\270\272\230D\311\272\257\251\241\272\202\"@\272\300+\271\272\342N\034\272\236\364B<\245\0141\273\256\035\346:7\003\307;p\005\030<\206K\307\273\005\233\000\274S\252\231\273\305\030\251\273\216g%\273W8\212=\214q2\2743X\031\274\036@\313\273Fm\361<\007\025`\274gZ`\274C\252}\274!\306\255\274\020\033\323\273WV\266=\3416\273\274>\331\220\274\352\334\242\274\366\251c=\262\316\236\274\033\222\"\274\353\316\325\274\201\220\010\275\266\035\225;\3026\303=\'\032\003\275T&&\274\017\260\031\275\313{\225=\353u\n\275\254\352\007<\367\030#\275\340\303%\275\221\215\214<T\223\236=)\3372\275XG\032<\356uU\275\316/\301=\364\253=\275=\273\027=q\'b\275\217\257C\275f\t\334<\001.\031=`\034t\275\266B\252<\313\314]\2752\036\336=\312\321\017\275b\342\224=hK\207\275\276\254\032\275\326\267Z<\251\312\t\2741\000\201\275\270\344\013=\215\313\205\2756\206\322=\216T\352\2742\023\305=\313r\240\275\000\246\333\271$\3472<z\325[\275\252\233\027\275x\027d=Tv\240\275)\273\250=\362\364\373\274f\352K=\016\002\233\275K\277_=\333$\007=\345\366\235\275\315!S=h\'\222=\340A\261\275\265[\207=\\\262\364\274B\021\013\274G\256\243\275\220\332\245=\3139D<K\023\277\275t\237\027>\177u\216=\307<\317\275z\255[=\324\204.\275x\366W:\200Z\221\275\305\364H=\267CV\274.\223\334\275T^\026>\252\016o=.\\\302\275\375F\207=\227\344X\275yc\200<G\337\222\274\250Nf<\273P\341\274Y\005\345\275\362l\306<l?5=71\235\275\261*\256=\340\205$\275\246\201\214;r\220!=\332X\246;\341w\330<\323;\265\275.\305\247\2754U\314<3\270\344\274\265\241\253=\334\273\353\274\305N\247\274\305\n\213=ka\217\274G\010\265=\216\336E\275\026\255\261\275\000\362K\2712%\000=Y\343T=\031\362W\274T\211\242\274\354\227\200=\313\365\204\275\204|\262=H\235\260\2723\373\220\275\345\215-\274vw\235=h\244\033=\214\372\334\273j\020\250<u\261\377<\265\204\256\275\340L\004<\252=D=\247(b\275m/\216\274\313Qp=\350/\363<D(\032\274\264\274X=\230 \204:P\024\230\275\023\022\013\275\234Un=\3222\025\275T\324\021\274\232\357\014=\274\261\233<\210\333K\273~\260q=\242\207\216\274\350{o\275:\251=\275\200\240l=\336V\304\274\270i\004\2740\340\210<\302$W\2732\362\'\273\256\336a=\213\333M\274uP \275\245\360#\275\242\314r=\251\333y\274\336L\337\273R\0203<V\031\t\274\356\250m\274\364S\343<\214wE\274\356Q\026\274;7\002\275\2745;=\004\354\026\274\201K\220\273\234\212b:{\376\236\273{G\232\274\270\327Z<\002\225\275\273\014\034\232\272\256T\200\274\rm\203<\231\007\204\273e\254\000;\232\341\376\273Y\203\020;\250]\300\273\336\364\322;{\n\254\272i\214\025\273E1\260\273l\201\303\272\335\243c\272\207\020\207::\310\213\272\317\310\033:&Lf\272\332\002\274;+mx\272K\312\210\272\332\275\213\272\000\000\000\000\000\000\000\000\000\000\000\000\000\000\000\000\000\000\000\000\000\000\000\000\000\000\000\000\000\000\000\000\000\000\000\000\000\000\000\000\000\000\000\000\000\000\000\000\000\000\000\000\000\000\000\000\000\000\000\000\000\000\000\000\000\000\000\000\000\000\000\000\000\000\000\000\000\000\000\000\000\000\000\000\000\000\000\000\000\000\000\000\000\000\000\000\000\000\000\000\000\000\000\000\000\000\000\000\000\000\000\000\000\000\000\000\000\000\000\000\000\000\000\000\000\000\000\000\000\000\000\000\000\000\000\000\000\000\000\000\000\000\000\000\000\000\000\000\000\000\000\000\000\000\000\000\000\000\000\000P\3253\272E)8\272\200\333g\272\3123\342;\357-/\272\244\274\217\272\324<\013\272\231)\022\272\234|\233\272a\275\032\272\236\203\205\273\207\300\333\272\302\247\236;\346\352L<\324\313\344\271K\246)\273p,0\273\227|\343\2721\273-\273\323[\304\272\377\324Z<:S\225\273\317\007a;9N\245<zO\326;\250r\261\2734\2742\274|\204\361\273j\271\n\274\243\200\336\273\212R\202=O\224E\274\334\3370;:&W<P7W<EF*\274OT\207\274\t\336\207\274\241G\256\274\252-\201\274F\\\302=\347\006\276\274\254ez<\264x7\274@9Y<(\276<\272A\200J\274\270\363\360\274\340\201\013\275\214\277L\274W\'\331=~Q\020\275\016\256:=\241\313\032\275%_\330<\261A\202\274@\362B<\020H,\275ZZ3\275\362!x\274M%\232=\032i.\275\360\233n=\024nB\275}j\324<4_\'\275D\314Z=IpC\275\305\220\001\275,\n+\273\376e\024=\375&K\275XW~=\373\372r\275\216\235\250<\263K]\275\216\324\313=\272Sl\275\344\356\342;\231\215\232\273\025s>\274\215{\006\275\'\352\223=\207\001\230\275\323\374\325<\363\236\215\275$\204\360=\020e\201\275|0H=T\240_\274[\004e\275\220\252\241;M\003\253=\341Y\250\275a\235\005=u\304q\275\341*\221=aO{\275FM\235=\262\366\'\274\302\031p\275\304>\263=!\245\230=AY\261\275\222\215\014=(\271T\275\216\232X<\333\237n\275\226\264}=\225\026\204\274\3526\220\275\030[\035>\371\306\204=kk\301\275\340\340\r=\001\216O\275\351\203\312;\332\327\370\274\320\n\273<rr\024\275\324\306\251\275?|\372=\250\025a=o\206\311\275&\351~=9\373 \275#\r\217\273N*\306<\014\321\223\274\022Y\251\274h\330\262\275\350l\030;\300\303\024=)\310\242\275\201\021\243=T\021\227\274\257\022O\274\353g|=\252\356l\274\246\364\004=\345]S\275\232\'\237\275\370q\251<\001C\366\274%M|=\271\334\241\273\036\304\004\275G\256y=t\375\244\274N\314\226=4(\032\274\345\266\243\275$,\214;\232\004\347<\234\251\305<\244\273^\273\367\312\'\274\300WT=\376\3366\275\357\200 =\344\222\017=\210g\213\275G\353\275;S\311u=zd\"<=M\337\273-+;=\300\330\1778\217\261\206\275\031\004\202\274u\016K=\243NT\275\240`\335\27379\220=\356\312\316\273h\305\000:k\036\233=a\346\366\274\305\204\216\275\001p\001\275\271QC=_^\016\275\244u\001;\373\371\020=\265\210\350\273\376E\\<\311\304v=2\256\361\274\010\272A\275\2778$\275\245\341&=XY\254\274@@\310\271\354\217\220<\312kG\274R\217S<\224\324J=%\214\223\274=\302\355\274\262\242$\275\031\017K=l\315d\274Q\304\214;\200\260\210<Fyb\274\027\257\327\2738.D<G\233K\274H\265\365\273\321L\347\274D\202\026=N\307\030\274^\206k<\'\243\225;b\2403\274\314\362Y\274\250\311\004;\243\265\311\273\326)\364\272r\354\203\274NH1< \003\240\273\212\r\270<\270)\027\274\3158~\273\340\307s\273\032\315\005;\232Ed\2739#p\273\004\"\324\273|\021\003\273\275<\002\273>.\006<@#\027\273GL\023\272$\267\263\272\335\332\265;\216\321\303\272|G\034\273\261<\326\272\000\000\000\000\000\000\000\000\000\000\000\000\000\000\000\000\000\000\000\000\000\000\000\000\000\000\000\000\000\000\000\000\000\000\000\000\000\000\000\000\000\000\000\000\000\000\000\000\000\000\000\000\000\000\000\000\000\000\000\000\000\000\000\000\000\000\000\000\000\000\000\000\000\000\000\000\000\000\000\000\000\000\000\000\000\000\000\000\000\000\000\000\000\000\000\000\000\000\000\000\000\000\000\000\000\000\000\000\000\000\000\000\000\000\000\000\000\000\000\000\000\000\000\000\000\000\000\000\000\000\000\000\000\000\000\000\000\000\000\000\000\000\000\000\000\000\000\000\000\000\000\000\000\000\000\000\000\000\000\000\351\024\363\271\351\367\036\271\242\n\202\271\364\345\231:\326\026\321:\000\006\264\271\r\372\\\271\361\016\370\271\276\270\010\2729T\273\271\340\323\300\2731\252\373\272<z\266;\211\343^<-\333\370:;\226\3469\244\232\207\273\244\233M\273\343*x\273\\J-\273oym<&\255\304\2734Z\034< ?\365<DO\366\272C\200\263\273k\024S\274\375f\n\274\000\3275\274\341\036\006\274(\ne= \310\177\274\203\201\267<\302\364\343<\237\257\232\273\306\247F:\306\037\300\274\260@\234\274Vj\311\274\024e\237\274v\366\276=\014\363\335\274BP*=K\374\010;\2258[\274G\366\222<\003\245\242\274 \202\002\275\032f\000\275\263E\000\275\322\266\335=\204!\032\275W\373\211=\324\345X\2740\352\363\274\343^\314;y\332\332;\'\375*\275\014\t\006\275:\365\010\275%\361\243=\243g#\275lV\242=r\302\010\275p\371\033\275\346\306\304\274[\324Y=r\273K\275T\266\323;\333\227\n\275VN\022=\327*\013\275\006\214\231=pqo\275\253w/\275\003\364\021\275\nF\352=K\206t\275.\376(=mb\022\275Tl\331\273\337\207\205\274i^\233=\346\013\212\275\337\275\036\275\033TD\275\220\237\014>Bxq\275?\353|=\323\222\037\275\177\206\016\275Gq\357<2\337w=\222\034t\275d\205\247\274\224\2630\2751\225\330=T\201R\275\212\275c=\025\345*\275\240\316\036\275*\205\311=\325\362\203=\235*Z\275\374\005f\274\247\327!\275\270\3237=<s#\275\273\013\323<\356\203D\275\002\375X\275\006\246\n>\360\031\214=\374|\203\2753\370\026\273\312\003b\275\357\371p<\3551\300;*X;\274a\320\034\275N\001~\275\t\002\266=7\241;=\245\330\215\275\316\354\000=\334\333\000\275P\241\362\272\223\261O=\010\233\033\275\246\024j\2740\315_\275q\304k\274\336\204\352<\247O|\275\014\004:={b\353;\216\264\221\272\250\313\201=\264\302<\2750\024\010=\323\226G\274Qc\224\275\330E\373<\001\334\333\274A\343\325<\242\315\017<\3000\352\270tiX=\030C2\275 a\026=\032`\261<8{\230\275\372\212`<\261t\224<U\224\302:4Y\307:\254\352-=\354\030\240<\006\210\032\275\352\251\316\273b\037+=\233\\\206\275\010q`<!e\204=\372|\305\274c\2357\273\324W\236=\371\371\003\275\r\374W\275\004\234\243\274tS\034=\330\345E\275\350\366\267<jT\214=\\\"\346\274 j\016\2714\243\233=Z\275\'\275d\023v\275\360\317\341\274O\025\000=@\363\014\275G\225\303<\353T\025=El\267\274{\235\206<\342\003X=\324\224!\275\316\234\006\275\177\254\001\275\206\003\n=\t\023\277\274\324\215\001=\365\326\264<\314ij\274\377\024]<\\v\211<\311:\305\274\022\376\226\274\336\274\031\275\242\204*=]\265\217\274\231\372\020=\307\344\215<\333\273\216\274\330\"\340\273$\211R\273\r7\217\274|\031\006\274a\324\301\274\222\030\276<\252\2766\274\312V\033=\375\352\267\272\220\2422\274\013\374%\274\340P\273\272\341\371\033\274\266%b\273:DW\274\002\236\245;\302\334\246\273\025\336\307<\022v\t\274![\237\273\225\374\354\270N\354r;\030\322k\273\272\237\321\273\271+\232\273\367\\\320\272\301\016\026\273HIj<\210\300\202\273\034\341\271\272\203\345\260\272\236G[;\265\210\257\2728\332p\273\221\254\002\273\000\000\000\000\000\000\000\000\000\000\000\000\000\000\000\000\000\000\000\000\000\000\000\000\000\000\000\000\000\000\000\000\000\000\000\000\000\000\000\000\000\000\000\000\000\000\000\000\000\000\000\000\000\000\000\000\000\000\000\000\000\000\000\000\000\000\000\000\000\000\000\000\000\000\000\000\000\000\000\000\000\000\000\000\000\000\000\000\000\000\000\000\000\000\000\000\000\000\000\000\000\000\000\000\000\000\000\000\000\000\000\000\000\000\000\000\000\000\000\000\000\000\000\000\000\000\000\000\000\000\000\000\000\000\000\000\000\000\000\000\000\000\000\000\000\000\000\000\000\000\000\000\000\000\000\000\000\000\000\000\377\225\212\272\223\334\211\2710~\374\271\031\333 ;\300@p;5\352R\272im\376\271\355\251\203\272XB\250\272\216\034B\272h\235\225\273\2617\316\272\340\004D;\222\335C<\370\366*;\001\001T:\3645X\273:\2168\273\016\265{\273~\242\024\273\311\004\372;\204;\331\273\334\337\206<kE\031=\322\321}\273\333P\340\273\331\302`\274|\023\t\274q\227`\274Y/\t\274%QA=\357\005\206\274\247\337\000=I;6=\310\232r\274\000\315\1779\315\207\342\274&\200\234\274\0006\307\274~F\255\274 \241\241=\n\337\001\2750=|=\322\232\006=\037\366\003\275\010\325\246<$\253\001\275\221\254\017\275q\353\276\2742\342\"\275\311\027\320=%s!\275*\335\220=\332w\306<r\347D\275^@\202<r\037\220\274\313\313:\275\202\017Y\274\010\314F\275\236\230\314=\355\242\021\275\374\260\201=\230\354P\272\357\027q\275|O)\274\262,\263<\321?Y\275\232z\343<\240T^\275:\277c=\226\343\340\274\373\341\211=jE\314\274\007c\222\275\277\250\224\274\366h\272=x\001\210\275\016\372a=Q\235x\275\324P\317<\t\343\243;\353\353i=b\313+\275\253>\212\2751\272\231\274\n\223\002>Sn\213\275\335iO= \342\215\275\200\203\342:\332\304\036=\255\\\201=\rR\031\275\244\327c\275\3719\001\275\021\332\004>T\034\\\275\214(\250;\247\177v\275J\302W\274`\014\263=\222~\234=$\214@\275J\025j\2757\365/\2757t\240=\024?\241\274\256\245V\274,.I\275Ml\321\274W\274\320=5\303\214=\314\030N\275\364\274\010\275\275\r=\275a\031\036=\037\236\007<ap&\275\000\354\257\274\013n\307\274\nR4=\260P\035=Atb\275\375z0<`\223\364\274\376\300\357<\n\332M=\320uU\275\342D6\274p\377\240\273\314\'\274\274\n\234\337<\224h<\275p;\275<\272f\261\273\273\r\035=\207{;=\334\316z\275\254\030\305;\250[\255<\233Y\222\275qK\277<`\017i\273\310aT<^\274V\273\337\215G=MN\027=&i`\275Z\274$\274M\316%=\2348\225\275\350\035\252<\321\325!=\304\007\237\274\002#\203\273\361\362\226=\361\355M\274\007\241O\275\303\213t\274#\264\353<\222Ox\275dV\304<\023\313\214=\277\371\024\275\322;B;Q\222\250=\302\326-\275z=&\275u\014\333\2742\017\364<\224\177L\275\005]?=\'\201k=\337\352\024\275e\322Z<\254\337f=\266\020T\275\252n(\275u \311\274j\310\253<w\034\024\275\352U}=\274\004\353<tZ\270\274~\352\305<\234\272v<\177\013&\275\365+\321\274x\352\324\274+a\350<!\256\331\274n5\242=\336T\205<\226\227z\274\226\037\034<?\267\235\273\036\271\361\274p\316\233\274\036V\034\275\320\002\327<Cy\241\274x\245\244==\372C;\372\376g\274\273?K\274\240\301Y\274\\\211\217\274QO\031\274\210\355\275\274d\324\016<\374\307H\274\224N\203=\036\346\302\273\025C\r\2741B\'\274\250\233\333\273\237i\022\274>\302&\274\003\217#\274\014\316\371\271\027F\235\273\232t\373<t\340\320\273\356Gl\273\320\205\031\271h\026\000\272\"\214W\273\\=\352\273\242\030\217\2738m\227\272\006\203\235\272\035<Q<\361\3221\273\2200i\272\327\257m\272\034\016\260\272\264\023\225\272\201\357\n\273\303\331\252\272\250e\304\271\347 \302\271\020si;\374[\273\271\214\247]\271y\016\016\272\2655\332\271\037v\253\271j\373&\272\230\"\253\271\000\000\000\000\000\000\000\000\000\000\000\000\000\000\000\000\000\000\000\000\000\000\000\000\000\000\000\000\000\000\000\000\000\000\000\000\000\000\000\000\000\000\000\000\000\000\000\000\000\000\000\000\000\000\000\000\000\000\000\000\000\000\000\000\000\000\000\000\000\000\000\000\000\000\000\000\000\000\000\000\000\000\000\000\000\000\000\000\000\000\000\000\000\000\000\000\000\000\000\000\000\000\000\000\000\000\000\000\000\000\000\000\000\000\000\000\000\000\000\000\345\277v\272\345\323\021\272@\016\177\267\334}\267;\3627\264:)*\237\272\n\024$\272V\367w\272B\312\363\272\216\332U\272y&=\273\321o\337\272\314\nC\272\023#\200<H\3036;\313\3117\273\343\355!\273A\251\010\273\006\257\201\273\246\367\350\272\272\335&:j\350\320\273\322yO<\002\005>=\220\370\203\273\014\361B\274\310Y1\274\217\263\333\273\3229V\274\227Y\336\273UU\027=.\377\204\274.u\000=)#V=\242N\216\274B}\350\273C\300\323\274\237\255t\274F\230\260\274\343\276\217\274\377p\216=s\272\367\274L-\202=\305\340M=Te \275\010\3309<\241?\014\275\354F\n\275r\254\237\274\r\364\032\275\314\245\262=\032z\013\275\203v\225=|\212A=\253\377c\275\016\332\r=\006\027\024\275\236\233<\275J,m\274\253%d\275\201f\310=x\221\017\275\022\261\240=\2772\025=2\213\214\2754\306\351<\177\022\373\274\212\022r\275\254\255\221<\031l\206\275\0179\256=\014\3345\274\321\225\204=\006\227\210<#\264\223\2754\370}<\235\322\256<\013\332\211\275\025A\277<\350\356\233\275IO]=\010Ie<\311\363\210=\250\321\036\274;\243\213\275s\331U<=\221\230=\230\263\220\275hK\033;L:\234\275rH\022=\377_\332<f\033\251=\243W\315\274,\222\216\275\032\344\226\274E\254\322=\314\255\025\275\203\"\332\274C\203\222\275K\006\277<\210/\202=\000\321\223=\263F.\275>&\224\2750\200\t\275k\276\263=\302\317\242\273\204;)\2750XU\275\025\215\253<A\246\207=\204MQ=ojB\275\014\315\035\275\022\352\007\275~\014\227=,\357\271;:\306f\275\255\317,\275\202\362\365<\253y\235<\303\333\327<\277\2048\275\340bA\2736\220\376\274I\030\203=(\351\017=\031$\212\275\001%\347\274\271\022\371<\225\177\267\274\313~\216<r\3378\274\352\335n\273\272\270\323\274\223$\254=\226\352\333<s\240\201\275h\004\004\275n\246*=\370\203\203\275\334\277B<D\032\362<\004D_\274\257\276Z\274\002Q\236=\014\306c<\014\001G\275gm\r\275\214\326\031=\322n\217\275\234\225\236<\207\320c=\256\266\360\274r\\\010<|0\222=J*\331\274\000.#\275\250\333\330\274\336\242\337<{\311p\275d\342 =\316n\210=\177H\016\275\tq\267<\201\355\025=\236\313a\275\226\014\246\274$\247\276\274\305\217e<\002\244C\275lO\221=\251\215+=\265X\357\274\254\272\264<\262\241L<\320\367F\275\233\307\260\274\346\250i\274\256\017M<\3203\025\275\375\270\262=\353,\252<\3220v\274H\324\242<\271\203\232\273O\232 \275\306r\276\274\244\244\262\274\205\340\236<:N\311\274w\224\310=h\223#:h}\020\274\200\376\210:\225\\\212\274b^\317\274\255Dp\274\254t\353\274o-J<\301v\177\2746\201\246=\031}\317\273+K\367\273\246\"U\274\227\220[\274\275\202\\\274\222\210\021\274\270\235|\274\030\177\336\271V\301 \274\330S~=\021\014\'\274\220\236\220\273\024\304\002\274\270\013\376\273\234<\335\273\356\251*\274\022Y\216\273\330\345\032\273\252\\\231\273\246\304\033=\231f\277\273n\177E\273]Q\211\273\351\357\305\273\21022\273x#\301\273\177bW\273\345\3301\272\237\366=\2727\311\025<e\314\342\272\226\327i\272\356YA\272}\027\304\272\34202\272tB\255\272\326\024g\272\370\025\256\271\020\021\212\271fN/;%\006\232\271\362\372\013\271\314\3762\271!|\230\271\211\317\355\271.\337\300\271K\236\301\271\000\000\000\000\000\000\000\000\000\000\000\000\000\000\000\000\000\000\000\000\000\000\000\000\000\000\000\000\000\000\000\000\000\000\000\000\000\000\000\000\000\000\000\000\000\000\000\000\000\000\000\000\000\000\000\000\000\000\000\000\000\000\000\000\000\000\000\000\000\000\000\000\000\000\000\000\000\000\000\000\000\000\000\000\000\000\000\000\000\000\000\000\000\000\000\000\000\000\000\000\000\000\000\000\000\000\000\000\000\000\000\000\000\000\000\000\000\000\000\000lf\337\271\177\205\003\272\377b\260:2\250i;\234\276@\272\370\340M\272\232\253\351\271\020\022\354\271\233P\217\272\350\034\370\271\350C\002\273|\305\264\272d\262\347:*\010Y<\211\242\241\2720\001^\273v\014\331\272t\003\325\272\222 g\273\252\203e\271\017\273\020\273\266i\235\273\255\314\243;\254\026\025=\306\"\244\273\001\373\n\274Kn\324\273\263e\233\2735-\016\274\204\316\201\272\255wW<\312)I\274XA}<I\323T=[lY\274\253\n\202\272J\210\223\274q\204:\274b\222z\274K\007\031\274\007G/=$\373\256\274\265\212`=\200\326^=\244\326\006\275 \334\016<\322`\033\275\006\026\353\274\363\357A\274|F\345\274A\340\212=\036\307\260\274\000\231\220=\306hR=\214\213M\275\344\266\005=\233j8\275\032\276(\275\3141s\274\356-K\275\250\253\243=\001\177\270\274\253\241\231=\247\3339=\315D\202\275\315gA=a\3352\275\222\330`\2750\245\363;\331\351\217\275\032\217\264=KG\234\271o!\243=\2126\020=\2559\207\275\241h$=\275^\002\275\2535\222\275\320\230\325\272\276n\223\275\340\270\231=\221\307:<\023fv=~\304d<\364\017\215\2757;:=\232Uy\273wsq\275\260\263)\273\021\031\223\275\276\000\205=\031\313[<x\240H=\204u\254\273\356\312\234\275\215\252\272<\007i\365<:\035\276\274j.\222\274\'Tj\275\364\275Y=\277\366\000=\241\273\334<\205\001\232\274 \345\214\275\270\002\303\273\202\300y=t\261H\274#\r\213\274\310\364K\275\225\2475=\202\227\003=U\213\343;Fk{\274\350\215%\275_;\250\274\023\235\235=\272\214\352;\352\236\001\275\364\026t\275FK\'=)9\203;y\211\034\274\225@\033\274<\376\277\274[\357\265\2745.\241=\254U\335<\002\327\036\275X\371@\275\241\340\001=\205\363\303\274\276\242\206\274\312,\265<\177\021y\274\237\273\022\274E\367\232=\225\306I<R_\366\274,iA\275\333{\241<\352\210o\275\005\017\207;\3430a=\2244\262\274\350\375\227<\360qb=\376\301\375\272@\266\241\2747\325O\275\010#\347;f\311w\275\314L\226<J\342x=|h\226\274u\275\361<\216f\321<\202\'\353\274]\3046\274,y\270\2740\030\n<h\016A\275\323+\035=2m-=P/E\274\026(\323<@\343\0018\315uP\275\240\252\361;\177\343H\274*?\310;\232f\n\275\270SC=I\006\315</\334c\274\234\353\254<UT\017\274\002,)\275\000\306\3767\270Z\021\273\250al<\"\307\271\274\324\031E=8\206\014<\331)\230\272\313O~<\307\035\210\274-C\350\2747\222\013\274a\267\030\274\342\345J<S\324M\274<\275R=\227]P;\230nb:\331:\351\273y\251\231\274\263\343v\274\315x\247\273_\264\027\274b\331@;\242O\026\274\262\331N=O\266\016\274:\332/\272\360E\"\274\372\321.\274\361\'\364\273;H\214\273F&)\273\240\212\206\2739F\335\273\006\334!=T\201\002\274\250\351i\272F\263\266\273\322\330\313\273u\251Y\273\327T\361\273b\314/;\r\355\370\272\334\377\022\273\202)\257<\357\245\245\273\226z\027\273\374\003`\273C\377c\273\000\177\r\273\266\374\224\273mlt;\323\227b\272$\342\222\272z4=<\230\254[\273|\021\215\272|}\332\272;e\266\272qG\275\271\215\326\302\272\344\377o\271\'\366]\264v \337\264\200\250\'7\231\330\256\265\345=\r\266Cg\376\2631[^\266\237%\035\264\3419\276\265G\355\201\265\000\000\000\000\000\000\000\000\000\000\000\000\000\000\000\000\000\000\000\000\000\000\000\000\000\000\000\000\000\000\000\000\000\000\000\000\000\000\000\000\000\000\000\000\000\000\000\000\000\000\000\000\000\000\000\000\000\000\000\000\000\000\000\000\000\000\000\000\000\000\000\000\000\000\000\000\000\000\000\000\000\000\000\000\000\000\000\000\000\000\000\000\000\000\000\000\000\000\000\000\000\000\000\000\000\000\000\000\000\000\000\000\000\000\000\000\000\000\000\000&\353\007\271\205\242\344\270}L\032:o\361g:t\330x\271\266<w\271\314\303\344\270\030J\035\271\205h\274\271\030)\026\271:\370*\272\330&\350\271\300\375\004:\227Jx;N\374q\272\371\357\306\272\016RH\272[\271\240\272\305\205\317\272\004d8;A\356D:\221J\027\273\217\307m\272\016&\255<TVv\273\255\352M\273h^l\273\365\210\221\273\"l\224\273\030hS:$\261\345:9;?\2731\202\225;\224\231#=\302(\017\274\313\023\207;\277\261-\274\000>\025\274\374\377j\274G\000\231\273\275\333=<\311~\325\273-\312\304< 6F=\272\316\245\274\200\356=<\r\371\277\274\254\205\232\274\356\270\r\274\356\221\222\274\301\355)=\202\273\212\273d\2608=\305y<=\361N\032\275 \022\261<1J,\275Y/\362\274\361\256\246\273\337\302\021\275\333cU=\1778\237\272\354qQ=H\210[=\242\3519\275@h+=+\311l\275\r\257>\275\340\303\3459?6E\275\200\262\204=\356\205+<}\343\021=H\014q=|JP\275rDm=\322\303\211\275\010[n\275\274\356\020\273\242>I\275\372\031\214=\022\376\t;\037\351C<\236*B=?\245\216\275\214A\244=\3119\210\275\036\027\032\275DQ\221<EO]\275\226Oy=\2509N\272\356]\201\273Z\213\023=\376\014\226\275\031\322\231=\004\013d\275\213)g\274\377\023\366<\0355^\275\006!U=\363}<<\034\377\241\274\361\266\023=\'\342n\275&EJ=v6P\275\336\324\370\273K>&=\"HY\275\260\220<=\2203F<6\257+\275\213X\013=H\270\377\274Q\222\330<3v\006\2750b\254;@\345$=K/n\275\\\235\007=\276\\\306;_Ze\2758\345\007=\376w\270\274o\356\352<\340\274\254\274\272\302\272<0\274\335<\n\020R\275\202\230^<\246|f\274\346GG\275\367y+=\3046\370\273\260\234\"=\257T\212\274\031!|;\037\351\020=\276OA\275\214\327\357;\274\205\004\275\255\000\316\274\364x1=0\276\t\273\006Q\016=qO\330\274\216\266\217\273\tp\037=x\364\n\275\241P\232;Ep\025\275\nT.\273\276\270\006=\324\241\330\272\351\035\n=^\303\r\275V\345\275\274\357\246\345<\250\346H\272>\\\256;\340\327\362\274rj\240<Y\227\256<\200;*8=\030\270<\315\035\376\274\'\005\036\275\344\246\260<\317\245\022<\022\311\023<GW\255\274\256\344\004=\220:(<\272\017\250\273\225u\202<\215r\357\274\0018\340\274\000\r\3559\217!r<,\212\205;\206\260n\274\370&\362<\331\262q\273\003\352\357;<\342\231;\000Y\245\274\026\r\217\2748\244\277:\262\373\017<,\246\014;\357\247\354\273\262O\246<\\\254\265\273/\201\370;\310g\251\273kL\r\274\226D\372\273\240\201\345:\010L\036;\017@\200:\236\321\217\273\340m\257<\360\370\000\274\350Kh;;\227\"\2732\307^\273s\026A\273@v\275\273\2455t:6\352\312\272\314H.\273\346\333w<\r$\254\273\364\243\025\272h\007\035\273.t\005\273\221\235\351\2724i\233\273\027\016\300;\265\323\253\272\375\275\350\272*\253\034<l}y\273\336\334\262\272G\330\021\273\302\212\317\272(\023\272\272P\337\033\273H\207\316;{\202d\272\213\311\226\272\215\302\002<\273\335J\273\246\214n\272\264\221\344\272\272y\240\272\232\300\037\272\306\275\247\272\322P>;\000\000\000\000\000\000\000\000\000\000\000\000\000\000\000\000\000\000\000\000\000\000\000\000\000\000\000\000\000\000\000\000\000\000\000\000\000\000\000\000\000\000\000\000\000\000\000\000\000\000\000\000\000\000\000\000\000\000\000\000\000\000\000\000\000\000\000\000\000\000\000\000\000\000\000\000\000\000\000\000\000\000\000\000\000\000\000\000\000\000\000\000\000\000\000\000\000\000\000\000\000\000\000\000\000\000\000\000\000\000\000\000\000\000\000\000\000\000\000\000\000\000\000\000\000\000\000\000\000\000\000\000\000\000\000\000\000\000\000\000\000\000\000\000\000\000\000\000\000\000\000\000\000\000\000\000\000\000\000\000\000\000\000\000\000\000\000\000\000\000\000\000\000\000\000\000\000\000\000\000\000\000\000\000\000\000\000\000\000\000\000\000\000\000\000\000\000\000\000\000\355\024#\271\';\334\270\304C\032\272h\212=7\'\366\316\270V\304\236\271\227\262\273\271 \177$\272\262\343\243\271[I&;\240\320w\272X\267\000;\371K\243\273\270\232\023<O\363\025\273J\022\3109\265\004\333\272I^;\273\006pU\272\215\227\020;\324\376\325:b\024O;m\374\300\273\327\246\272<\rA\255\273/\304\251:O\252\226\273z#z\273\036\207\017\274\242t\010\272r\037\030;|\016n:F\302{\273zY!=A\027#\274LCZ;\270\263\032\274\207\317\345\273\306\246\023\274\336*\333\273\323*7;\0228\200;\241\344\340\272\366\246J=\341\326\222\274\232\360[<\336P\250\274\373\002\\\274\240\3324\273\214\315X\274rx\243<\302\355Y;Rs7\273p\270j=\020\234\326\274;\027\265<\367A$\275\217\253\342\274Lo\366;F@\\\274#\255\305<\0061\313;\261\r\232\273\rb\200=\270\373\031\275\036<\335<\005\315f\275\273a\243\274\206[\"<\305\3519\274\326\321\331<\300\303\257\273Lz\252\274fU\205=\251\323d\275\304\205A=\020P\224\275\224U\";\025B\001=\016\257\227\274be\017=\026;\006\274\243\3554\275\231\002n=\3213g\275\322S\200=\364x\253\275k\016\234<\025\346\202=\334@=\2750i\005=\266h\214\272\362Wf\275\301Ee=?\313:\275\032\231m=\331\331\275\275b|Z<\014\206\255=\021\271H\275g\037\211<\302~\350;w\013\220\2756\375?=\245\234\257\274N\203a=\241\262\257\275\333\372\201<6-\240=p--\275\320\360F;\001\213)<R\235\220\275\014*\367<\024\255\275\273\237\006|=\036\r\260\275\251\347\316<\317#\202=b\036\001\275\003M\007\273@-\t\273\313\024m\275:^\234<\266A@<\356\266]=\326I\234\275hN\262<\364\307}=\037k\370\274*\310\337\273\276\257\026\273\376\3002\275\241\353\204<^S\240;NW\364<\375\315\200\275 \230\224<B\2419=H\370\244:\256\326P\273\037\262l\274\020\265\272\274\n7\022<\306z\020<$\266\236<>\3558\275\233\204\277\273\221\321\377<\367\003\275<\006\372\370\273\021<r\274S\033;\2730\2778<\207\035\333; #\351;\213\222\365\274\312z\225\274\324p\227<\261\354\364<\006%$\274\222\326+\274\235\264\334;\260\217y\272\240\324\307;\216\304\356;\006U\243\274P\207\211\274\324\n\326;:(\001=\200\315^\273\\\323\315\273\262\244\320;\0363\254\273\004vF<e\270\321\272\275\214:\274~\017A\274\240\026c:\016\310\246<%\353\323\272(\355\364\272\331\002\243;\341\247\276\273+\261\356;\200\354\205\273g\253\263\273\337\255\317\273q\227\004\273\272]u<\327l\243\272\376\200\253: 6\237;w\016E\273\277Jd:}v\306\272\232\013\357\272\257\263\010\273\210(\247\273\241\245\375;\373Yq\272\000s-7w4G;g\377\315\272\'.\001\273$\214\302\272\214\216\215\272\323k(\272j/\001\273\021\375\327;tn\201\272\225\215\220\272\315\235\224;m^\225\272x\203\245\272\010r\370\272Dg\235\272\230\343[\272\2616~\272IS\237;T\364\002\272\330k*\272\352\013\226;a\026-\272:[\024\272ud\261\272A\226?\272\333\326\233\271r\375\335\271\316\273\035:\000\000\000\000\000\000\000\000\000\000\000\000\000\000\000\000\000\000\000\000\000\000\000\000\000\000\000\000\000\000\000\000\000\000\000\000\000\000\000\000\000\000\000\000\000\000\000\000\000\000\000\000\000\000\000\000\000\000\000\000\000\000\000\000\000\000\000\000\000\000\000\000\000\000\000\000\000\000\000\000\000\000\000\000\000\000\000\000\000\000\000\000\000\000\000\000\000\000\000\000\000\000\000\000\000\000\000\000\000\000\000\000\000\000\000\000\000\000\000\000\000\000\000\000\000\000\000\000\000\000\000\000\000\000\000\000\000\000\000\000\000\000\000\000\000\000\000\000\000\000\000\000\000\000\000\000\000\000\000\000\000\000\000\000\000\000\000\000\000\000\000\000\000\000\000\000\000\000\000\000\000\000\000\000\000\000\000\000\000\000\000\000\000\000\000\000\000\000\000\000\371\031 \266\220@\256\265E\351\343\264\025\364\2247\017\337\035\265\3453\264\265\212|\226\265\250>\246\266\327K5\266\032PE\266\341\365S\271\2337\373\270\212\021\242\270\310\252\343:\355&\322\270H\211\005\2714\020\006\271\203\250\330\271Q\202\220\271\233\334\231\271_\020\204\272X\203\024\272.M{\272\267\204\000<Y\344_\272zU\253\270<\252K\2725)5\272\2536\023\273\n]-\272D\351h\273\031\232\344\272t\272G\273\332n\234<\322\"D\273\000\200\302\272)\353\032\273y\265?:\320\317\271\273P\364\206:2\\\003\274JV\000;[}\316\273\331(\325<\342\247\263\273>d\313\272\362\215\310\273\020C39\365\001\024\274\365\357\010<\330\374y\274\\\344\224\272\353\345o\274L\235\007=\360\215\000\274\317\005%<\016\252f\274\370Y*;\214\250\037\274.\247\212<\362~\231\274#\352O\274\314\030\324\274Z_\026=tD\264\274\010\212\235<L\206\301\274\021\377\377<\004\342\014\273\001\254\222<K]\231\274\227H\245\274\251b\366\274R\241\026=y2\354\274)\205l<[8\373\274N\361`=\312O\263;\2307\212<\334\307\273\274\277\266\200\274\214|\030\275\337\001\005=RP\346\2742\211[<C* \275,\370\213=\212R\352<P=\2109\361\374\274\274\344{\353\273\335\332-\275?\375\006=\211_\215\274\220M/<\352\3718\275\005\037k=\177\273\026=h\2123\273Xo\334\274\302\233c\274^\3145\275\026\r\t=\272\2419;\347K\223<\267\236I\275D\342T=\365^\031=\304\022\030\274\303=\327\274\241\373\255\274\260\332%\275\037\246\312<\310\2030<\277\351\257<\302\201=\275\204=,==r\327<yf\022<s\352\267\274\316W\035\274\246:\n\275 \372v<\245\2723<\030\346)<\005}\'\275`U/=D\373S<\252\037n<e\251\235\274\356_\351\273#o\323\274XC\304;|\305\266\273\022\314\232;\312\021\004\275d5\034=\332\377|;l\273\030=\026\221i\274x\252\034\274D\275\225\274,\222\344;\370|\342\272\022\274s;\263\367\262\274\324r\014<\340\r\2569p\266<=\35482\274#\366\363\273\210bN\274\310\326\326;~\360\352\272L,\256\272mFl\274\256N\272\273\200\267\217\270\3736C=\326\013\274\273\306\360\226\273\346\264\002\274PG\242:`\312\3448\'?\370\273>%%\274\035$\324\273\226hO;[g\033=\004Uu\273r\024\024\273\226>\300\273\306\211\235\273\334\032e:OL\240\273\327\362\261\273<d\267\273\354h3;*r\355<\246\375\013\273\322\'}\272h\334\372\271\0055\r\273cRc\273\014\371\037\2735|2\273K\023\204\273,,\200\273\330\303\266<\336\263\201\272>\202\317\271v\355Y:\035\334K\272\024\306\212\273\276;\202\272\276\247\250\272\240\n\336\272n^.\273\341\351G<H\246\234\271\337a\204\271\335h\311:\251\210\221\271\324\326.\273\350l!\272\315K\272\271\225t\373\271\224\362\276\271\031fw;\246]\315\271\373\341\r\272\n\231\231;\274\310\020\272\322\305\361\271\246X\243\272\363`#\272\271$E\271\222M\245\271=\023\301\271\006W\314\271\007\243\r\272\004\245\231;\220M\020\272\321$\357\271\014\000\243\272p\315\"\272q\212D\271\317k\244\271\031\247\312\271\000\000\000\000\000\000\000\000\000\000\000\000\000\000\000\000\000\000\000\000\000\000\000\000\000\000\000\000\000\000\000\000\000\000\000\000\000\000\000\000\000\000\000\000\000\000\000\000\000\000\000\000\000\000\000\000\000\000\000\000\000\000\000\000\000\000\000\000\000\000\000\000\000\000\000\000\000\000\000\000\000\000\000\000\000\000\000\000\000\000\000\000\000\000\000\000\000\000\000\000\000\000\000\000\000\000\000\000\000\000\000\000\000\000\000\000\000\000\000\000\000\000\000\000\000\000\000\000\000\000\000\000\000\000\000\000\000\000\000\000\000\000\000\000\000\000\000\000\000\000\000\000\000\000\000\000\000\000\000\000\000\000\000\000\000\000\000\000\000\000\000\000\000\000\000\000\000\000\000\000\000\000\000\000\000\000\000\000\000\000\000\000\000\000\000\000\000\000\000\000\000\000\000\000\000\000\000\000\000\000\000\000\000\000\000\000\000\000\000\000\000\000\000\000\000\000\000\000\000\000\000\000\000\000\000\000\000\000\000\000\000\000\000\000\000\000\000\000\000\000\000\000\000\000\000\000\000\000\000\000\000\000\000\000\000\000\000\000\000\000\000\000\000\000\000\000\000\000\000\000@\352\004\272~H\025\271LR\343\270\261*\360\270\262P\\\270\373\241]\271t\303\332\270\277\317u\272\362\031\035\271\r\222\030;\nw\356\272 \252\255\272\217s\225\272\317\004w\272<\374\230\272\001\2170\273\016\343\246\272B\r\324:\200\010\026\273\005\3034<\275\004L\273\216\243/\273\033q8\273\027\232#\273\263WD\273\'!+\273\021U5\273S#\342;\246\357\242\273B\303\217<\376\231\221\273D\264\210\273\345g\236\273\360\030\216\273M\362\371\273\310L\032\273g\205\212\273a=\272<i\210\370\273\004\000\212<I\037\354\273%R\374\273)\242\t\274\220\350\271\273j|\033\274Z&\331\273\301\347\361\273DiG=\220b>\274\036\220|<\t\2265\274\230\210-\274x\214=\274\345l\335\273\020\037Z\274IX\r\274 \307\"\274\021\025\220=\t\013d\274\214\002}<\325\300}\274\374\362Y\274\304sb\2742U.\273t4\262\274\213\003\325\273\"\342J\274\244\353\246=\263\263}\274%\360\242<\n\274\200\274\rlT\274\320\335q\274\320^\000:eM\236\274\354\363f:\024\367X\274\245\266\232=\252t\204\274\312\022z<\330 \210\274\272\374\n\274\r\220\214\274l\376x\273H\375\322\273JR\227;\226ku\274\021\321\212=\025}\205\274\327P:<l\236}\274\n\362<\274U\303\206\274\027!4\273\371bR\274va3\273\373{v\274s\210Z=r\235x\274\225T\036=\230\204L\274\254[4\2742&L\274\3142\210\273\261\357\027\274\227\r3\274?\002U\274N\024a=\0378X\274\221A\001=i\014\'\274\257g\021\274\362\327(\274\034\257\260\272\263=\204\274\257\030G\274\\\\2\274\232\375/=\222\2261\274\242\274\032=\254\340\356\273\333\017\305\273\352>\024\274\370\001\230\272\267\262*\274\251\307\023\274\224\020\017\274\037\007=<\260I\000\274<\201D=\000\t\223\273\342\3736\273\360\274\375\273\326\257\252\271r\004W\274\363\r\325\273C3\307\273m_\311\272V\344\323\273\244\356H=\277R\036\273d\306\241\272h\010\214\273 !p\272\352<~\274o\001\207\273\330\271Y\273\254\245\275\272\257Gi\273\236\301\026=\215\252\260\272\006\025[\272\242i2\273\302\354\314\272\025\212\016\274\333\313\005\273AK\352\272\202e[\273\006S\354\272m\324\305<\354\242S\272\200\234\362\271\371e\013\273\014\324\203\272d\010\214\273\332\200\221\272\253\177\211\272\272-\372\272N\242\213\272VAb<\244\333\255\271\327\250\317\270\3512k\272J0\026\271(\242\201\273\246\352l\271\352E\177\271I0s\272\355\344\n\272\221\372\360;{\004\r\270|I\255\266(U\274\270\312\245\264\265\002\326x\272\031P\242\267#{\216\267\205M&\271\265\273\237\270\205\373\260:\000\000\000\000\000\000\000\000\000\000\000\000\000\000\000\000\000\000\000\000\000\000\000\000\000\000\000\000\000\000\000\000\000\000\000\000\000\000\000\000\000\000\000\000\000\000\000\000\000\000\000\000\000\000\000\000\000\000\000\000\000\000\000\000\000\000\000\000\000\000\000\000\000\000\000\000\000\000\000\000\000\000\000\000\000\000\000\000\000\000\000\000\000\000\000\000\000\000\000\000\000\000\000\000\000\000\000\000\000\000\000\000\000\000\000\000\000\000\000\000\000\000\000\000\000\000\000\000\000\000\000\000\000\000\000\000\000\000\000\000\000\000\000\000\000\000\000\000\000\000\000\000\000\000\000\000\000\000\000\000\000\000\000\000\000\000\000\000\000\000\000\000\000\000\000\000\000\000\000\000\000\000\000\000\000\000\000\000\000\000\000\000\000\000\000\000\000\000\000\000\000\000\000\000\000\000\000\000\000\000\000\000\000\000\000\000\000\000\000\000\000\000\000\000\000\000\000\000\000\000\000\000\000\000\000\000\000\000\000\000\000\000\000\000\000\000\000\000\000\000\000\000\000\000\000\000\000\000\000\000\000\000\000\000\000\000\000\000\000\000\000\000\000\000\000\000\000\000\000\000\000\000\000\000\000\000\000\000\000\000\000\000\000\000\000\000\000\000\000\000\000\000\000\000\000\000\000\000\000\000\000\000\000\000\000\000\000\000\000\000\000\000\000\000\000\000\000\000\000\000\000\000\000\000\000\000\000\000\000\000\000\000\000\000\000\000\000\000\000\000\000\000\000\000\000\000\000\000\000\000\264E\030\272\017\320W\271z\r\024\271\327\0347\271n\273\006\271d1\336\271|aK\271\t\357\232\272BR\222\271\334\352X;w\256\213\272\260B\'\272\033\264\271\271\211\251\022\2720\350\032\272\302\271\331\272h\217D\272\357\231\035\273\2126\223\2722\336\025<w\274T\272\036B9\272:\346\017\272\320\270\006\272\023\237\237\272^\n$\273$\000\204\272<\360<:\"V\272\272\031<\003<\337_\010\273\231\373\276\272\252\023\374\272\275\331\330\272\344:_\273k\r~\273}o\374\272\264\275f<\010\0109\273\316\362\245;\304Pj\273?[\024\273\236\322s\273_w5\273\250V\311\2731\230\245\273\202\r!\273\346%\372<\225\322\220\273\354\214\n\271\204\252\216\273-m\\\273\347\233\201\273+XY\273$\312\006\274\032\327\313\273&\371<\273\317\003&=\325\334\247\273/aJ\273\234\037\303\273Z\307\234\273\355\027\231\273\242\276\233\273b\337\031\274\024I\225\273^K\222\273\233\334*=\337\314\321\273\210\361U;K\273\332\273xh\236\273^U\302\273\360`\214\273\205\273,\274R[\026\272&X\265\273aZ:=B\240\340\273;\342\213\271\220\016\305\273\322\311\250\273yA\346\273r\230\375\273\307\221=\274\304\324\214\272\306,\266\273\214\304H=Y\304\346\273\202\257\r;G\216\327\273\236W\255\273\272\036\354\273\342\270\347\273A8P\274\215\354\276\273\240\245\274\273\004iD=\034\202\357\273\r} <\022\366\324\273/\257\212\273\234I\260\273m\014\216\273\2624\335\273\2048\005\274<\267\273\273\232\260A=Q\341\301\273\240\263\244\2714\241\217\273\237\000S\273\033+\207\273<\340\033\273\022\017\010\2741\313\326\273\316\246\230\273`\314\363<v[\237\273h\373\016<\327\257\025\273\276\244\367\272K\260#\273\004\020{\273K\006\260\273\025\241^\273\316\252A\273?\215\007<\026\177P\273\243\\\214<qa\244\272\034\246\204\272F\236\266\272\3624\"\273\0340L\273\373\344;\2732U\025\2734Px:\334z\006\273;\366}<\372e:\272\346\022=\272R\224\213\272\353h\315\272}\310\350\272\250\215(\273\250!\273\272*\375\252\272\311\027\217\272\201zH<\035dO\272\023\007$\272f\357\206\272\303\370\226\272\352\266\270\272,