node {
  name: "input"
  op: "Placeholder"
  attr {
    key: "dtype"
    value {
      type: DT_FLOAT
    }
  }
  attr {
    key: "shape"
    value {
      shape {
        dim {
          size: -1
        }
        dim {
          size: 784
        }
      }
    }
  }
}
node {
  name: "Variable"
  op: "Const"
  attr {
    key: "dtype"
    value {
      type: DT_FLOAT
    }
  }
  attr {
    key: "value"
    value {
      tensor {
        dtype: DT_FLOAT
        tensor_shape {
          dim {
            size: 784
          }
          dim {
            size: 10
          }
        }
        tensor_content: "\000\000\000\000\000\000\000\000\000\000\000\000\000\000\000\000\000\000\000\000\000\000\000\000\000\000\000\000\000\000\000\000\000\000\000\000\000\000\000\000\000\000\000\000\000\000\000\000\000\000\000\000\000\000\000\000\000\000\000\000\000\000\000\000\000\000\000\000\000\000\000\000\000\000\000\000\000\000\000\000\000\000\000\000\000\000\000\000\000\000\000\000\000\000\000\000\000\000\000\000\000\000\000\000\000\000\000\000\000\000\000\000\000\000\000\000\000\000\000\000\000\000\000\000\000\000\000\000\000\000\000\000\000\000\000\000\000\000\000\000\000\000\000\000\000\000\000\000\000\000\000\000\000\000\000\000\000\000\000\000\000\000\000\000\000\000\000\000\000\000\000\000\000\000\000\000\000\000\000\000\000\000\000\000\000\000\000\000\000\000\000\000\000\000\000\000\000\000\000\000\000\000\000\000\000\000\000\000\000\000\000\000\000\000\000\000\000\000\000\000\000\000\000\000\000\000\000\000\000\000\000\000\000\000\000\000\000\000\000\000\000\000\000\000\000\000\000\000\000\000\000\000\000\000\000\000\000\000\000\000\000\000\000\000\000\000\000\000\000\000\000\000\000\000\000\000\000\000\000\000\000\000\000\000\000\000\000\000\000\000\000\000\000\000\000\000\000\000\000\000\000\000\000\000\000\000\000\000\000\000\000\000\000\000\000\000\000\000\000\000\000\000\000\000\000\000\000\000\000\000\000\000\000\000\000\000\000\000\000\000\000\000\000\000\000\000\000\000\000\000\000\000\000\000\000\000\000\000\000\000\000\000\000\000\000\000\000\000\000\000\000\000\000\000\000\000\000\000\000\000\000\000\000\000\000\000\000\000\000\000\000\000\000\000\000\000\000\000\000\000\000\000\000\000\000\000\000\000\000\000\000\000\000\000\000\000\000\000\000\000\000\000\000\000\000\000\000\000\000\000\000\000\000\000\000\000\000\000\000\000\000\000\000\000\000\000\000\000\000\000\000\000\000\000\000\000\000\000\000\000\000\000\000\000\000\000\000\000\000\000\000\000\000\000\000\000\000\000\000\000\000\000\000\000\000\000\000\000\000\000\000\000\000\000\000\000\000\000\000\000\000\000\000\000\000\000\000\000\000\000\000\000\000\000\000\000\000\000\000\000\000\000\000\000\000\000\000\000\000\000\000\000\000\000\000\000\000\000\000\000\000\000\000\000\000\000\000\000\000\000\000\000\000\000\000\000\000\000\000\000\000\000\000\000\000\000\000\000\000\000\000\000\000\000\000\000\000\000\000\000\000\000\000\000\000\000\000\000\000\000\000\000\000\000\000\000\000\000\000\000\000\000\000\000\000\000\000\000\000\000\000\000\000\000\000\000\000\000\000\000\000\000\000\000\000\000\000\000\000\000\000\000\000\000\000\000\000\000\000\000\000\000\000\000\000\000\000\000\000\000\000\000\000\000\000\000\000\000\000\000\000\000\000\000\000\000\000\000\000\000\000\000\000\000\000\000\000\000\000\000\000\000\000\000\000\000\000\000\000\000\000\000\000\000\000\000\000\000\000\000\000\000\000\000\000\000\000\000\000\000\000\000\000\000\000\000\000\000\000\000\000\000\000\000\000\000\000\000\000\000\000\000\000\000\000\000\000\000\000\000\000\000\000\000\000\000\000\000\000\000\000\000\000\000\000\000\000\000\000\000\000\000\000\000\000\000\000\000\000\000\000\000\000\000\000\000\000\000\000\000\000\000\000\000\000\000\000\000\000\000\000\000\000\000\000\000\000\000\000\000\000\000\000\000\000\000\000\000\000\000\000\000\000\000\000\000\000\000\000\000\000\000\000\000\000\000\000\000\000\000\000\000\000\000\000\000\000\000\000\000\000\000\000\000\000\000\000\000\000\000\000\000\000\000\000\000\000\000\000\000\000\000\000\000\000\000\000\000\000\000\000\000\000\000\000\000\000\000\000\000\000\000\000\000\000\000\000\000\000\000\000\000\000\000\000\000\000\000\000\000\000\000\000\000\000\000\000\000\000\000\000\000\000\000\000\000\000\000\000\000\000\000\000\000\000\000\000\000\000\000\000\000\000\000\000\000\000\000\000\000\000\000\000\000\000\000\000\000\000\000\000\000\000\000\000\000\000\000\000\000\000\000\000\000\000\000\000\000\000\000\000\000\000\000\000\000\000\000\000\000\000\000\000\000\000\000\000\000\000\000\000\000\000\000\000\000\000\000\000\000\000\000\000\000\000\000\000\000\000\000\000\000\000\000\000\000\000\000\000\000\000\000\000\000\000\000\000\000\000\000\000\000\000\000\000\000\000\000\000\000\000\000\000\000\000\000\000\000\000\000\000\000\000\000\000\000\000\000\000\000\000\000\000\000\000\000\000\000\000\000\000\000\000\000\000\000\000\000\000\000\000\000\000\000\000\000\000\000\000\000\000\000\000\000\000\000\000\000\000\000\000\000\000\000\000\000\000\000\000\000\000\000\000\000\000\000\000\000\000\000\000\000\000\000\000\000\000\000\000\000\000\000\000\000\000\000\000\000\000\000\000\000\000\000\000\000\000\000\000\000\000\000\000\000\000\000\000\000\000\000\000\000\000\000\000\000\000\000\000\000\000\000\000\000\000\000\000\000\000\000\000\000\000\000\000\000\000\000\000\000\000\000\000\000\000\000\000\000\000\000\000\000\000\000\000\000\000\000\000\000\000\000\000\000\000\000\000\000\000\000\000\000\000\000\000\000\000\000\000\000\000\000\000\000\000\000\000\000\000\000\000\000\000\000\000\000\000\000\000\000\000\000\000\000\000\000\000\000\000\000\000\000\000\000\000\000\000\000\000\000\000\000\000\000\000\000\000\000\000\000\000\000\000\000\000\000\000\000\000\000\000\000\000\000\000\000\000\000\000\000\000\000\000\000\000\000\000\000\000\000\000\000\000\000\000\000\000\000\000\000\000\000\000\000\000\000\000\000\000\000\000\000\000\000\000\000\000\000\000\000\000\000\000\000\000\000\000\000\000\000\000\000\000\000\000\000\000\000\000\000\000\000\000\000\000\000\000\000\000\000\000\000\000\000\000\000\000\000\000\000\000\000\000\000\000\000\000\000\000\000\000\000\000\000\000\000\000\000\000\000\000\000\000\000\000\000\000\000\000\000\000\000\000\000\000\000\000\000\000\000\000\000\000\000\000\000\000\000\000\000\000\000\000\000\000\000\000\000\000\000\000\000\000\000\000\000\000\000\000\000\000\000\000\000\000\000\000\000\000\000\000\000\000\000\000\000\000\000\000\000\000\000\000\000\000\000\000\000\000\000\000\000\000\000\000\000\000\000\000\000\000\000\000\000\000\000\000\000\000\000\000\000\000\000\000\000\000\000\000\000\000\000\000\000\000\000\000\000\000\000&\366$\271\235\034Q\271U\340\332\2700u\t\271\230`\253\271\0042P\270*\013\301:E\2306\271\202\t%\271\271\3614\271\377\016\205\271\233\253\250\271\343\2130\271v\277]\271\314;\n\272a\356\247\270\257\265\033;\032H\223\271\235\036\205\271F\363\221\271\000\000\000\000\000\000\000\000\000\000\000\000\000\000\000\000\000\000\000\000\000\000\000\000\000\000\000\000\000\000\000\000\000\000\000\000\000\000\000\000f\302J\271!\211\313\270\242\321\232\270\364\301\017\271\236\311x\271\247\367\222\271\2038\036;\264mS\271\231\234\237\271\245\035i\272~\"?\272\210=\354\271\323\026y\272\257o\036\272SQh\272I\201\204\272\220\240\033<\266\372H\2723B\264\272\214\2332\273\202\240\240\271\016c^\271\257\2465\272\220(\214\271\252)\341\271-\223\312\271\022I\214;$\362\245\271\316g-\272\2422\204\272\346\304O\271\230\215u\270h\242\363\271*\230R\270\364:\023\272\356\275$\266\r\303\315:\264\347\200\270\217\354\212\270\2448\337\270\037v\372\270.\001\024\270\037\331\222\271\001\336\375\267\253{\261\271\316\227\306\265\260\nx:vd\033\270Xx\'\270X\213\206\270\000\000\000\000\000\000\000\000\000\000\000\000\000\000\000\000\000\000\000\000\000\000\000\000\000\000\000\000\000\000\000\000\000\000\000\000\000\000\000\000\000\000\000\000\000\000\000\000\000\000\000\000\000\000\000\000\000\000\000\000\000\000\000\000\000\000\000\000\000\000\000\000\000\000\000\000\000\000\000\000\000\000\000\000\000\000\000\000\000\000\000\000\000\000\000\000\000\000\000\000\000\000\000\000\000\000\000\000\000\000\000\000\000\000\000\000\000\000\000\000\000\000\000\000\000\000\000\000\000\000\000\000\000\000\000\000\000\000\000\000\000\000\000\000\000\000\000\000\000\000\000\000\000\000\000\000\000\000\000\000\000\000\000\000\000\000\000\000\000\000\000\000\000\000\000\000\000\000\000\000\000\000\000\000\000\000\000\000\000\000\000\000\000\000\000\000\000\000\000\000\000\000\000\000\000\000\000\000\000\000\000\000\000\000\000\000\000\000\000\000\000\000\000\000\000\000\000\000\000\000\000\000\000\000\000\000\000\000\000\000\000\000\000\000\000\000\000\000\000\000\000\000\000\000\000\000\000\000\000\000\000\000\000\000\000\000\000\000\000\000\000\000\000\000\000\000\000\000\000\000\000\000\000\000\000\000\000\000\000\000\000\000\000\000\000\000\000\000\000\000\000\000\000\000\000\000\000\000\000\000\000\000\000\000\000\000\000\000\000\000\000\000\000\000\000\000\000\000\000\000\000\000\000\000\000\000\000\000\000\000\000\000\000\000\000\000\000\000\000\000\000\000\000\000\000\000\000\000\000\000\000\000\000\000\000\000\000\000\000\000\000\000\000\000\000\000\000\000\000\000\000\000\000\000\000\000\000\000\000\000\000\000\000\000\000\000\000\000\000\000\000\000\000\000\000\000\000\000\000\000\000\000\000\000\000\000\000\000\000\000\000\000\000\000\000\000\000\000\000\000\000\000\000\000\000\000\000\000\000\000\000\000\000\000\000\000\000\000\000\000\000\000\000\000\000\000\000\000\000\000\000\000\000\000\000\000\000\000\000\000\000\000\000\000\000\000\000\000\000\000\000\000\000\000\000\000\000\000\000\000\000\000\000\000\000\000\000\000\000\000\000\000\000\000\000\000\000\000\000\000\000\000\000\000\000\000\000\000\000\000\000\000\000\000\000\000\000\000\000\000\000\000\000\000\000\000\000\000\000\000\000\000\000\000\000\000\000\000\000\000\000\000\000\000\000\000\000\000\000\000\000\000\000\000\000\000\000\000\000\000\000\000\000\000\000\000\000\000\000\000\000\000\000\000\000\000\000\000\000\000\000\000\000\000\000\000\000\000\000\000\000\000\000\000\000\000\000\000\000\000\000\000\000\000\000\000\000\000\000\000\000\000\000\000\000\000\000\000\000\000\000\000\000\000\000\000\000\000\000\000\000\000\000\000\000\000\000\000\000\000\000\000\000\000\000\000\000\000\000\000\000\000\000\000\000\000\000\000\000\000\000\000\000\000\000\000\000\000\000\000D\006\261\267H\312A\266(`\214\270}\232\301\2667\241\234\270\377*+\263\266\226S9R\275\207\267\264#\256\266T\334\026\267\275W\000\271t\177\214\267m\213\313\271\316\\\014\270\366\034\343\271\2131x\264\335f\231:\203\322\304\270\221\200\374\267z\277Z\270=\375=\272\354\306\277\270\217I\326\272\354\3204\272\200S\211\272}\022\346\270\300\266\262;x\340\340\271\246,\202\271\357\327\372\271\t\200\024\272C\253\255\2718\364\203\272bS\010\272\357S[\2729\277\033\271)]\234;\252\361\355\271\367\345\302\271E\250\014\272\nQ\361\272jjG\272\0268/\272\342W\205\2722\013Q\273V\302\007\272AO:<\270qv\272\251%\216\272\301)\261\272\241\220\020\273t\246g\272\240\"-97I\232\272\275z\217\273\364-G\272\225\020e<\000\253\230\272(\375\311\272\226`\005\273\024!\264\272g\024Z\272L(\252:\201Uy\2725\325z\273\236\316\215\272\305\022_<\240$\223\272[\367\t\273\001.m\273\210u3\273xV\333\272\006\356\240\272/\350\001\273\003\035\237\273fP\016\273?\364\325<\tA\021\273\001\314\202\273I_\254\273\345$\254\273r\035)\273\016\363\031\273\"\331\202\273u\347\340\273M\214c\273\220\010\034=\004\356d\273\321\366\257\273\320\242\232\273\343\264\365\273 \274\016\2732\216/\273`\373\223\273cf\370\273U\317`\273\026\366\037=imW\273QV\236\273Y\000H\2736\326\327\273\346\272\326\272\275bw\273\352\016]\273\3454\304\273^\352\025\273\2336\001=\320I\035\2737Sm\273\377\371\365\272\362#\234\273\275 \266\272\230\364;\273\217\016\036\273\320\227y\273\325m\215\272\013\020\261<\227a\352\272A\233\030\273C\024\232\2728z\230\273\213Z\307\272 \213U\272\323,\361\272\254\007+\273\360\263\272\272\304\220\221<*\270\270\272\267\004\034\273\223Q\222\272\222\271|\273~h\266\272\3118\002\273\354\212\272\272\273j#\273\311\217\216\272I\200\205<\225\315\260\272\026(\371\272$\243S\272\316H\274\272\351\315R\272\352\"\002\273]S\202\272\221\301\030\273c\321\001\272\356A$<\314\333A\272\026\321\200\272\314n\206\271\2440\366\270\206\033O\271\211w\001\272\327C\366\271\257j\273\272t\251A\271\345\235W;\263\212+\271\003\251l\271y\037\001\267\000\000\000\000\000\000\000\000\000\000\000\000\000\000\000\000\000\000\000\000\000\000\000\000\000\000\000\000\000\000\000\000\000\000\000\000\000\000\000\000\000\000\000\000\000\000\000\000\000\000\000\000\000\000\000\000\000\000\000\000\000\000\000\000\000\000\000\000\000\000\000\000\000\000\000\000\000\000\000\000\000\000\000\000\000\000\000\000\000\000\000\000\000\000\000\000\000\000\000\000\000\000\000\000\000\000\000\000\000\000\000\000\000\000\000\000\000\000\000\000\000\000\000\000\000\000\000\000\000\000\000\000\000\000\000\000\000\000\000\000\000\000\000\000\000\000\000\000\000\000\000\000\000\000\000\000\000\000\000\000\000\000\000\000\000\000\000\000\000\000\000\000\000\000\000\000\000\000\000\000\000\000\000\000\000\000\000\000\000\000\000\000\000\000\000\000\000\000\000\000\000\000\000\000\000\000\000\000\000\000\000\000\000\000\000\000\000\000\000\000\000\000\000\000\000\000\000\000\000\000\000\000\000\000\000\000\000\000\000\000\000\000\000\000\000\000\000\000\000\000\000\000\000\000\000\000\000\000\000\000\000\000\000\000\000\000\000\000\000\000\000\000\000\000\000\000\000\000\000\000\000\000\000\000\000\000\000\000\000\000\000\000\000\000\000\000\000\000\000\000\000\000\000\000\000\000\000\000\000\000\000\000\000\000\000\000\000\000\000\000\000\000\000\000\000\000\000\000\000\000\000\000\000\000\000\000\000\000\000\000\000\000\000\000\000\000\000\000\000\000\000\000\000\000\000\000\000\000\000\000\000\000\000\000\000\000\000\000\000\000\000\000\000\000\000\000\000\000\000\000\000\000\000\000\000\000\000\000\000\000\000\000\000\000\000\000\000\000\000\000\000\000\000\000\000\000\000\000\000\000\000\000\000\000\000\000\000\000\000\000\000\000\000\000\000\000\000\000\000\000\000\000\000\000\000\000\000\000\000\000D\006\261\267H\312A\266(`\214\270}\232\301\2667\241\234\270\377*+\263\266\226S9R\275\207\267\264#\256\266T\334\026\267\315\247\312\2718\346\374\270v_\212\272\246\222*\271n4\231\272\351\263\245\270\334Uo;\243\373\244\271@\261!\271\320\346[\271\241\023\262\272\357\253X\272\030\233C;\265\332\241\272\314j\032\273\241\335c\272v\260\363;\230\251\243\272\336\027\220\272\334-\273\272\310\343$\272\273\311\234\272IZ\352;\350@7\273\265\236>\273m\222\313\272U\332\000<\361\354\014\273\346L\351\272\335C\003\273\006\255K\273\265\030 \273\022\021]<\255\353\006\273\365\266h\273L\275L\273\355;(<\257\223\\\273\021\372M\273\222\200B\273\244\363n\273\320M\221\273\004\263a<\330\014\357:\022{\333\273k6\266\273s\302\245<\327\313\267\273\220\360\262\273\204\375\220\273\260\265\254\270:s\276\273V~\254<o_X;*\3656\274\277\366\257\273D\310\221<_\310\313\273U\200\342\273@\372\327\273H\2177\271\362\344\325\273,\322\375<\240\241\034\273\202\271b\274q\337\017\274\007\300\324<\270\'\352\273Pf\023\274)\030\025\274\235\021\326\273\3358\026\274h\260$=\266E\371\273\313r\260\274Iv\024\274\306\216Q=>#)\274cP\177\274\263H=\274\230\375\034\274L\377)\274\030\326D=\302\212f\274(f\233\2748\2501\274\316ja=!0A\274Q1\207\274\262t3\274\352=9\274\214\225\004\274\363\3503=\r\376w\2748\311}\274\341cV\274)\"e=\210\017)\274\232\327\177\274\256F1\274\362\332L\274\220\244\315\273\335!\005=\307yG\274:@6\274\277\337c\274\017\006:=\253\213\330\273Ch\014\274AU\335\273\243\306>\274c\215\367\273\354\250f<\350I\014\274\002\014\265\273\r\036}\274D`K=\353\214\242\273)\023\302\273M\275\206\273t\3132\274\026:\354\273\2617\020;O\305\013\274\232\305\207\273\302I^\274\216\237g=IY\257\273~\264\263\273\244\253h\273\3137\004\274\210\354\277\273\336\353\253:\\\227\344\273\257\000\250\273\335\247\301\273*X7={C\234\273\375O\216\273\334\214\244\273\230\311>\273x\207G\273\003\216\211:\210\000\203\273\301\261\220\272\221\016\236;\367\313O<\320@\'\273\350\2300\272\371\000\214\273~;\241\272\322y\352\272\204{.\273\204a.\273P\211\362:t)2;\033F\004<\315\206\343\272Z\031\362\271I\310\t\2730\330\305\271Y\177\224\272\371\215\021\273q\226\301\272\313\320\2669\351\005\343\272\002\273%<\001\300\235\272\215R\277\272\010\230a\272T\325\341\272\316\341=\272_\316\311\272\310\213!\272\n\330A\272\377 l\272\342)\t<-\007;\272@wt\272p\343\374\271\362?\275\271>\205\034\2719\360\010\272XD\227\270\027\221\016\271\322.,\271\346\216\350:\246j\031\271\365hV\271\206\333\233\267\000\000\000\000\000\000\000\000\000\000\000\000\000\000\000\000\000\000\000\000\000\000\000\000\000\000\000\000\000\000\000\000\000\000\000\000\000\000\000\000\000\000\000\000\000\000\000\000\000\000\000\000\000\000\000\000\000\000\000\000\000\000\000\000\000\000\000\000\000\000\000\000\000\000\000\000\000\000\000\000\000\000\000\000\000\000\000\000\000\000\000\000\000\000\000\000\000\000\000\000\000\000\000\000\000\000\000\000\000\000\000\000\000\000\000\000\000\000\000\000\000\000\000\000\000\000\000\000\000\000\000\000\000\000\000\000\000\000\000\000\000\000\000\000\000\000\000\000\000\000\000\000\000\000\000\000\000\000\000\000\000\000\000\000\000\000\000\000\000\000\000\000\000\000\000\000\000\000\000\000\000\000\000\000\000\000\000\000\000\000\000\000\000\000\000\000\000\000\000\000\000\000\000\000\000\000\000\000\000\000\000\000\000\000\000\000\000\000\000\000\000\000\000\000\000\000\000\000\000\000\000\000\000\000\000\000\000\000\000\000\000\000\000\000\000\000\000\000\000\000\000\000\000\000\000\000\000\000\000\000\000\000\000\000\000\000\000\000\000\000\000\000\000\000\000\000\000\000\000\000F\244\263\271%\337:\271Kf\350\271\307\002X\272\252WO;\3475\225\271\273\321\267\271u/\311\271cSq\271\265\271\004\271\300\330+\272\2003\232\271\337\316^\272r\304%;\367\342E\270o]\241\271\212\331\224:\024\222\000\272\244e\020\272\276\375\365\271\365\005-\273\242]\2228\214\3109\272\200[\344;\350W\30587\302\237\272\231\034N;\003\311\277\2723\266\004\273^\235\021\273]z\246\273\273\205\253:\326_\347;\022!\035<\310N1\273a\271\223\273\007\343\010<s_q\273px\244\273.F\256\273\360x\326\273q\207\225\273\207\242\310<(\334\213< \252\301\273}\216\006\274\3325-<L\256\002\274\217\261*\274\235o\013\274\360\306\372\273H_\254\273\277U\000=Z\222\264<\036\222\224\273A\250\307\273\375\034I<I\303N\274\372+}\274\036\371e\2746Xv;\3650\275\273?\230\016= \361\306<4d\311\273\211\316\005\274W]2<Lc\216\2742)\205\274E\002\244\274>2\t<\370<]:t?Y=ed\010=\211\252z\274H\013@\274\345\037l;\330G\271\274\256\277\270\274L\354\334\274T\225#;*\272I<\331\002\236=\312\344\351<#S\371\274\010_\251\274\314\334\243<*8\360\274dV\314\274\374\355\017\275\262\366k;U`\211<\347z\257=>0\236<[:$\275\037\031\251\274\000}\351<\241\037\n\275\270T\231\274\032\253&\275\312z*<\222x\354<\331\215\250=h\2575<\234D(\275T\370\353\274\331%\374<Y\355\024\275\327\347b\274c\2151\275&\000\231<$\200\277<.\305\243=&v\002<\217\323\020\275vJ\n\2751B\334<\345\255\r\275S%S\274\337\363$\275\330#\204<\250\'$;z\351\205=\200\265\033<\371\254\264\274\336\274+\275u\0307=\200\343\337\274\"<\207\274\006\024\371\274\370B\364;\220\215Z\273\"=\014=\030\000C<O^\254\273\'\201)\275\245\247z=\003\331\265\274B\332r\274\244\250\343\274*\021\351;\347\254\037;E\315\261;\316%\306;DG\311\273\014Q\313\274\220\204\\=\231\324z\274\257\005#\274\315\257\230\274\003\200Z;\235\230\315;\3449\214\272L\226\2319`\260\026<\324\331/\274\361`\370<\374\264C\274P\t>\274\355\213f\274\304\025\214\273\305\341\252;\016\336\000\273&\215@\273.\353\204<\330\276\033<\241\376\023<P\350\006\274\303~9\274\36678\274\340t\225\273F#\':\376\025*\273j\002\244:\337\234\364;z\235y;\214\225\323;\237]\204\273\333\211j\273\304\303\236\273\302\030\260\271\360\033\200\272\013\366\344\272\265\251.\272\312\025\333:\006\031\255\272\372\232\373;}5\305\272\321\344\333\272^\341\222\272\355.z\272q\3702\272a8\317\272\322\'F\272\276\006H:\360O\210\272\0338\354;\206\260\210\272\013\371\231\272\254\024B\272\251\232;\271\320(\233\270c\277\207\271\234\363\025\270\271S\215\270\207\257\252\2704\211f:!\025\230\270\252\213\324\270\222\200\032\267\000\000\000\000\000\000\000\000\000\000\000\000\000\000\000\000\000\000\000\000\000\000\000\000\000\000\000\000\000\000\000\000\000\000\000\000\000\000\000\000\000\000\000\000\000\000\000\000\000\000\000\000\000\000\000\000\000\000\000\000\000\000\000\000\000\000\000\000\000\000\000\000\000\000\000\000\000\000\000\000\000\000\000\000\000\000\000\000\000\000\000\000\000\000\000\000\000\000\000\000\000\000\000\000\000\000\000\000\000\000\000\000\000\000\000\000\000\000\000\000\000\000\000\000\000\000\000\000\000\000\000\000\000\000\000\000\000\000\000\000\000\000\000\000\000\000\000\000\000\000\000\000\000\000\000\000\000\000\000\000\000\000\000\000\000\000\000\000\000\000\000\000\000\000\000\000\000\000\000\000\000\000\000\000\000\000\000\000\000\000\000\000\000\000\000\000\000\000\000\000\000\000\000\000\000\000\000\000\000\000\000\000\000\000\000\000\000\000\000\000\000\000\000\000\000\000\000\000\000\000\000\000\000\000\000\000\000\000\000\000\366\310\256\2701\267\257\270\034&_\270\307\274z:\354\271\237\270\327\3075\271\241L\254\270\350\361\307\270\237\270\004\271\325l?\271\035\311\223\272\372:\242\272\252\331l:3\014+<v\261\361:\343\230\214\273\372W\251\272\344\003\002\272\302\022\000\273k\3146\273\310\361L\273\357(O\273\250\302\261;\356\303\221<\264\370\330;\037<-\274i]\334\272\367\006\212\271/\274\244\273\207\321\304\273\375\235\353\273jAA\273\213\2245<\221\364\r=\214\305\013;A\311\200\274c\025$\273]\373\017\273\373\000\013\274)\241\020\274\177\377L\274;\242\340\273\200&\030=\374\301 =\221+\257\272\215\006\220\274\340\\6;\273\215\355\273\233X\217\274\372>\204\274\355SX\274\264\373G\274\337\327R=\245\373,=\000\300\030\273\264\335\025\274\364\362\235;[\210\202\274A\220\245\274\200\334\320\274p\010r\271S\355\206\274\331\255p=\354\322q=J\014\312\273T1\000\274\36743\2736:\346\274&\323\223\2746\220\034\275\2641&<\210\271\270\274g\361\244=\177\253\262=\264\237b\274\320l\227\274(Z\203\274\007\026(\275\307\277\217\274 hF\275\304A\234;9gE\274\363G\324=[\264\344=x\200\020\275\317\212\007\275u&\202\274#\254L\275u\370]\274C\336v\275m\177\366;\244\3665<\242\t\316=i|\342=\215\236s\275\335\370\004\275\007\356o\273x\222~\275\344\315\202\273\233k\213\275\301\016\276<\371\026\001=\337\374\266=\017\r\276=2\223\216\275\202\201<\275@K\027\271T\252\216\275\270\245\244<\240x\222\275\243\352\036=r\023\r=o=\227=\271\303\223=\242\375\214\275H\233T\275\332\221\231;\013\003\224\275_\320G=-3\243\275\205R]=\276^/=u\322m=\261\370(=\n\276c\275\342ob\275\217\276&<5\237\217\275\302JP=:\005\234\275{T;=\252\201\203<\014\352h=\002\247\366<\332\367\031\275z&\037\2759\352\235<$^\202\275\334\3746= \265\224\275Ff\010=s\013\347;\237,$=I\340\343<\224\024\246:\300h\217\274\314\357U<%Pc\275\212\234\232<h-\214\275\222\372\316<1\316\230<\202\030\205;\017\335\234<\201\316\216<\210}#;@\031\353\271gg?\275\005\252d<\377\201\\\275\330S\t:\231\020\257<\231\256o\274\342j-<s\321\014=\314\204\260<\004\006\307\273E\212\005\275FaC;\227\373\033\275\266\r\026\273\276j;<d\301\001\274:6?:\345\202\272<\252n\022=o\303)\274\231_\217\274 C#\274\003\212\271\274\234\261\305\273F\211\212;>\250\013\274\024\257\367\273\256\314\037<\332r<=\371\010\030\274^\353\'\274m \363\273\224\3772\274l\013\211\273\030\342P\273\315\300\225\273\321\2242\2744\t\037;B\222\036=\3749Q\273qi\316\273!\026g\273C\036\255\273&\353\211:| 2\273uBG\273\336\302\313\273\023\215S\272\315\252\257<di\346\271\021\316o\273\324O-\273\354\224B\273.\000|\272\354q\207\272\213\210=\272v\255\t\273z\200\247\272\303\206\032<\355\360^\272h\'d\272\222\241l\272\347\216:\272*\222H\272\300\362/\272\2339\216\271\304\366\203\271-D%\272\036>\203;\276\250\315\271\266\213\332\271\350\331\316\271\347!^\271\000\000\000\000\000\000\000\000\000\000\000\000\000\000\000\000\000\000\000\000\000\000\000\000\000\000\000\000\000\000\000\000\000\000\000\000\000\000\000\000\000\000\000\000\000\000\000\000\000\000\000\000\000\000\000\000\000\000\000\000\000\000\000\000\000\000\000\000\000\000\000\000\000\000\000\000\000\000\000\000\000\000\000\000\000\000\000\000\000\000\000\000\000\000\000\000\000\000\000\000\000\000\000\000\000\000\000\000\000\000\000\000\000\000\000\000\000\000\000\000\346\242e\271\234m\254\271\260\200H\271>CO;_\343\222\271\207\220\310\271\r\200\203\271\207V\345\2717\234\321\271\360Y0\272\215[\272\271\307\017\020\272\250\271\267\271\235\013\266;\376\330\023\272\313\004\000\272\353&Q\272D\214L\272A&:\272U\213{\272^\"\257\272y\034\251\272b\334r:\316\234q<\312\305\255\272U\201_\273G\177\365\272&b\323\272\242\367\016\273U>-\273\201\t}\273}\245H\273=\335\026<T\200\250< \244#;\004\315\014\274\222\275\220\273\013\211 \272\374P\267\273\234\374\310\273\346\213\000\274\225\227\372\273\346\235\206<\0235\013=Z\322\314;\206\206m\274\265\364\355\273|\230X;!\2627\274\266\224<\274\247\010=\274\241lp\274\"9\374<\3506^=\332\313E;\200\332\244\274Zm\360\273\312\336#;\371\265\221\274\317u\234\274\240c\213\274[\347\225\274.5k=w\271u=G\225\250:\215=\215\274\362\361\001\274\004*\335\273\233\264\250\274\010\346\374\274oDO\274\0368\333\274/\256\202=)\367\201=\317.\243<\014X\242\274\341\323{\274F5L\274\225\202F\274\367\245D\2750ad:\340+\016\275D\004\212=\231\221\256=\322\205\013<;\230m\274c\370\253\274\375\035\263\274\347\252\023\274\343\226y\275\020k\202\272\272\202\006\275\222\322\260=\330<\316=\222\341\322\274\010\260L\274\216f\327\274 \335\036\275\240\253\\:9\316O\275s\364\013\274\220\010\315\274T\014\263=0\364\260=\332Ns\275\372\364\312\273\324\211\217\274\304\344m\2752\232\350<&\353\340\274\224\025\253;\350\366\313\273\312Mz=\026\001\234=&A\244\275M\257\206\274\257-\266\274_\366\214\275\304(\206=D\237f\274\231\225\262<\330\017\275<\362\334\034=\357\372h=\333\301\265\275\355\004\300\274\273\006\221\274YQ\237\275\017\245\234=\n\"\021\274t\2100=K\376\344<j\241\307<\374\227T=l6\301\275\3702\016\275\365Z\021\274\351\313\252\275\320\257\223=\360\315\367:v\034t=\3556\r=Z\211\234<\3427\371<\033<\261\275on\272\274\204\231\245\274\255\374\241\275\274Ik=H\276\367;\255\207u=h\215\212<\302v\354<\032\335\247<\276%%\275\310\027\202\274.\363\026\275[\321\236\275\177\313O=\026\342\317\273\"\\ =U(\265;\332w,=\224\r\235<\320\260F:\202\372\245<\246\2359\275j&\216\275\016w\320<\341h\032\275F\202\354<!m\215<n\'\234;\236(+<\377M\000=e\371>=\353CB\275\213IV\275D\332\221<\337\355j\275\241\364}<\300\262\005;b\245\263\274B\234,<j\243\356<\321\325\220=\024\374\'\275\020\220\032\275\303\341\253<\311\216E\275\320\354h:L\231\211\271\307\214\257\274\274\234\177;\324jn<\223$\247=\353w\r\275p\033\270\274M8#<4\360\003\275\327\271\033\274\324I\313\273\227i\247\2742`H\274\370\334\033</\341\321=:\245\341\2746\302\225\274\366:(;\032\312\246\274\366[A\274T6\024\274\311\034:\274\2222\210\274\346\222\007<\037\314\263=SV\221\274\353\"z\274*\306\002\272\266\343`\274\362%\310\273&\245\267\273F\030\276\273\005\351\025\274j\2216\273\224\004\\=`f\010\2747\372\374\273\271\363\321\272\243\342\330\273\225\237f\273I\0320\273\020l2\273M!\201\273\2322g\273d\267\334<$\253U\273\333\2654\273z\332\034\273\211\344\013\273\215D\350\272\016\374\235\272\272\340\025\272\231\205\355\271N)\223\2721\'\001<N5D\272\216>Y\272H\215Q\272*\365\307\271\000\000\000\000\000\000\000\000\000\000\000\000\000\000\000\000\000\000\000\000\000\000\000\000\000\000\000\000\000\000\000\000\000\000\000\000\000\000\000\000\000\000\000\000\000\000\000\000\000\000\000\000\000\000\000\000\000\000\000\000\000\000\000\000\000\000\000\000\000\000\000\000\000\000\000\000\000\000\000\000\000\000\000\000\000\000\000\000\000\000\000\000\000\000\000\000\000\000\000\000\000\000\000\000\000\000\000\000\000\000\000\000\000\000\000\000\000\000\000\000\224\200\366\270\245\0279\271\230:\327\270@|\336:3\255\035\271\231KW\271\215(\r\271\232.v\271\\\001a\271\275M\275\271\016\211#\272\331j7\272\272\3302\272\351\254\250;~*5\272[\336\217\272\254\260\275\272,s\360:{\007\215\272p).\272\340\201\237\273oZ\273\272\030\t\330;72\226<\225\316\r\273;z\365\273\210\023\213\273\2131\246;\2356\224\273W\377\254\273q\260\353\273 \004\227\273cqa<eZ\327<pi\360:\355sB\274\363\317\001\274\220^\004<\363\t\006\274\317\351&\2745\257(\274H\236 \274\365\366\257<\352F$=\254\334\270;\216\222\226\274\034\003E\274\020\370y<\301\017e\274@u\223\274\333}\202\274/\005\252\274\313G==\203\032.=\202\357V\273\034b\222\274\220[D\274\331\372\351<=\ry\274\000$\004\275\343h\226\274\000:\362\274\361Z\021=\305\267I=\231\303\231:\336\353\\\274\201\317\254\274.\273G=78Y\274\314Y\037\275]\3514\2748\010\034\275\021\035\357<\013[Z=F#\206<\343\331@\274Gz\267\274=\3542=\247\227\031\274[KL\275\251\354\001\274\337\2705\275\342\216\327<\354\356h=\000\373\336\272\360\214\035:]\353\360\274\267>\365<@\243\014;\225\364\004\275E.O\274U\004:\275\336\366\353<N-\036=7\3737\275T\327\200\272\017\305\350\2745g\325<\220\316\361<\006\303\031<\017t\002\27451\032\275\276\357\226<\347\301\205<U\215\247\275\234RW\274\371H\304\274\366\020;<\373~z=\001Fj=D\272)<@2T\274\240\344\2739F\353\001;\334\270\307\275\314\244\236\274\270a\303\274\214\220\037;\026O\215=\241r\216=\200\376\362<\205\232\200<\316\306\241\274\002\217+;}9\335\275Xu\374\274B\256\303\274\353\271-\273\000\3520=0j\300=\001\003\376<\2057\006=\260)\001\275\272Y\212<Lv\373\275\204;\240\274\330\222o\274\313\'2\274\374\202\177<\006.\323=T\245\r=ZD\020=\373\033O\274\360Z\024<\021^\325\275p\226\316:(FV\275z\261\013\273p\324\000\273C\016\276=jVE=\322\276\022<r\350\001<@\3718:;\025;\275\367k;<\351\353\253\275\305\021S;l\365 \273&\214S=\272$_=\311JL\2746\005\205<\'\331\350;\266\300\321;\366\202\337<^T\276\275\261\013$\274d~\371\273h\310<<\"]\024=\332JE\274^t\236<\222\236,;\010\002\255<\210\325n=\340\235\250\275\026_N\274\352*\267;\354v\024\275@\004\332<\317J\273\274\020\312\370\273\354&\035<\211\210\021<8f\246=vAw\275\'D7\273\373e\035<\210_-\275(\276\243<\260F\250\274\027\356\345\274`\265\024;\200\210\350;\236\352\326=\220\020\\\275\224\037\312\273 g\213<_U/\275y\202\030\274\303r\226\274[\350\312\274\334\363\240\274>\'y;\202m\366=\362i\035\275S\007\034\274.nt<E\252\233\274\037\000\230\274\313\300]\2749E\227\274\037*\210\274\211t\366;\373\302\333=s!\276\274q1r\274&\367\324;\324\\\204\274\206\330%\274C%\000\274\027 \021\274\267\313\033\274\335\2266\272\376\026\205=\307V0\274i\217\032\274n\007 ;\224\200\'\274X\267\320\273f@g\273\242\r\204\273\033Y\216\273\207\010\340\272@K\036=q\300\226\273\to\262\273\222\'\221\273\204B\211\273\226\264\344\272\230^\307\271%\022\235\272j\373\324\271\002S7\272\314\233\000<\023Ia\272\254\307\226\272 \271\210\272\"\311\300\271\000\000\000\000\000\000\000\000\000\000\000\000\000\000\000\000\000\000\000\000\000\000\000\000\000\000\000\000\000\000\000\000\000\000\000\000\000\000\000\000\000\000\000\000\000\000\000\000\000\000\000\000\000\000\000\000\000\000\000\000\000\000\000\000\000\000\000\000\000\000\000\000\000\000\000\000\000\000\000\000\000\000\000\000\000\000\000\000\000\000\000\000\000\000\000\000\000\000\000\000\000\000\000\000\000\000\000\000\000\000\000\000\000\000\000\000\000\000\000\000\370A\276\272\n0[\271\323k\265\271\020\007\336\267\251\320\375\271\336\204\276\271\301\237\007\272\324\271};\207\236\255\271\274]\025\271\211\216e\273O\322\346\272\006I\022\273a\243s;,g*\272\206\305]\273\352HX\273\276Kr<\273\255&\273Ww\224\272U\214\002\274+!\365\272\355e;;\333\004k<\221\031\322\272\007s/\274\002W\342\273\336\311\241<X\025\314\273\214\251\332\272\276J)\274_\331\261\273\225\274\305;\343W\304<\000\236\3757$\346f\274\276\006,\274\347]\263<\355\301\322\273\326\206\250\273h\033{\2743\355(\274\2527\241<\213\000\003=\210{\2529iX\225\274\320\313Z\274f\351\004=n.)\274\244[\212\274e\233\247\274`\303\244\274R\026\247<\363X\312<\316\310\007\273d\347\037\274\213-\205\274\2103d=\222\234\'\274\367\216\263\274U\246\375\273k\024\003\275\024z\365;S\2742<\010\345\225;\320\245\312:\354\327\301\274/\272\247=S>`\274\217?\360\274\3141\215\273A22\275td\377\273\260\254\247;\256\371\010<X\230\3349M\227\307\274E\221\255=t\332B:\353\024\237\274$\247\270\273\354\333c\275\ni\315\274\267\371C\274\t~\200\274\322\314\233<\274G\370\274p\033\254=\311\323\321<\342\375\177<\\\025 \274\373\330w\275\350\226\222\2749\030\022\275N\036!\275\2548\032<\3335\343\274\233^\254=&\2227=\266\035W=\216\334\366;\354\222C\275\272Y\321\274\234\t7\275\352\277~\275c\243@\274\247\260\224\274\224\372\251=\n\3123=\335\367\232=|q\332<\237\3472\2732\007\027\275\206n<\275,\346\234\275\235\030\224\274\272\317a\274]\377\240=\345_\213<\254\004\223=j\001\200<U\364\021={\353\027\275\000\031\353\274\222;\346\275\252&\200;\000\006\273\273\252*\250=\275q\232\274\304\034\206=\264q\203\272py{=+\266$\275\216\003\347;,E\002\276\225=\244<7\352\007\275\270f\256=J=D\275\345c\233=`\215\006:\216\213d=\246\327\377\274(\376Q<\344\340\301\275p\240\273<U\303\225\275\3204\264=1\273\205\275\273\245\254=\320+\221<.hI<\346^/\274(\273m;p\025\020\275\353\3579<\342\007\337\275n\277\277=A\236D\275Wj\203=\233\002R=\2607\331\274\000c\375:y-\206<<\024\262<\317f\024\274}\226\357\275\331\345\224=\236\337\304\274R\340M<\000\017\203=\022\332&\275\250\377\264<T\nQ<$|6<\010\324o;\316\232\310\275i\2234=\260\244\201\271C\372\231\274\317]\204=\254\350\030\275\014^#;\200\237\225\273\206CV\274,\304\021=W\212\222\275\210\336\t=\272\333g<\345\221\304\274\010\200+=Y\037\357\274T\000\313\274\326\2543\274C\311\250\273\214eu=0\371k\275\000\205J<fh\030=\257\303\301\274*\247}<\232\337\304\274C\263\312\274\201a\277\274\000MC\271\317\315\245=>C,\275SI\265;b\224\374<\023\360\226\274\3422\340;\366\331\201\274[G\261\274\037\255\225\274A\356\253:\213\264\252=\346[\324\274\360t(\274\324\346b<\276X[\274\314`\016\274FE\372\273\233P \274\325\307\033\274\010\272\264:gYt=vD@\274\355\363$\274\016\340\335;\247\030*\274\266\307\001\274\000\"\202\273\261\326\230\273\234\267h\273\025Z\335\272\216\366\026=C<\246\273w\367\306\273\231\365\202:\255\003\241\273\016V\265\272x\3743\272)-\242\272\377\267\275\271\032\315\005\272f3\364;\342?V\272\370/\213\272\316\217w\272-\177\353\271\000\000\000\000\000\000\000\000\000\000\000\000\000\000\000\000\000\000\000\000\000\000\000\000\000\000\000\000\000\000\000\000\000\000\000\000\000\000\000\000\000\000\000\000\000\000\000\000\000\000\000\000\000\000\000\000\000\000\000\000\000\000\000\000\000\000\000\000\000\000\000\000\000\000\000\000\000\000\000\000\347\264,\271\347\264,\271\347\264,\271\347\264,\271\347\264,\271\347\264,\271\347\264,\271\203K\302:\347\264,\271\347\264,\271\307o\361\272\001PC\272\032yg\272\350\241\353:.\025\224\272\263]o\272\350\214\205\272\233\230\315;u#^\272\255\2325\272\217\200\205\273\230\363\016\273R9=\273\017R2;gv\203\272[\346\211\273\026o[\273L\333\250<\177pL\273\357\226$\273\272\350\371\273\r\223J\273\302i\250\272(\005\t<\352pJ;)h6\2740|\343\2737\345\324<\006\017\306\273z\275\254\272\343\325Z\274Z}\262\273\002\233h;\2441L<\237cf:\354\264A\2740h7\274\306\212\013=\032\022\336\273\374\273\032\273\322\267\211\274V\373 \274\007\034u<PN\26292\252\013\273aph\274i1\\\274y\316R=0P\265\273\365\221\236\273@PP\274e\t\226\274\332\207\260;Pz\252\274f\205\035;e\373\327;\354t\227\274\375/\232=B\273\"\274$&\032\274\004h\010;\266\243\373\274\216\na\274\375\000\"\275\017.M<\272+/<<\255\204\274\226\331\274=~l\014\274\226#\017\2742\244\271;g\346@\275\263\324\r\275f\033\207\275\322\322\223;\233\357\303<\223I\241\274p\255\330=\217\332a<\023z`<\320\362\213\272Jp\201\275<\214[\275\377}\240\2752Y\303\273\n\213\003=7\313\213\274\212]\271=g\013\027=\236\307t=\002)@<\214m\224\275@\025|\275\216\231\263\275\230O\244\2743\250\010=\030\307\344\273\205J\257=\311\3575=m\326\226=\006L&=\340\341@\2756|\233\275T>\231\275P\362\257\274`*\3559\320\267u;E\313\257=6\324\331<\226M~=\324\016\373<l\025\236<x:\203\275@\201S\275\335.W\275b\016N<$\2110<q\256\267=\342x\372\274\226\314\022=\006kl;Y\270\221=\327\357@\275B\220y\273\343\323\262\275\234%\265<Fk\350\273\022\016\275=Z\272{\275\002$\220<\264\003\022\2748\373\314=Z\036\n\275Cd\025=YG\262\275{\224\237<\263\257K\275\006\345\322=\247u\253\275o\317\206;\233A\340\274\020?\246=](\202\274\237O\037=U\373b\275Pn\2019Ac\244\275\0144\350=\233\013\263\275W\325\005=\350\240\273\2742\374j<\022\343&\274\3222\022=\200\263\373\270d\003\250\274\315O\327\275\276\324\347=\246\3555\275\245\372#=\256\210\273<\253 \021\2750\0274;\306\323\"=\372\\+=\310oa\275\250\206\336\275\323\001\311=\010\372\242\274\207\202_<\313\305`=\\sQ\275\220X\020=\340\276j<\300H\305;\220\2558\275t\352\317\275\'6\223=\032\341\250<\270\361\252\273&y\261=k\2059\275V\225\014<\2720\321\274\3669D\274\354\000\322\274<@\225\275\322\rZ=\236\305+=r\367\024\274O\004\224=W\372\t\275\317\201z\274^\006\361\274\272\251d\273$i\340\272\222re\275\205\252\311<(bc=`\206Q\274F\306.=\004\313\264\274+\317\221\274\271\222\301\274,i\203:it\332<\304\362\027\275@R;<\320\356\374<\017zE\274\320\344\316<jSQ\274\311\345\215\274\000\002\202\274\240x:\272\261\017.=\341\276\267\274\3132\274\273\237\275f<\232\310\344\273\330\263=;&\014\307\273\317\207\n\274S\332\315\273\000Kg\272\235\257\007=\303\263\037\274a9\343\273?\240\034<\365\026\354\273o\006\231\273\257\203a\273ATz\273p\003A\273Q\232\275\272\2460\261<|_\220\273\237\337j\273.)\346;\310A\216\273\324\372\202\271\320\301\177\271\001\254\243\271\234\260}\271h\243\031\272\326?\302\270\300j\335\272\376(\203\270f.t;)\307\201\271\000\000\000\000\000\000\000\000\000\000\000\000\000\000\000\000\000\000\000\000\000\000\000\000\000\000\000\000\000\000\000\000\000\000\000\000\000\000\000\000\000\000\000\000\000\000\000\000\000\000\000\000\000\000\000\000\000\000\000\000\000\000\000\000\000\000\000\000\000\000\000\000\000\000\000\000\000\000\000\000\317\316\371\271\317\316\371\271\317\316\371\271\317\316\371\271\317\316\371\271\317\316\371\271\317\316\371\271S\204\214;\317\316\371\271\317\316\371\271\017yE\272\332\367\022\272Z\364\025\272\334\351\342\271\376\2450\272&H\017\272\010\000!\272T{\262;G\307$\272\374J.\272\225\3245\273V\177\323\272\277\314\357\272\314\327z\271-N\342\272)vu\273\367\330\017\273\260\225\207<yY\032\273$\267\226\270\3615\002\274\013\334<\273\244\005\312\272G\223_\2712\236\232;\360\357B\274\203b\273\273f\006\356<\245\331\274\273bx\017;\031\0077\274\316\027\261\273\230z\376\272\363\363\364\273\357\261\307;\206m\020\274\036l&\274\222\334\'=\307&\334\273%\374\226;,Fi\274\356\343#\274^M\316\273=\257\305\274U\036\204;\n\224\353\271\306\260(\274M\016}=Rn\325\273\340V\310;0\231\330\273c\036\250\274\330\3052\274E\201T\275V\361h<\271\371\230<\215\003\231\274\300:\230=\365\032\372\273\022\256\023<D4\017<#z\007\275\te\026\275\227\215\224\275S\320\312<\2031\303<\321\346\336\2730\256\210=\274\266\221;\006\354\250<G[m<y\346L\2759\327\202\275=\016\321\275\234+\212<5\251\"=\310\224C\2728\275\210=\341\214\362<\002\351I=\375\210o<\037\004\214\275\372_\250\275\321\272\330\275D3\022<\255\363j=\250\371\340\272R\237e=PIP=\036\375\217=\2177\017=2]\222\275\275i\301\275\347\214\275\275\006\201\254<\223\260k=\002\225\034<JG\032=2xT=G\232;=j\200\030=GS;\275H\376\302\275\263kD\2752\331;<U\375,=\216M\303<\254\202&=>\362\276<\244\223&<\250\2558<\022\342\r=_!\277\275\206\2128<|\224.\275\2077\372<ar\356<\212\301_=&\000\332\274Y\275\021\274\321\352\377\273\002.\367=\222\344s\275\t9\200=\217\036k\275\370\006\\;\226\360\216\274\244\231\202=\3116\215\275z\333 \275 \261\317\274\003s\023>\306\203\377\274\nI\255=\255\330S\275q=F\275>\005L\275J\350\212=\277yt\275C\376\367\274g81\275l\376\260=\\\252\370;\354\362\245=\323\353\007\275\037\252\242\275Q\373\246\275 \335\263=\214+>\275\335\320\253<\310\272>\275\034\262\005\274\364\345\003<\027\267\225=\352\320\013=&\320\300\275\272\r\242\275\007\330\305=$@\320\274l\032*=\344\230\203\274\021\022O\275@\321\270;b\245,=6DL=\242\326\271\275\350\330\237\275\247*\266=t\346m;\031\0069=\216g\017=#\262c\275\257\207\035=X\001\222\273i\177K<l\263\306\275\377\306\233\275\327\275\253=\370\017%=\267\030\275<\007k\243=1\255$\275\252\266L<\374f0\275\370\033\374:\323d\215\275G\346f\275\r\265t=\267\257U=\236\253\';\003Z\257=P\310\354\274\253\222\354\272\351\243\016\275@&\005\273\222\276A\275\372\004\036\275\037\364\347<\312\2014=\200j\225\273\316\032\212=&f\220\274>\313)\274\215\221\311\274\020\235\017:\200i\202\274\201\002\336\274\274G=<0CR<\273\335T;RT2=\225\266\030\274\301\227\177\274!\223h\274\036\227\005\273\274\256B;m\003\214\274\002<\264\273_\313&<\200G\347;\224\007\204< \353\213\273\301}\376\273?\323\241\273P*K9\241\314 <9\357\020\274\246\245\260\273\035p!<\3530\234\273\2722X\273\302\215;\273\225J_\273h\223\017\273W\247\226\272\270\335\200<\200\242\330\273qNK\273]\233.<\243\325v\273\032\177\027\272t\233\340\271t\001\364\271BU\016\272\366\253}\272&a!\2724S\r\273\352\217\253\271\354M\361;V\025\250\272\000\000\000\000\000\000\000\000\000\000\000\000\000\000\000\000\000\000\000\000\000\000\000\000\000\000\000\000\000\000\000\000\000\000\000\000\000\000\000\000\000\000\000\000\000\000\000\000\000\000\000\000\000\000\000\000\000\000\000\000\000\000\000\000\000\000\000\000\000\000\000\000\000\000\000\000\000\000\000\000\352\177n\271\352\177n\271\352\177n\271\352\177n\271\352\177n\271\352\177n\271\352\177n\271\363\'\006;\352\177n\271\352\177n\271\322\2402\272\331*\003\272\354\220\003\272\377\027@\272PL?\272\204\217\350\271DI\022\272y\367\264;I\224$\272\221\325C\272\241\234\010\273\301q\244\272\335t\311\271L\356=\272\347\256\314\272\r\264`\273\233\234\277\272\314\265B<\317\260\346\272\312jK:ry\230\273J\316M\273\210.\004\2739\257\257\272\367N\310;+~3\274x1\304\273j)\253<\364\244\306\273\310A\352;\327r\275\273w\243\316\273\034\023\022\274l\374#\274\211J4<(\376\367\273\310\336\020\274\256\265\010=\037qD\274dHv<T\200\352\273\233\235C\274\375\373\265\274\210\000\327\274R\263\210<\2105?<\204\235\374\273\324\037\034=\3339N\274\375!\257<w\035s<\247s\275\274\306\347\006\275\367FW\275\026)\355<\343\346\212<_\000\213\274\341\215.=9Y\222\274\0358$=}`\242<\301\325\022\275\026\300H\275\034\231\232\275\272N\371<`\300\315<\3147\261:\273\267\025=\364o\267\273\307\274W=\351L\264<\nN^\275\350\017\243\275t\014\315\275a\327#=\352\324Y=b\375\362;\230\323\314<\310\330\360<%~i=\t\023\356<\253\000\223\275\\\025\323\275Aa\255\275\'\302N= \000\252=\232\255X< \021{:D\357L=\262\033\006=\306d\016=\200q\220\275<(\344\275\"g\371\274\207f?=\221R\251=Z\216\226<\323*q\274ra)=2\213Q;\322\336\204;Q]\034\275\203\255\336\2750s\233<\270\217\240\272\254\350\256=\216\007%=+\230\014\274\261\242\014=o\334\327\274\274\234\353\274\352\343b=\035\177\266\275M\275\243=Rd\027\275\017\"\200=6\326\261<\234|#\272*\226\241\273!\234r\275\242?O\275\235|\">\325\016[\275\371R\330=\337r9\275\224\333h<\021\277\312\274\225\254w\274r\004\351\274\022Ay\2754\211\213\275\336\354,>rn\327\274\205\033\346=\356\236\n\275{\340!\275zQk\275\210H%\274\332\031\347\274\352\341\220\274_\031\246\275\370\330\234=q\2432<\251\330\261=\356&\335\273\357?\242\275H\254\206\275\030=D=\037\322Q\274\255\266\277<G\'\216\275r\r\007\275\326\301]<C\305\213=\0252t=\343\255\314\2755\235v\275\267\'\224=\2602\032:\247oE=\343, \275\267\373\177\275\024y\236<\0206\227<J\375o=\0365\314\275\240@Y\275\371\177\227=\206\374\350<l\200c=.\000\216<\031\230\\\275\305\350\367<\322\241\000\275\"\216\246<?\177\304\275\260\314Q\275\326\023\246=\027\3417=\276\300\035=\203\266\230=\304\303\031\275\361\244\016<\327\363c\275\210\302\004;I\221\201\275\3063\031\275;Jj=\213\021!=\n?E<p0\274=2a\311\274\300tO;\227F3\275\324\303\243\273J\212W\275\244\r\214\274\242/\317<\331r\246<\372u\035;\216\002\250=\027#m\274.\031\264\273U\257\342\274\340U\256\273\006}\347\274^\237\210\274\266\030T;\030>,<de\n;\216\277\200=\343\372\376\273=\314C\274\323~w\274j\264\363\273\344BM\274>\3352\274N\233Z\274\242r\022<$\336\355;\264\315\307<\327\304[\273\365%\344\273\253\017\253\273\250\020\261\273<N7:\261L\302\273\334\206\246\273\"L1<\237\274\201\273hn`\272\236s\201\272\337\363n\272\326<F\272\211\353\300\272\300\205p;\2761n\273\371\276u\272u\270\376;\246{\367\272\325\316\007\271\271u\370\270s\206\307\270\362\310\005\271\364\326;\271\301\366\2557b\356\006\272\240\214\022\271HW\350:\2101\000\272\000\000\000\000\000\000\000\000\000\000\000\000\000\000\000\000\000\000\000\000\000\000\000\000\000\000\000\000\000\000\000\000\000\000\000\000\000\000\000\000\000\000\000\000\000\000\000\000\000\000\000\000\000\000\000\000\000\000\000\000\000\000\000\000\000\000\000\000\000\000\000\000\000\000\000\000\000\000\000\000\000\000\000\000\000\000\000\000\000\000\000\000\000\000\000\000\000\000\000\000\000\000\000\000\000\000\000\000\000\000\000\000\000\000\000\000\000\000\000\000o\376$\271\277\226A\270\313\201E\270\026\023F\271\264\036D\271#0=\267<\024\253\270=\202\210:\332z\002\271\213CO\271\271Q[\273\030\230]\272\361SE;\247\310\222\272J\363\216\272H\265\243\273\337\243\250\272Q*\322;\372\256\316\272\217\200\236;\207`/\273\3641 \273\002\332V\273\357\335\304\272\351\334V;#_\023\274j\247\253\273\274\217F<\367\205\250\273\272ec<p\032\006\273N\364\267\273_BL\274\273\340\272\273g\004\230<3\307\010\274Np\020\274I\224e<\323BP\274]\210\275<\215\365\301;8\007?\274\007_\000\2753\351\307\274Lg\013=\317jy;>\014\365\273\356\366\204<lS\255\274\211\250\023=\355\002\344<S`\270\274Nz8\275B\317I\275\t\0265=LJQ<t\345\013\274\235\360\250<\rK\006\275\303\333W=P\310\026=\352\275\031\275P\031\206\275\253iy\275\264A\'=\304y\033=\354\233\370;Ntf<\227\252\003\275u\320p=\034j!=\014\340s\275uT\276\275PD\200\275\312E\234=d,\233=\305\1772<\252\267\244\274\331\347,\274\354\2701=\230\254\340<\220\354\236\275\314\254\341\275\367s\316\274Z\276\251=\n\372\312=G\377\312<@MG\275l=\215<\010R\'<hp\337;\216\031\232\275m(\346\275\217U\214<\232\274(=\263\376\344=T\nK=\225\226q\275\277\271K=\277\370\362\274\260\007,\275\245\010\036\275\200\213\307\275$;\216=\324\'\007\274`:\006>\324\314\022=\336\235\203\275\360\372\202=~\365K\275:\014\204\275\366\276\234=\327l\242\275\006-\362=\034\003\331\274\177\314\244=\016\256n\273\235X\235\275\036F\351<G\004Y\275\342]\244\275\27769>\227\000/\275\251\337\363=\3761\014\275\337W\301<:\2005\275<,\240\275H{\317\273\324\217\031\275\261]\304\275<\344)>\202\202\255\274rt\317=\366(\001\275\254.\n\274Z\342`\275`\340V\275\250~\035\272\330\375\020\2731O\321\275\266\244\365<\200\0238\271\240\367\227=5\300I<R\2702\275\233\321M\275[u\307<\002\362\255<\003\373\013=\274^\273\275\246^\205\275\332\226\026<\321Z\031=\346\351r=\263u\224\275\254t>\275A`\210=\343(\310<\273\r\241=\214\006y\275\026A\206\275C\354\260<<\311\227\272&i[=\302c\242\275\303\363\034\2756\036\226=\220S\024=\014\223w=hz\223\272\027\267=\275\205T\226<\003\251\007\275g2\356<N\334\250\2755\"\244\274\316\027\230=\260x\333<7\226\r=v\322\206=Hf\367\274\327\016\202;\217PG\275\332\307!;\224u\206\275\332\270\216\273\"\335N=(\373I<\366\232a<\020\272\310=\337\247\244\274\325\333\006\273L\367\"\275(\356\t\272\364\233z\275\302\257\365;\230\205\034<\304yv;LL\236;\220\234\266=?\351\036\274\207\216\215\272\031\360\312\274\tY\323\273\352$A\275\010&\304\271\313\"\356\273JJ~;\270\333u;\305\323\216=\307\'\253\2730K$\274\225\253i\274D\'\335\273\301`\347\2744\255\226;\2568]\274\323`\312:c^\013;\263\345\376<\202\001/\273\250\000\014\2742{\301\273\367\262\310\273\273\260\013\274W\360\032<\254\316\247\273\2203D\271\t\353d\2736]9\2729\333b\272\353\220\267\272p\335\321\271TL\036\273\036b\236;a>.;\316G/\272\340\311\026\271\342\225i\272\023\352V\271C\0274\272\035\026/\271r=L\271\016\267\212\272\006\375\222;\343\261m\272\033\261\226\271\212?\t\272\350\022\357\271\000\000\000\000\000\000\000\000\000\000\000\000\000\000\000\000\000\000\000\000\000\000\000\000\000\000\000\000\000\000\000\000\000\000\000\000\000\000\000\000\000\000\000\000\000\000\000\000\000\000\000\000\000\000\000\000\000\000\000\000\000\000\000\000\000\000\000\000\000\000\000\000\000\000\000\000\000\000\000\000\000\000\000\000\000\000\000\000\000\000\000\000\000\000\000\000\000\000\000\000\000\000\000\000\000\000\000\000\000\000\000\000\000\000\000\000\000\000\000\000\000\000\000\000\000\000\000\000\000\000\000\000\000\000\000\000\000\000\000\000\000\000\000\000\000\000\000\000\000\000\000\000\000\000\000\000\000\000\000\0007\355`\273\234\2420\272\360\263\\; dl\272\301Y\363\271\t\342$\273\326\233\231\272\001\207\221;\032\233\246\272\256\325+;O\037\236:H\312\014\273Hhk\2735x>\273\367\372\342;83\021\274\334l\256\273\'4\322;e\020\226\273\020\301R<\n\315\271:\"\353\275\273u\013\212\274\002\222\002\274S\210\352<t\311\325\273\326\r\026\274[A\322;:\034a\274(!\301<\024\177\254<\347\243B\274\034\347\r\275LL\230\274\333\225M=G+\270\273\021\007;\274\331\323r\273\245\264\334\274\221/*=\r\326>=0\340\301\274<\030J\275\305\237\374\274\3610U=\376\261\n:\356\332Y\273\316\"B\274\24771\275;B\201=-\027]=q2(\275\334\246\215\275yN\005\275\251\243\203=\016\314\003=\335?2<\300\033\271\274\364\002k\275\355\244{=\351VU=7-|\275\327\340\264\275\231\211\275\274\233k\314=\\l\202=\355\364\277<\000\206F\275\241\342x\275\000\0331=o\273\307<\374\237\244\275\256\026\314\275$a\366;\256h\312=\236\017\263=\244Fa=z@\250\2754d\322\274\031\375p<o\262B\274?[\225\275a#\260\275\2005K=\370\264\013=\n\376\302=\264\230d=>\274\276\275\306\252!=\346\036(\274\310[|\275\0203)\2750C\221\2758\214\241=sD\273\273=\201\331=\202\305\264<\212\372\311\275\217<\261=\346\017~\274H\335\271\275\375=\327=/\321`\275\250\203\251=\255*\251\274\317\370\215=\017\213\002\275,\212\346\275\270F\216=\246\203\202\274\253\347\323\275\347\360<>\001c\036\275\305-\203=\371B\371\2749K\017=\336s\"\275:{\343\275\006\020\026=\234;L;\361\312\350\2754\265\n>\211\217\016\275\234\376I=\316\274\323\2748\214Z\274\241\313\264\274\223YZ\275J\265H=\030\273\357<(\355\350\275\201\317\224\274\367C\323\274$\334$=9k\336<Ua8\275\371x\205;\200\255\225<\006\177$=\\\027\225=\267Y\336\275I:\247\275\350\\F;\241\374\337<4\355q==\223\201\275\317\330}\273\t2q=R+\207<~\211\275=\366L\227\275\2569\202\275f\031\337;b\031\323;j\350j=\244\366U\275M\344\215\273\020\242\232=z\306\t;\'\261;=\260\314\226\274\311(2\275\250\r\342:\271L\035\274\230\302\033=;Y:\275`\334\256:\030\343w=a\214\025\274<\343\310<9TD=V\224\351\274r\337\031\274k\300\256\274\303^\320<\376,L\275N\362q<\341\t\002=\312\036\235\274BR\t<\200]\316=`6\232\2745\022@\274\177\345\375\274\372\263\320;\367yl\275\202.\354<\370o\036\273c:~\274\324)\243:\347T\277=\371\277\037\274W\026\312\273\200\037\320\274\354\315\035;`\251P\275@>\224<\364\031M\274AM\'\274\\\375\213:\272e\205=K\010\231\273\022\257=\274Xe\\\274\252K\037\272\267h\362\274\340\362k<\355!1\274\317\226\241\273\250R\177\273\342\002\003=\331\217.\273\006*\020\274.\265\336\273\025\356\n\273[S\\\274\021Ji<\210\305\271\273sqC\273 |u\273\232\033_\272\265\223h\272\254\330\010:c\213(\272\376.p\271\002v\277:TI];\304\321`\272Y;\200\272![o\272\230\324\r\271Yz\005\272\366}2;p\317s\271-\254U\272\032\261^:hG$\272\371\034\236\271\360\t\021\272<s\321\271\000\000\000\000\000\000\000\000\000\000\000\000\000\000\000\000\000\000\000\000\000\000\000\000\000\000\000\000\000\000\000\000\000\000\000\000\000\000\000\000\000\000\000\000\000\000\000\000\000\000\000\000\000\000\000\000\000\000\000\000\000\000\000\000\000\000\000\000\000\000\000\000\000\000\000\000\000\000\000\000\000\000\000\000\000\000\000\000\000\000\000\000\000\000\000\000\000\000\000\000\000\000\000\000\000\000\000\000\000\000\000\000\000\000\000\000\000\000\000\000\000\000\000\000\000\000\000\000\000\000\000\000\000\000\000\000\000\000\000\000\000\000\000\000\000\000\000\000\000\000\000\000\000\000\000\000\000\000\000\000\215\335\004\273\346\321\021\272\030 ~8N\216%\272$\322\224:\243\230\250\272\036\177\213\27222v;=\374l\272\206\331\306:\001\007N;\363q\022\273\345\234\310\273\323r3\273c\301V<\3630\005\274!W\261\273\240\216\306;\361\'\206\273Z[\322;\305\233O<\277w\312\273\364\013\222\274\270\311\233\273\263\205\367<I\246,\274\317I\033\274\274y\274:\363\320^\274\247\341\223<>\260\026=<\211\\\274\344i\306\274*\364\243\274\373\261?=\317O\223\274\210\226r\274\335w\330\273e\032\343\274\322\330(=9\360_=#\275\321\274\312&\346\274\007\231\362\2743bo=0z\252\274\027\232\312\273\237\355]\274\246\375O\275y\365{=k\221\177=iM+\275=\2720\275\3038\001\275s0\264=\313\006\206\273\003%^<\245T\t\275\355Z\226\275\027H\202=\207\203C=\211(|\275\210\272q\275|O\256\274o\337\376=\024\226\030=\333\245\037=\326\001\226\2751\270\260\275\216\000Y=j\264\204<\333K\241\275~v\177\275h~\241;r\225\323=\001\340Z=\316\351\177=\325Q\327\275\377RH\275/\206`=\360\234\033\275\261\261\236\275z\306\373\274\rb\000=\334$\200=\257\267[=[\236*=\0314\354\275p\231\337<2}8=\032/\217\275\000j\001\275~\375\216\274\177\257\000=\353n>=\0033F=`\272\236\273I\334\342\275\356a\231=\212\301\010=\376\257\330\275\223\027\376=h\250!\274A\365\314<\016\212\253<b\205><;\261E\275R!\377\275\343\243\251=\372\313\304<\r_\366\275\307\2515>\362E\331\274e\252\030<E\231\002<\232;\211\274\310\371\321\274\202\316\330\275\323\310\242=/\036\253<cj\007\276\343,\317=\262#\323\274\225\240\325\273\005\226\243<-\002\024\275@2o<\370\277\024\275\216@E=\250\177Y=3\003\013\276:\206p\275\223U\217\274\326\016\201<\311O\213=\010\213\017\275\023\020\376<B\263\371<\326\233\371;[\306\300=4f\352\275\355*\256\275\214g\031\273G\362\000=R\266\262=\352\212\374\274z\247\217<\355<x=\002\200\002\275N\207\212=)\367\223\275\222\277\201\275&\013\222\273\322]\326<\213\241\243=%\240\021\275\320\274\r=\003\221\216=\010\314Q\275k\224\207<E&\265\274\221L@\275\030\n\251\274\211C\264<\344\363\205=\020\035\n\275\036\252\037=\240 P=\370\353A\275>4\323\273-\242==\343\315\001\275!n\227\274\202\311\207;\207\025#=\271\276@\275-\272+=RH\212<\177\323\020\275 \360\206\274\321\202\270=l\326\235\274b<\221\274\257\331-\274R\026.<\212\374N\275[\275A=\247#\016\274\200\236\005\275/\223\014\274\314\346\262=Zf(\274\362\342\006\274\275\333\226\2741\014#;m\r5\275\212\227\370<\207\225<\274,\002\236\274\034X\007\274\307\306n=\000\332\275\273zZ-\274\033gq\274L\340\316;\2229\301\274L+\237<IJ7\274\377\335\035\274\331\227\013\274m\n\357<\345\357^\273\202\323\302\273\202\002\007\2742\'\301;\027\222k\274\213\360]<f\354\346\273xw8\273;\225\336\273\212\265&\272~\030,\272\204vD\271\327n;\272#\355E:\026\347\016\272\234\007\177;t\330K\272d\336S\271\362\371r\272\352z&\267\213$$\270\361&\2309g\352\252\267\2605\205\270\344G\250\266[\235D\270Z\211\327\267\200\013F\2700\035\010\270\000\000\000\000\000\000\000\000\000\000\000\000\000\000\000\000\000\000\000\000\000\000\000\000\000\000\000\000\000\000\000\000\000\000\000\000\000\000\000\000\000\000\000\000\000\000\000\000\000\000\000\000\000\000\000\000\000\000\000\000\000\000\000\000\000\000\000\000\000\000\000\000\000\000\000\000\000\000\000\000\000\000\000\000\000\000\000\000\000\000\000\000\000\000\000\000\000\000\000\000\000\000\000\000\000\000\000\000\000\000\000\000\000\000\000\000\000\000\000\000\000\000\000\000\000\000\000\000\000\000\000\000\000\000\000\000\000\000\000\000\000\000\000\000\000\000\000\000\000\000\000\000\000\000\000\000\000\000\000\000`w-\273\352\210\235\271\007\235\324\272\032\026s\272r\307*;\022j\316\272B\027\230\272Jn\177;YbO\272\n %;\361\273\354;\220\365\033\273j\375\367\273\326\245\350\272%IM<\353\342\014\274\332\270\310\273\213R\267;\356\213\230\273|\213\274;[j\010=(\270\313\273\376^`\273\022\027\252\273\360\317\357<D\247\246\274\277.\021\274\000\206\315\273\211\366D\274$d\202\271\235\215]=@0Y\274\r\313j\273g]\202\274$\227E=\246\304\032\275\213\rX\274Y\331Q\274\215\215\326\274\264\017\247<\247\014\216=\327\355\303\274@\025\374\271\324\337\003\275\377\232v=\277P+\275\312\331q;=\r\336\274\253\225M\275\t\352-=@\207\234=d\"\037\275\300\267\356\271|\026,\275,X\271=S\3622\275\347v\330<\314n)\275\3771\227\275\"\341?=\270\256)=\232\357l\275@\371%\2720\2768\275\277\357\350=~5\204\274~\244d=\3638\230\275\361B\237\275\203%y=\021\003\340\273R\242\225\275\302t\004<\207\023\017\275\2522\306=\235]\201;\177\242\224=\345\357\307\275!\211\006\275 \347\202=?F_\275R\001\177\275\222\276\277<u9u\274\247\\\232=?H\257\274j\212Y=\315\270\317\275\033\3465=\213\242n=Z~\276\275\272$\001<\005\205\275<\024r\234\274*~\211=\3451\204\2743\277\243\273=\340\313\275\337\210\264=Km>=:0\360\275\006\302\030>3\030L<\030\322\001\275\002\231O=\302y\327\274\242\236\356\274A\373\341\2758~\255=<#\221<w\006\007\276\240\256+>\035\322\005<nU\035\275\302\371==\374\246J\275\244\223d\273\036\033\225\27588\202=\037\362\'<7v\022\276\322\002b=\210C\213<t\315\007\275\244\356\207=8\023:\275nVB<\360\374l\273GUr<\232\334u=\242\375\r\276Qz\226\275l\256\326<\030\027\324\273\237\340\302=y)\232\274\367\264s<\025\231G=\017z\035\275\010/\272=\367\304\333\275\241U\254\275\364H\254<\242&\327<D\273\261=\ne\007;\304\261L<\207\307\215=\377Y\241\275\004\211V=^/\204\2750\260\211\275\304\224\024\273\n\224x=\270t\221=Yo\235:\206\362\355<\230X\\=\n/\266\275@]\355;a7\360\273\2472I\275a\177\325\274!\357x=\026hU=B\035\275\274\305\272h=i\247\331<w\354|\275\247\342\354\274N7I={\212\002\275\307\306\331\274\204\223\007=\344l\353<\177\027\034\275\323\340\201=\372\241\353\273\241\024%\275bi\370\274\\\220\250=\001#\261\274\314\307\341\2748\003[;\276\\\321;\326\375@\275\203\346\222=_CB\274|C\370\274qG\317\274[I\221=B\210>\274\t\222\232\274\232\355\273\273\235:B<c\352\032\275wp\025=\246\324!\274\215m\236\274n%\203\274\257B:=\222d\256\2730\305H\274N\342\024\274\253\3275<E\216d\274\007%\200<\361\271\223\273,\221H\274EVs\274,\236\277<\200\".\273\372Ll\273\376\025\366\273_F\020< \270\026\274\347\022\371;\017\242\236\273\250h\230\273\237O\360\273\032^\2739\362\241\217\272w\231\373\2729\250\372\272\314\357\002<\006>\277\272\350\343N;y\r\267\272Z\220s\2729\0237\273\366\345z\271e\245F\271\233\007\251\271\325J\'\272\264\267\025;\345\313J\271\031/t\271\311\260\273\271>\314\333\270HR\316\266\000\000\000\000\000\000\000\000\000\000\000\000\000\000\000\000\000\000\000\000\000\000\000\000\000\000\000\000\000\000\000\000\000\000\000\000\000\000\000\000\000\000\000\000\000\000\000\000\000\000\000\000\000\000\000\000\000\000\000\000\000\000\000\000\000\000\000\000\000\000\000\000\000\000\000\000\000\000\000\000\000\000\000\000\000\000\000\000\000\000\000\000\000\000\000\000\000\000\000\000\000\000\000\000\000\000\000\000\000\000\000\000\000\000\000\000\000\000\000\000\000\000\000\000\000\000\000\000\000\000\000\000\000\000\000\000\000\000\000\000\000\000\000\000\000\000\000\000\000\000\000\000\000\000\000\000\000\000\000\000Vj\014\273k\210p\2716\220\370\272\231 \303:\316\201w;\350vW\272\033\207\213\272[\263\244\271\016\035\203\272\023o\020;\217\177\036<9\2611\273\300\320\002\273\315\215\353:\025\261F<4\021\022\274#U\346\273T\023\t\271\026\246\314\273\374\304`;\003}C=)\224\342\273\013}\274;\301\200\317\273\006R\304<\254\222\333\274FT\020\274n\342\032\274%-L\274\366\205\332\273\304\264\226=\257\000N\274\3753\265<\276\3119\274\320\346&=\205-I\275\3179i\274\240c\245\274P\215\325\274\3124@\273\366\340\253=\270f\261\274\344\206\"=\324P\276\274\314V:=\221\t\205\275L\257\014<\226\313#\275\226Q>\275T\201\230<\2724\226=;\240\030\275L\377P=JO$\275\027\010\222=\256Nh\275\270o\007=M\244_\275\361\027}\275\230#\262<Q\203 =\230;R\275\no5=\001\366C\275\000T\246=U>`\275\214\274\220=%it\2750\004Q\275\231\223\357<\316\314n\274\276\010u\275k\3121=\271\005b\275\217h\222=0\353{\275\316\276\264=\275\274\211\275\314D\021<\372\273==\252z\202\275\332o\346\274/\014L=\355\rV\275\243\366g=\225\326\230\275\007p{=$\350\177\275\277\252\233=\037\010\031=\'\002\320\275\246,e=\372}\210=\t\333\230\275:\302.=\224Z\217\275\350H\204<\330\017\212\275\372\253\335=\372O\304<b\216\361\275\277g >Tt}=\314\342\307\275\250w)=\364hS\275>;\361\273\307\250\205\275q>\244=\360\313\241\271rN\010\276\275\337\013>*\014G=\367\324\274\275Rj\206=\220*?\275\300\215&\271C\200\206\274a\005\001=\315~\314;\'\037\017\276Z\033\360<\005\322h=O#\210\275\233\000\267=\267z.\275\312x\207\273 \372\032=R\300;\274\025BQ=\334\274\357\275\277\261m\275\356\263S=\\S\315\274\027\341\300=:\311D\273\034\263\251\274\210\255V=\322\300L\2757\314\232=\252e\244\275}u\226\2759\231\365<\306c\205<\215\266\233=\370\374\300<\'=\226\274\201\225q=\203\021\202\275\231\360\373<\205+\014\275/\351r\275\350\"\006\273\237\247R=\265Nz=\034Z\235<\257l\201<o\254\t=x\360\252\275\201\345\n\273\306\004a<a\3419\275\331!\311\274\337\213\232=2\220\341<g+P\274\333uc=l\024\240;%\250x\275.t\n\275\370s\\=\314#\013\275\340\276\306\274\204\204F=\217\2305<\010\203\367\274\333<\214=\345\010\023\274?<D\275!\225\025\275w_\235=w\307\277\274\204O\277\274&\275\037<O8\035;\372\022)\275\\\300\225=\242`m\274\022D\001\275\216\217\345\274;\006\\=\241\213\\\274\037,\216\2740B\216;\237(\027<\234\362\001\275\302\r\370<\274\026\021\274\332SV\274?eV\274\200\261\031=\"\305\325\273\035\361\301\273d\264\276\272\305\313\224:\314Z=\274>`<<z(f\273q\370\005\274\2600U\274\203@z<r\3345\273\224x\235\272\250\212\234\273E?O;\212(\'\2737[\204;\240G\353\272\241\237\223\273\014\237\237\273\275X6:3\231\226\272\301\321/\272\367\020\346\272`\255A;\340\021\203\272\226DR;\222,\300\272\240\253\3167\372\362\\\272\213|\"\270\240\245\000\270\010\357Z\270\362\256\330\270\200\353\3019\270U\003\270a#\036\270\236\032s\270cX\216\267 \236\205\265\000\000\000\000\000\000\000\000\000\000\000\000\000\000\000\000\000\000\000\000\000\000\000\000\000\000\000\000\000\000\000\000\000\000\000\000\000\000\000\000\000\000\000\000\000\000\000\000\000\000\000\000\000\000\000\000\000\000\000\000\000\000\000\000\000\000\000\000\000\000\000\000\000\000\000\000\000\000\000\000\000\000\000\000\000\000\000\000\000\000\000\000\000\000\000\000\000\000\000\000\000\000\000\000\000\000\000\000\000\000\000\000\000\000\000\000\000\000\000\000\000\000\000\000\000\000\000\000\000\000\000\000\000\000\000\000\000\000\000\000\000\000\000\000\000\000\000\000\000\000\000\000\000\000\000\000\000\000\000\000<69\272\221\216$\271\212\265\032\272\272S#;\264nK:\274\334\377\271\217}\326\271\002KP\272\352\316;\272\334\230\033:\225\000*<@\210(\273\223~\315:t/\207;\222]p;\322\303X\273\010\343\327\273<\301\274\273\363_\313\273.\353\231;q\377m=CL\004\274k{\231<cd\345\273\270\315\367;\220\222\206\274\260\324m\274-\364_\274\021\317\213\274\316\241\372\273c\253\262=\310_o\274\263\212:=u\0004\274\024\250K<\256e\370\274M7O\274\213\230\310\274`\337\365\274\236m\265\274\216\373\252=\306+\274\274\016\326\237=\202\217\213\274C\352\247<\022\240s\275\275-\342;x\266(\2756W!\275\255J\021\274D\241\225=k\361\022\275\2550\202=\312E\001\275\'\360\n=)\031;\275\361\r\037=\225\205R\275\214\316\031\275\355\353\357\2733\357\'=\256SC\275\322l;=l\006h\275\3750\036=\254N]\275\267V\244=B\215d\275\335\256W<\315\200\227\273rE\023\274I+\n\275}eA=\340\356\222\275\224\217\340<\351\212\223\2754\216\317=*\244[\275\013ff=\233\222\001<\007`z\275r\216\022<`\250\215=\202#\260\275mR\325<L\363\254\275?J\234=9OA\275$\256\306=\342\317\251:n\316\271\275\313\346\254=\340\253\255=\367\311\275\275\033&\340<7r\250\275\250o\024=\254\332H\275R\025\305=(\213k\274<\333\324\275(d\030>GW\247=Z#\346\275\n\322\001=\235\210\216\275J\245\232;N\260V\274\344JK=\234\354\217\274\345l\003\276!\034\350=\345!\237=e\362\330\275\301h/=P\262\022\275\336\000\342\273[\364\005=\\[\207<t\340\307\273h\255\357\275\226\313\311<\234&\201=\256\300\212\275\177W\213=;k\003\275A}\247\274.\002\\=\264H\027\274\n\364\027=\317\207\241\275\263\376E\275\336\341U=\266\352\362\274\366\014\221=3\364\214\273\212\323\003\275\021u]=(\215\377\274sKB=o\355:\275\"\344\204\275\322f\337<\340Ip<\352LO=\340\225\267<\251\266\255\274&X\t=\352\365(\275\034\242\310<2\364\221\272{\321g\275\331\246&<w\356,=\244\277\303<;\265\302<\256m\305<\327\233\377;~!g\275\226\364\221\274r\371\305<\275\3406\275\240%^;\275\331\213=\002z\213;4\n\027\2736\367\177=\364t?\274\342&\212\275\244|\025\275\225\242g=\341>\013\275\212\245&<\025rA=\370/1\274\264\307\212\274\257\226\205=]k\347\274:\276X\275\316\210\024\275\203x\203=sZ\250\274\366\377\210<\223\014B<\336\351F\274I\025\021\275\315SS=\205\200\311\274\230\244\364\274\331p\262\274W\245)=@\001#\274\262\026\256<\226\321\354;\034\273C\274\324l\355\274&\033\263<\026\244\202\274#\256J\274\204\325M\274n\212\222<O\222d\273K\322\244<p\264\316;\237f\262\273\004\3704\274\030f\332\270k\350\"\274\034\335\204\273\003\270\'\274xD\376;\017\355\030\273\272f\206<S\003\306\273\370\324\270\272\000/&:\'\033\207\273\320\325\212\273.\2206\273/z}\273\212=\2618\036z\271\272 \211\301;\036\234F\273-|\014\272\032\026K\272\375\342\370:\230\363\242\272)\231\203\271\352\213\'\272&\260%\271\2038Q\271\256\3774;bA\250\272?\321\257\271@\374&\271\220\225\265\271Fh\007\271\030\230\030\271\037\236\247\266\000\000\000\000\000\000\000\000\000\000\000\000\000\000\000\000\000\000\000\000\000\000\000\000\000\000\000\000\000\000\000\000\000\000\000\000\000\000\000\000\000\000\000\000\000\000\000\000\000\000\000\000\000\000\000\000\000\000\000\000\000\000\000\000\000\000\000\000\000\000\000\000\000\000\000\000\000\000\000\000\000\000\000\000\000\000\000\000\000\000\000\000\000\000\000\000\000\000\000\000\000\000\000\000\000\000\000\000\000\000\000\000\000\000\000\000\000\000\000\000\314xg\270\275<3\270\023\332\344\270e6\003:\225\'\001\271\024\002M\270\272g*\2705\333%\270\020p%\270\326\'\365\265\344\203\201\272\316\2328\272\356\310\'\272\034E\371;\010\226g\272\227\330\207\272-\262D\272^\256Q\272X\206\212\272\360\010D\272\242\234H<\372\241n\273^\223\377;Y_0<\"y\217\273\204D\354\272\377\016\006\274\n\255\366\273\252\254\002\274\227\3500;\007\022\177=\212\3074\274\014\"\320<E\332\331:\241\277*\274\326Lf;\002=\246\274eU\242\274A\375\275\2741\264\004\274\302o\271=p1\237\274>\\\225=@\rD\274@[\213\274\214\241\345\272\3479\232\274\223[\020\275\2325\032\275Y\346\260\274\306$\240=\337s\336\274R\347\270=H>\177\274\375`X\2745\243`\274\233\204\273;?\3301\275\255\n\364\274\236`\000\275pB\202=p\211\r\275\205\271\205=c\327\323\274\231*\371\273\232\300\261\274T%\r=\261XP\275I\205\213;\356t\335\274\272\317\024=\241\014\n\275w\330@=\377\303>\275g\310Z\274>^%\275\003Q\237=\027\255F\275\006\334P=X0\363\274\025\274\021\274Y-\006\274b\344D=\347\313\224\275\256Vo\274\260h|\275pN\347=_\275E\275\200\373\300=Y\352\'\275\330\364V\275\217\361*=\3500\210=>1\251\275CL\304\273g\205\225\275\231\320\277=\020\251I\275\370x\313=\315Q\033\275\212\032\232\275)\033\306=dI\235=\203<\234\275\337Ik<\341\232\230\275TXN=\347*\224\274\310\307\034=f\302\004\275Cd\257\275S\222\364=\345?\247=\357M\240\275K\\\212<r\321f\275\'C\"<FU\257<\024-\256\273\023%\302\274Y+\307\275s\355\264=\376b\227=z$\232\275H\272\260<>y\'\275\305Z^\274+\2535={Q\213\274?^\201<\334~\227\275VZ\212<<\323H=\255\037Q\275>\257\033=\212)\002\275\034Q,\274\274\007R=_+\004\274M]\245<X\016,\275j)6\2750`,=&\032D\274\217\360\014=\224\211\320\273\340mB:\005wi<\004oc\274\016\346\336<\013\312k\274\3218\207\275U\0069<r\007\370<n\277\200<L\301t;\354\321\022=VE\202;\366z\327\274\230\257\300;X.\261<\250\355i\275\236rV<\tl`=\252\267\013\274F\225+;\261\014z=Cn\215\2743%*\275\357[\353\274\337c:=\353\0174\275\255B\311<c\320s=c\035}\274\026c\";H\373Z=\364\217\005\275\022\332}\275\3105\001\275\222!0=|\032\001\275\005?6=5\232\016=E\326\214\274\302{\254\273N\234I=\224\373!\275\374\331;\275o\254\003\275D\274\037=Gg\225\274P\325v=\r\261\007<t\220\224\2748\267\363\274-z\004=qb\001\275S\233\321\274\340\340\207\274\026z\243<\242\351\035\274\"2f=\255\340&<\272\342\221\274\223\243\242\274\326G\262;v\027\225\274\372\224`\274*\007N\274\356h\227;8bS\273z\"\"=\232h!<f\2341\274\240\002\026\274\236y\313\273\014H!\2746\031|\273;$3\274\007\336\016;\244\276\2479\264*\001=\346:\027\274\342q\261\273B\331\247\272+\276\251\273\236\204\255\273\033b\t\273\266n\265\273\216\036\221\272I\204\210\271,\272\211<!\362\255\273q*\014\273\266\240\002\273(\232\374\271\2626\365\272\277\r\343\272a\231\373\272)vF\271\347\232z\271\373\314X;f\211\311\272-\230\322\271\364\003H\271\203\200\331\271\3620\"\271\020\3076\271\330\305\310\266\000\000\000\000\000\000\000\000\000\000\000\000\000\000\000\000\000\000\000\000\000\000\000\000\000\000\000\000\000\000\000\000\000\000\000\000\000\000\000\000\000\000\000\000\000\000\000\000\000\000\000\000\000\000\000\000\000\000\000\000\000\000\000\000\000\000\000\000\000\000\000\000\000\000\000\000\000\000\000\000\000\000\000\000\000\000\000\000\000\000\000\000\000\000\000\000\000\000\000\000\000\000\000\000\000\000\000\000\000\000\000\000\000\000\000\000\000\000\000\000\325EX\272\246y\205\271\326\362\362\271\260\331|;\303\035\r\2727\203\024\272\244\322%\272\221\223\240\271\002\000m\271\264\324>\270c\033-\273s$\024\273(\205\021\273K-\245<\r\272\023\273\005\240\030\273\247\035\036\273:0\377\2727\302\025\273\242\246\355\272\327\2051<-\222\305\273\375l\205;:F\335<\265\373\001\274\252bj;\234*\'\274n\033\002\274\235U\"\274\017\004d\273\376To=(XT\274d\322\345<\225\2551<VC|\274>\034\255;\301\347\232\274\335c\257\274\316\257\316\274\037\242\016\274@m\264=b\227\252\274\274\333\216=\000\364\177;\030\357\355\274\362\330\323<\235\255\374\274\260>\035\275\301\314&\275m\260\343\2741\312\213=$\016\376\274\366V\243=\333`\013<&~8\275\371\252\031=}\r\255\273\250\247I\275\003\242\270\274\362\245\'\275o\007\205=z\376\002\275|e\236=*p\006\274\200xU\275\014\337\377;\226j\206<l\312R\275\232\344\264<\335\2377\275\265\227I=\211\255\262\274\016eP=L\233\311\274\343\010l\275\006\272\313\274\"\306m=\024zc\275 :\242=\300\262X\275/\254N<\242\326L<\306\210\'=-VF\275`\235l\275\260\202\"\275\200\370\335=\276ot\275RR\300=\221\214\200\275\377;\372\274\005\2478=\216\246\204=\221\350L\275ihG\275-_B\275\357\206\375=%\260;\2753\000\\=\364\301\204\275$\262*\275\236\215\241=\354;\233=\275,I\275\367\301\362\274\223PE\275\262\235\246=K\016\230;X>\257\274\245\240O\275\320qU\275bD\252=\n\376\217=\016`J\275\332^\240\274\251\311J\275\t\n\374<\372\306\'=\222\\,\275R\245L\274\2050&\275i\021\216=Z]\373<t\337C\275]%1\274\240Q>\275\000\217\303<\037\003O=\242jD\275\340\362\234<\371\370\313\274\276\257\251;\364\301\203<HM\014\275\036\000\301;\016\346,\275k1\030=\314i\260<@\234\033\272\366\001\204<k\273\013\2746\326A\275\342\330\203<\023Z+\273q\030\025\274\247\001H\274\371\215r=J\000\376\273 D\234\272\273\243[<\276\207v<S\021\204\275zc\232<\307\214&=z\252m\274\n\te\274\260\374\220=\345f\231\274\022\021\231\274B9u\2744C\033=\341\033i\275t5\214<utb=\275\272\212\274=-\270\273Mct=\tO\374\274\335\310\036\275\270\214\253\274\364z\344<\006\2713\275 [H=\000OL=\346\253\002\275\236\247S<\272\3001=?Y\020\275+\355M\275\314\315\261\274^I\337<2X\000\275\002&\211=i\034\363<\310\323\307\274#\314t\273\034\255\350<Rg\031\275\\.\372\2744\220\313\274\3471|<\2257\233\274!\222\235=x\271D<\007J\302\2741\206\215\274\225\3123<\000\254\337\274\231\377\221\2741\340\'\274\017.\260;,\215=\274\233\335\230=B\3647<\351\253\267\274K>M\274\210\177\002\274\032\276\207\274\340\317\370\2730qN\274@\007\226\273\320\223\266\273\352\010a=\037]\361;\241\316M\274\274\205\352\273<\333:\274\"\271\031\274\363\265\263\272\022h(\2746\373\340\272l\3162\272\236\237(=3\356\360\273\360\234\005\274\016\022W\273\234\224\311\273\303$\236\273\362\366M\273b\376\277\273\030:2\272%\204\':\362\211\214<w\022\204\273#\274(\273mO\036\273\031d3\273\264\233\224\272\344\245#\273u3\342\272(\023\266\267\265\351\345\267U\346\3069e\3458\271\2664A\270\033\200\267\267\n\213G\270\234\314\224\267\225\257\247\267\37418\265\000\000\000\000\000\000\000\000\000\000\000\000\000\000\000\000\000\000\000\000\000\000\000\000\000\000\000\000\000\000\000\000\000\000\000\000\000\000\000\000\000\000\000\000\000\000\000\000\000\000\000\000\000\000\000\000\000\000\000\000\000\000\000\000\000\000\000\000\000\000\000\000\000\000\000\000\000\000\000\000\000\000\000\000\000\000\000\000\000\000\000\000\000\000\000\000\000\000\000\000\000\000\000\000\000\000\000\000\000\000\000\000\000\000\000\000\000\000\000\000\220-\263\272\2629\361\271\224Hg\272F~\334;\332\306[\272\340Qq\272*\335\213\272\336\364\t\272\313\372\025\272\240w\307\270\307aR\273\014e(\273\253c{\273\332n\316<`\2031\273\253\226\022\273\322\364Q\273s\\\025\273\037a\\\273\336\377\352\272\244\323\355;\270\377\276\273 \226\266;B\003\364<t\221\367\273\370O+;\327\315\025\274i\303\320\273\217#\035\274i\347\334\273\226\3622=\262\323B\274\364\330\315<\204\320\253<\356z\230\274\2243\t<\376\272\216\274\310k\214\274{\r\275\274\306\036$\274\0161\225=\376\273\253\274\264\273\201=\277^\214<.u\032\275\256\352#=\220W\005\275\003*\027\2756\371\013\2753K\376\274\255\250\203=c\367\000\275=\266\246=\313c\025=\352\264a\275\270\340S=F&\376\274k\251J\2751\326y\274\356#S\275\366U\232=JH\006\275\010?\237=\022\001\222<\255K\210\275\256\215*=\260\023\236\274\214\024e\275\242\223\305<\374\203~\275\030S\235=\003Nd\274\035)g=t(?<cG\221\275\265,\024<\340\357\212<\326\242\211\275\031!P=\324\252\216\275\'\2646=\303\004\204<\363&H=\2763z\274\n\347\232\275\276\240\353\272\006\366\210=IN\202\275l\303s=.\034\243\275\361\326\010<\351\213\355<\240wm=\313\003\350\274\336`\233\275\033\206$\274\270A\347=\234J\002\275#\373\'<\342b\224\275 \326%\273iPS=\347\200V=-&\000\275g\204\205\275\354<\356\274I:\343=G)g<\351\3335\275y\211g\275HS\010\274\005/Z=7`A<0\230\347\274ty\032\275\240[B\275P\353\301=\210\254\034=\200\216a\275d\213\255\274d\367?\272\240_M=\332\353P\274Xs\323\274y\007\002\275\243\332B\275\234\217\260=`?\340<XKj\275\232\rF<\253\255b<(\230\244:b\261\237\274\342a\225;\244\266\346\274\341\206\"\275\363;\247=\374\312P\273\320\371\3079\315\3626\274\347 \016=[\212>\275:\2546\274\314\256\006=\310V\026\275\372}\243\274p{\227=U\337\276\274\226\352\312;L\244%\274V\337\010=E\261Z\275\243\225~\273]zN=\300T\247\274\235\205(\274l\343\200=\366\270\367\274\214!\371\273\002s\253\274\364f\262<\312\366>\275\337K <\366\350O=\252\353z\274_\333\177<\371\352\366<\236\320\374\274\216\251\301\274\342\263>\274\372@\211<\375\026\037\2750\223\005=\273\222*=\234;\364\274@\272\013=\3634\242<e\250\010\275f\234\331\274\204\337\205\274\313*\274;\263\"\317\274l\316B=\241\305\032=\251\214x\274z?\377;&\371\3229Q\325\007\275\377\374&\274\324x}\274\'\n\262;vMw\274I\nm=\177oJ<\245\334\204\274KI\365\273J\347\315\273\242=\266\274\240\306\247\271$E\003\2742v3\273\003\214\023\274tnc=\357\302\013<|\220~\2748\3675\273\206\tA\274&\370Q\274\320\235\237\271D\006\025\274\031$\020\274\005\256\244\273l\262(=\315s\272:\354<\026\274\265g\275:\035?\335\273\257\273\341\273\351e`\272\242\022\327\2737\005\207\270\324\2737\273\330\270\350<\377iS\273\201I\237\273!.g\273=2u\273\221eD\273\312)j\273\376\345l\2738x\323\271k\367}\272|K8<W|\316\272v\205\220\272\254y\324\272\314\355\356\272\\\234\026\272\326F\306\272\323\203\332\272\311C\022\271\351\337e\271\331(\";\n\215X\271\010\366Z\271\005\022\232\271l\325H\271\242\3068\271\364\215\315\271\261\202)\272\000\000\000\000\000\000\000\000\000\000\000\000\000\000\000\000\000\000\000\000\000\000\000\000\000\000\000\000\000\000\000\000\000\000\000\000\000\000\000\000\000\000\000\000\000\000\000\000\000\000\000\000\000\000\000\000\000\000\000\000\000\000\000\000\000\000\000\000\000\000\000\000\000\000\000\000\000\000\000\000\000\000\000\000\000\000\000\000\000\000\000\000\000\000\000\000\000\000\000\000\000\000\000\000\000\000\000\000\000\000\000\000\000\000\000\000\000\000\000\000\\o\001\272\252\233\354\271t-\232\272C\313\243;6\345\305\271\227\'\226\271\306\376\366\271\251\000\272\271\220e\245\272\370\302\003\271\027t+\273\232f\252\272D\221\013\273\326$\222<mG\010\273\'\\\256\272\210\r!\273\300\275\267\272\200o]\273I9\226\272\333+\321:\254 \177\273f\014\3359[\265\010=\000\357\254\273=\277.\273\362\212\332\273\025:\212\273\265\243\001\2740\333\233\273\362\357\254<\250\311\370\273H\000\215<<\014#=\362\007y\274 5\005\272\255\346\205\274\2245X\2743\330r\274,v+\274\222g\'=.D<\274\317LA=5\314.=K\343\004\275\210\273C<^\205\342\274g\237\330\274$\337\253\274Y\362\301\274\366XR=\321K\342\274y\303\212=sgO=\014\306W\275\266)E=g\335.\275u\3649\2758\312\252\273\364Y5\275R!\207=B\325\306\274\300\327\234=1\204V=\217\271\204\275\236\001u=<e>\275%M{\275&\314\253;\2540\201\275\360\372\253=\306\3460\274Ns\212=q\233\000=\261#\223\275\261\036b=\\9\346\274b\021\215\275\004k\254<\314\005\243\275|O\233=\030\323\017:4\020\022=\212\032}<\365 \246\275;\0161=\223\273\032<\312XA\275\371\233\350<\305R\244\275&\203L=\351\372G<\024\335\235<\206\244\343\273\254\035\235\275\031\302\031=\370\203?=\374\201\'\274@\340Y\273\004D\214\275\244\336\"=\330\311\t=\033\001\034\2745G\304;\345.\221\275\265fm<\376f\177=r\326g<\366\247\020\275\233\341_\275Sl\006=\330\227\021=\026\322B\275\264\322\310<l8<\275\300s+\274\016=]=!2\216<\205}*\275p\275\230\274\262\307\001=V\260\351<@Uf\275\023L%=o\321$\275Yg\377\273\204b5=\'\016\223\272\252\327\n\275\032V\266\273<\r\356<0\302\210\272\276\316\037\275\177\265V=\302\270\370\274l\\\271\272\342\336\032=\211\270Q\274\022a\262\273YI\357\274h\333u<\252}\n\275X\260\275\274WX\207=[a\t\275\257\323C<q\031\364<5Q\327\274jP\032<\tv}\274\255p\031<\224a\036\275\331\301\272\273#\235\\=6X\334\273XL\255<\260\303\377;\377\250\342\2740\3256;\346\327\204\274\t\3621<\221\267\374\274d,\334;~\222&=\346\316\004:\324\'\260<\237\305+\274\373`\371\274\2773\267\273\204x=\273+\236+<\267[\351\274@\242\301<\035}\037=N\347\204\274\372\373\351<\357\252E\274\220`\344\274\202\231\036\274\371\206\356\273\256\303\'<\244\204\245\274\276\330\307<\267\177\010=\253\366\240\273\r\234\273;\212\214c\274\202\202\303\274\237\007\004\273\375)\020\274\354\300\037;\005jG\274\265\013\t=\361x`<\201\234\214\273\330\331\234\272\204yC\274\267\217\207\274\313\3430;\n\311\311\273N\312\272\273\r\321\260\273D`\t=\330x\370:\022\226\325\273|i\004\272y\351\323\273\017!\356\273\3120\345:e\243\256\273HL\246\273(a.\273\202h\302<\035j\314:^\005\267\273\352\261\010:j\353w\273\231\025N\273TY\032\273\317FR\273\273\255\376:h\374\3329\316\037M<\322\274\200\273\035O\216\272\304D\022\273=Q\357\272\261\233\273\272\345\354 \273\240\330\373\272\276U\346\271H(D\272 _\371;\211\022M\272\322l\013\272\3072q\272\010\366\032\272\222j*\272a\177\241\272-\312\340\272\335\2442\271\247a\214\271\266\016F;\256>\204\271x\267\205\271u-\274\271\004Ku\2715\256a\271\026\017\373\271&\tO\272\000\000\000\000\000\000\000\000\000\000\000\000\000\000\000\000\000\000\000\000\000\000\000\000\000\000\000\000\000\000\000\000\000\000\000\000\000\000\000\000\000\000\000\000\000\000\000\000\000\000\000\000\000\000\000\000\000\000\000\000\000\000\000\000\000\000\000\000\000\000\000\000\000\000\000\000\000\000\000\000\000\000\000\000\000\000\000\000\000\000\000\000\000\000\000\000\000\000\000\000\000\000\000\000\000\000\000\000\000\000\000\000\000\000\000\000\000\000\000\000vt\270\270%UL\271\331\271\010\272\373\217\362:\350u\034\271S\220l\270j\202\316\270\215m\n\271(\207\023\272\232\216F\270\021\210p\272(\007<\272>\016\312\272\341I+<\036\254\266\272\023\341\022\272\005\237a\272j\2033\272b\351=\273\014\361f\272?\377M\2724\331\304\272\020\005`\272\322\204\236<@s3\273\202\376\"\273\204M+\273\016\257\345\272\254=\231\273\202M\376\272\206\234\340\272\024O\351:\304_\375;\024\374\n=2^%\274\262\224,\273\001a8\274o\333\213\273<y\306\273\235O\363\273\022\317\211<\270\225\267\273\260\334\232<P\366A=\276X\254\274Ig\017<l\306\316\274\021\316h\274\357\354&\274\342\323~\274\233\023\022=\263\366\006\274\366\364\017=~\273[=\2568\003\275\333\260c<X\267\'\275D\317\360\274\320f\221;\315\307\003\275\031\364b=*\220\365:\216\315A=D\335w=\342=V\275\374h\036=\007\344p\275\214\0315\275\330X\324;\017\004a\275\355\221\227=\226\211\277\273\336WM=#?s=\237\026\214\275\271\237\205=\001\234\217\275\350\332,\275\260\2009<\225\224\226\275\310\030\231=\007\362\260\273\037\020X<\365^\206=\372n\221\275\007\341\204=!g\212\275\206\226\255\274x\353\250<\315J\227\275\226<s=\353=\363;\360Id\2740\375W=B\334}\275\217\ru=MB\210\275\226A\365\272C[\036=w\366\226\275aOV=\323\207\305<;E?\275\334\247Y=\210\227W\275T\360\005=T\272b\275\327\203\251;f::=K\177n\275\264\275`=\021\037\310<\336=\217\275T\251Y=${\t\275\200?\213<&%X\275/\213R:#t\263<\035\375\201\274\252\3119=\216\305\264<R\317\221\275!\234\213=\006\020\010\275iP\211<x->\275\235X\031\274\200\350a<:\246\302\273F-\265<\014i\377;n^E\275\276\227\235=\002S\024\274\334\335\213<\367\271Q\275a\247\236\274\247`\267<T\243\227\274\361F\201<\244\204R\2740\322\333\274\177\200Y=\247\030\344\273l\315\315<\270E%\275\003U\252\274\250(\001=\210k\221\274\314\323\';b\247\225\274(K\177\274x\207\366<F\305d<\013\001\025=\'[#\275\246Y\200\274\030H\241<\310\243Y\274\233\247\t<\375\357\205\274`\2040\273\351<\323<\204\032v<\372~\315<,\3024\275\373\347\262\274\202G\215;\032\370\321;Ra\004<\037 \253\274\314\324e<\322\270\333<\244I\262:Y,i<\370\357\323\274\276\256\206\274\223\032X;\247L\227\273\256\362\030;\373\322v\274z1\353<\312\200\343;\235\372\314;\224D\327;\203\312\216\274\004\231Z\274\200M\0349\241\337\247\273\330+\350\272\2434\002\274\014\344\330<\0055d\272\317D~;\265{_\272\231#;\274\031\223:\274M\353\232;\3061Z\272O\263\014\2732\274^\273c\260\267<\013\"\024\273\303\232\264\272\245o\021\273y\361\255\273b\006}\273D}\350\270\276\016\344\272p\260\232\272\335#\234\272F!M<@\262{\273\2135\2209\177\n\302:Ag2\273\361\332\371\272\254\345\024\273pt\230\272=\26799F\276P\2726\n\332;\377&\204\273a9\266:6\233\211:\033\262\264\272\354\254\231\272,\n\224\272\016\240G\272\276x\253\270J!\021\271v\017\263:c\025\"\271\203\277\260\270\207\3560\271\232D\317\270\017\374\n\271U\213k\271T\010\224\271\000\000\000\000\000\000\000\000\000\000\000\000\000\000\000\000\000\000\000\000\000\000\000\000\000\000\000\000\000\000\000\000\000\000\000\000\000\000\000\000\000\000\000\000\000\000\000\000\000\000\000\000\000\000\000\000\000\000\000\000\000\000\000\000\000\000\000\000\000\000\000\000\000\000\000\000\000\000\000\000\000\000\000\000\000\000\000\000\000\000\000\000\000\000\000\000\000\000\000\000\000\000\000\000\000\000\000\000\000\000\000\000\000\000\000\000\000\000\000\000\000\000\000\000\000\000\000\000\000\000\000\000\000\000\000\000\000\000\000\000\000\000\000\000\000\000\000\000\000\000\000\000\000\000\000\000\000\000\000\000*_g\267\350|:\267\020P\261\267\374\372\3458\357\003\207\2677\232Q\267\013@\026\267\326\353\034\267+\037\203\267\354z\222\265J\261\341\271\344\2529\272\333,\315\271\222p\253;{\nD\272T}\335\271zG\341\271\237.\233\271\201\224\241\272f=\026\272,\241\020\272,\366\010:N \002\273\0309\034<\251\326\017\2731.\256\272\tN\234\272,\003\036;\202\013\200\273ha\253\272\r\030\301\273fb\233;9\002;\273\014\236\252<\255\201\272\273|\021\312\273\267\362\225\273\315\025\\;\200\216t\271\370Cf\273\304\211C\274`\324\025;\375\025O\273}2+=&\235\036\2740-\024;\305(A\274\316\340\310\272\016\235\207\273\024\225\206\273\346\302\371\273\373\233*<Xq\257\2732\030V=*{\245\274\213\344\277<9\213\320\274\016/\t\274\006I\366\272c\023\215\274\"\337\354;\330V\261;I\212\220\273\315\032t=\254\276\021\275p\010\n=Fj\033\275\275\261@\274\243\270\232<\247\337\017\275\000m\252<\276\310&\273\013\246X\274\034_\211=u%M\275Xc\'=\n:M\275\234 \247;\255\251\313<p\033/\275\006|\014=\232\330\024\274`)\360\274\336\260\203=\3678P\275\366;\r=q\303\204\275\033Y\232<\\\373\027=\3706\017\275\327\035\003=\222L\t\273\244\373\034\275\371\000x=\24053\275\354\004\007=\312\247\246\275V\311\263<\3501u=\251$+\2756@\340<_\327\204<*\000p\275\344pc=\030\372!\275\306O\030=\t\326\266\275\221\2710<\356(\226=i&\007\275\026\222\317;I\006\241<2\220\222\275\226\370<=\325\224\000\275\034g\340<*\330\255\275|\002};\316\371\250=\314\003\000;;\037\235;\017\336\342<<\224{\275\362w\364<\334\026\303\274\025/\201<\376\317\222\275\301a$;\247E\212=\017\037\020<x\233\375\272&\037\016<\221\356[\275\224p\214<*l\325;\\_\347<JKu\275\306,\016:\241\017a=V\272\017\272\217\330G\273\243\023\031\2731O\032\275\365\004/<\241Q\262;\'E\"=xZN\275\254Q0\273\366\2675=)X\202\273\340%\023\274i\273\006\274/7\315\274\222u\016<\240\337y<w\344\r=\202\347,\275\037\014\265;\262\357\217<k\2046;\266A\304\273+R\206\274\370\315\322\273T\314*<R\034\235<\307~\340;\002\363\n\275\372\212Z\273o\3219<\224\302\225<\273\257\030\273\344\363u\274\265\2202<-\374\246:\336\364{<\245\364^;\256F\246\274u\307\341\273w\343\244;\343\374\013<\\\315?\273\023K)\274\033\352\235<\375O\022\273\361\232;<+\335_;\372\\K\274\374\236\017\274\362\263\270:^\213\222:\305\356\303\272R\250\177\273\324_F<\017\357\3039\306\354\020<\344\230\027\273\302\261\321\273.0\360\273\032:\034\273@\206#;5\312\001:\371\370\301\272\232\251\016<\306}a\273`\r\2447\337p\263\272\366\n\013\273\360J-\273s+\371\272C\275t;\204\321\036\272,2\024\272\242\036,;\274\311\362\272\326\377\\:\000\0061;Tq\255\272\313\\\256\272\t\034B\272:z\2019\362]M\271T\0079\271\320:<\267Q-\237\2714P4\271\3342\';\330A\016\272\372\034\017\272\274r\203\271\221\374\270\271\000\000\000\000\000\000\000\000\000\000\000\000\000\000\000\000\000\000\000\000\000\000\000\000\000\000\000\000\000\000\000\000\000\000\000\000\000\000\000\000\000\000\000\000\000\000\000\000\000\000\000\000\000\000\000\000\000\000\000\000\000\000\000\000\000\000\000\000\000\000\000\000\000\000\000\000\000\000\000\000\000\000\000\000\000\000\000\000\000\000\000\000\000\000\000\000\000\000\000\000\000\000\000\000\000\000\000\000\000\000\000\000\000\000\000\000\000\000\000\000\000\000\000\000\000\000\000\000\000\000\000\000\000\000\000\000\000\000\000\000\000\000\000\000\000\000\000\000\000\000\000\000\000\000\000\000\000\000\000\000\000\000\000\000\000\000\000\000\000\000\000\000\000\000\000\000\000\000\000\000\000\000\000\000\000\000\000\000\000\000\000\000\000\000\000\000\000\000\000\000\000\000\000\000\000\000\000\000\000\000\000\000\000\000\000\000\000\000\000\000\000\000\000\000\000\000\000\000\000\000\000\000\000\000\000\000\000\000\000\000FE\007\270\003\353\317\271\300\366i\270\2706\211:\377\223\257\270\373\223\306\270\n\347\n\270\021\232\205\270\321\332G\27146\312\270 c\"\272\272\237\324\272\206\254\212\272Z!Q;.\022\256\272\250\276(\272\004h\003\272\331%\231;\254\340\315\272$\254\010\272\302.\013\2735\'6\273v\3279\273MM\330;\014V4\272*6\363\272{>\362\272\356\322\324;\274\303[:<h\354\272\260h\275\273\010\004A\272\377\205\370\273\026#9<\017|t\273q\2329\273\323\006\244\2730D\346;m\313\217;\355\226A;\270\3406\274\314@\036<\370\037\207\274P\375\203<\376eI\274D,\004<\036s*\274d7\234<X\361u\272 \355\323\272\324\223W\274Z\023\340;\024f\242\274xUN<k\246\223\274\226\252t<1\355\204\2747\373\310<\230[\212<)0\014\274y6m\274\325\257\346\273~a\256\274ye\020<1\241\343\274@\257]<\353\204\276\274\225\3209=\351^\363<\010\335i\273\026[\202\274\037k\273\274\210\301\372\274\254\335\'<d7\362\274\017\234Y<rs\007\275\023ly=\240\0323=\005\336~;\224\241\232\274\244k\324\274\004N\n\275\362\236\033<\201\214\261\2746)E<\0008*\275\036|i=\360\221a=&K\006<y9\334\274]@%\274\343r\352\274\002\221f;\236\014\004\275\254\267\000<\353\314?\275\36692=\370\263z=\307\365\351<\327\251\343\274~\350\034:\276\250\013\275KN\034\273,M\t\275\216\255\\;\325\353<\275\\~ =b\363e=S\3136=\375\274\313\274\246\342\002\274\254]\352\274\360\226\266\2730\376\363\274\332>\334\272\200\032\"\275\310\232\031=A\344K=]\025P=\220\312\272\27470\245\274\376h\265\274*\r\022\274\262O\030\273\237E\331;So\t\275R\346\370<\226\337*=\007\\\377<\231\256\177\274\330\344\231\274\2320\230\274#{\206\272\020\346\252;\262v\373;3\335\325\274XN\333<k\003\226<\252H\265<<\220D\274\261\242t\274@\350{\274t\324\006\273G\036\023<h\267\262\273\'\212\265\274\023\301\325<d\356*<\275\330\330<\365\031H\274\322\035E\274\346\325B\274\330\277\004\274\005`\217<\202\301\307\273\222\333\225\274\342:?<\277\351\215;i\335\017=\346\303\276\273\247\266\352\273\227n\225\273\306\257\231\273\371t_<Y\366y\273\203\276&\274\372\333\024;\220\254\000\273\335\203\266<\257\006*\273\270vc\273*oV\271h\010/;\373M\001<\024R\245\273\001\254\215\273-\341}\273\323\345\027\273\314\2318<&\253f\272-\026\223\272\376\247\307:\241\301^\272\025\241o;]-\264\272$\315\315\272P\376o\273\352\035\335\272\334}\303;p\227~\271\323\014\017\272D\302H;\254\231\272\272\245W\260\272\221\245\214\270k\323\000\272@\251\021\273X\254\035\272n\021~;\253!R\271V)T\271H\322\260\271\313\211\023\272\302\207\312\272\0015:;n\265L\272\217\257\014\273\271\'\245\2710\362T;cC\312\270\272\2142\271\201\\\205\271\277\260.\271)\374\031\272\014TC;\234c\t\272Q\375\022\272\252[x\2718,\311\271\000\000\000\000\000\000\000\000\000\000\000\000\000\000\000\000\000\000\000\000\000\000\000\000\000\000\000\000\000\000\000\000\000\000\000\000\000\000\000\000\000\000\000\000\000\000\000\000\000\000\000\000\000\000\000\000\000\000\000\000\000\000\000\000\000\000\000\000\000\000\000\000\000\000\000\000\000\000\000\000\000\000\000\000\000\000\000\000\000\000\000\000\000\000\000\000\000\000\000\000\000\000\000\000\000\000\000\000\000\000\000\000\000\000\000\000\000\000\000\000\000\000\000\000\000\000\000\000\000\000\000\000\000\000\000\000\000\000\000\000\000\000\000\000\000\000\000\000\000\000\000\000\000\000\000\000\000\000\000\000\000\000\000\000\000\000\000\000\000\000\000\000\000\000\000\000\000\000\000\000\000\000\000\000\000\000\000\000\000\000\000\000\000\000\000\000\000\000\000\000\000\000\000\000\000\000\000\000\000\000\000\000\000\000\000\000\000\000\000\000\000\000\000\000\000\000\000\000\000\000\000\000\000\000\000\000\000\000\000\000\000\000\000\000\000\000\000\000\000\000\000\000\000\000\000\000\000\000\000\000\000\000\000\000\000\000\000\000\000\000\000\000\000\000\000\000\000\000\000\000v\360m\272\326:\017\272K\013\277\272g%l\272\271\266\213\2724\003\313\271\264\t\r\272\236<\353;h\347\247\272Y\260\305\270\007\017\217\272N\033\010\272\002n\273\272,\356C\272\331\017s\272\233\215\020\272\205g\033\272/$\366;+\271\267\272)M\203\271:\016\371\272\2679\205\272\330\360!\273\251r\250\272\273\366\271\272\\\204\272\272\273O\250\272\200\001\020<&\005q9v:\351:\3406\207\273P\334\027\273gS\265\273s\307c\273\324\340n\273\006T\216\273\022`(\273E\373\331<\250\204\030\272\340\337\213\267X_\354\273M+j\273b(\276\273 \203\232\273W\221\202\273\256\022T\273\270\014\202\273uv\036=\0257\332\272\373]\224\273\247\213>\274\232K\377\273\202\232\033\274\200\201\353\273\343\025\n\274\2033\256\273\236\001\354\273<Mp=T \337\273\2730\252;\263\005n\274\024\276H\274\010\007m\274F\304\013\274\014l\200\274\025\277\027\274\375\3172\274\032\210\214=g\307.\274k\276\342<~\246\202\274qqR\274\272O\211\274\316\3544\274\345\003k\274rwI\274\007\177W\274\271\364\224=\205\270\372\273\337>\000=\310\254\233\274\032\362i\274\334[\205\274\205\247X\274\261\370\241\274\361UY\274\320\260r\274!v\215=4\007\355\273e\335G=|\335\300\274\0339\211\274b\222w\274t\006\210\274\\\317\263\274%\240^\274\253\363\212\274\272Nz=B\347\023\2732v\206=\036\242\245\274K\311\201\274{\222.\274\367d\206\274\r\301\344\274\333\344\216\274\2150\211\274\340\004n=\364r\017;\374\375\204=-\373i\274\245pK\274\313B\t\274uDK\274\212\336\236\274\223\375|\274d\226V\274\216\272C=\301\234\203;\340\2422=\222)Y\274\000\267\016\274\\\335.\274\3705\333\273\364\014\r\274\233\016M\274\023\300F\274\216\351!=\315`\316:\216\360\000=\'\2334\274j\273\300\273\226\211*\274\265\377\311\273\374#\264\273\014\0252\274\032#3\2745\325\376<\303\010\203\272\214A\373<\361\351\002\274\342\355\312\273\323\231\035\274\223\257\333\273HP3;j\315\000\274\231&\032\274\360\354M<\'\272b\273\002-\023=0`r\273\033\237r\273\361\346\317\273n\021$\273\320\377\002\273\372\262\346\273&\314\266\273\252\014\n<\236\266\214\273\350\002\333<mh\202\272\323Y\231\272\317\\+\273\244\363\':\004\333p\272:^\236\273\373\363\006\273\333\311\004:7:\022\273\375\013`<| \022\271 n\304\270B~\003\272\366\035\304\271\372\272\033:H2i\272\224\016\355\271\201E\377\272\201\'\320\271\017\250\211;\364H\350\270\266$$\270\025k\306\270\372\233\331\271v]\204\272|\337\037\270\230\305\224\271\314D\331\272Q\333\272\270\337\371t;\0271%\271\323;%\271D\006\212\271\320\024\351\271\354\241\237\272*<\020;|# \272nt\336\272\376\354\200\271\264\377);\232Cu\270T\202\330\270\271\266!\271N\324\323\270\323\270\272\271\324\332\354:\n\231\246\271@=\262\271L\224\026\271\025\361s\271\000\000\000\000\000\000\000\000\000\000\000\000\000\000\000\000\000\000\000\000\000\000\000\000\000\000\000\000\000\000\000\000\000\000\000\000\000\000\000\000\000\000\000\000\000\000\000\000\000\000\000\000\000\000\000\000\000\000\000\000\000\000\000\000\000\000\000\000\000\000\000\000\000\000\000\000\000\000\000\000\000\000\000\000\000\000\000\000\000\000\000\000\000\000\000\000\000\000\000\000\000\000\000\000\000\000\000\000\000\000\000\000\000\000\000\000\000\000\000\000\000\000\000\000\000\000\000\000\000\000\000\000\000\000\000\000\000\000\000\000\000\000\000\000\000\000\000\000\000\000\000\000\000\000\000\000\000\000\000\000\000\000\000\000\000\000\000\000\000\000\000\000\000\000\000\000\000\000\000\000\000\000\000\000\000\000\000\000\000\000\000\000\000\000\000\000\000\000\000\000\000\000\000\000\000\000\000\000\000\000\000\000\000\000\000\000\000\000\000\000\000\000\000\000\000\000\000\000\000\000\000\000\000\000\000\000\000\000\000\000\000\000\000\000\000\000\000\000\000\000\000\000\000\000\000\000\000\000\000\000\000\000\000\000\000\000\000\000\000\000\000\000\000\000\000\000\000\000\000\000\373\2609\272\002\312T\271^Zd\272d2t\270\2054k\271\0161#\271\277\263\274\271\336ei;\376\016l\272\220\241\250\2706H2\272~\236I\271\013\036-\272;9\363\270{\211q\271\254E\262\2714\376\252\271\210jh;k+L\272J\025i\271\033\264\223\271\320\367\300\270{r#\271\364-\217\270L\306_\271\302\236\266\271\203\233\377\270S\027\354:\256\303\214\271\376\271\203\271\r\317~\272\257[\272\271j\245\320\271[\330\212\271\016\335b\272\207\303\007\273|\n\303\271o\234\342;\253w^\272\250?I\272\034hj\273\304\t\246\272\371\220\317\272\364\201\223\272\014\344i\273a\200O\273h\010\272\272Y\262\251<\321\205$\273\354\255#\273Gx\267\273H\013[\273\366\261=\273\244(\374\272\360G\341\273\372\t\214\2731e/\273E\240\n=\365\216\227\273\2266\326\272\016\245\260\273\206 \203\273\014\246~\273\336zI\273\3153\345\273\017\205\342\273;\233m\273\003p\005=\374$\324\273i\001\377;\024\230\262\273\236H\262\273\361\343\244\273`k\216\2737\210\016\274r\315 \2746k\236\273*8!=\373\322\t\274\235\225O<\365\311\271\273~\035\255\273\307f\240\273he\257\273X\010&\274\327\267\013\274h\032\226\273X\003\037=\225\223\374\273\241cZ<g\261\313\273o\201y\273\377\247d\273\225\013\243\273\356\367\n\274\301{\001\274\302}\202\273\210\374\031=!\027\311\273\261i\362;\"\260\346\273\342\342S\273\300\357t\273h\237\234\273\274\253\003\274\271\002\353\273c\253\224\273\024}\367<\265j\276\273g\232g<Z,\t\274\301K7\273\362\250z\273W U\2732\222\n\274\237<\314\273\335\263\236\273\177\363\n=\246%\247\273\340\300\022<\352\354\003\274p\261j\273\372\255\207\273\306\340\202\272\317e\023\274\224\246\017\274\tW\266\273E\224\r=HC\274\273\322\3248<mh\261\273|q9\273F\265u\273\372\204\321\272$S\013\274\020\367\325\273\010\364\212\273x>\276<\264;\204\273\036\030`<\261\321\014\273^\316\335\272]\321+\273u\205{\272\314(\302\273\032\340\242\273\021\317.\273\334\265\002<\017\242!\273\306\205}<\242\366\246\272c\342\212\272\004J\031\273\324\r\'\273\227\320\216\273P\344\227\2730\223\375\272F\302\271;\274|\372\272f\314k<m\031\004\272V\244\315\271m|\271\2724\235\215\272\331xJ\273\364\351)\273\245\305\204\272\200y\367:\374\"f\272V\266\024<\033\310\242\267u\366\371\266\304\365\364\270\372\324\201\267\013=\006\271\234\024.\266\024\227<\270\374\002@\271\301\225,\270r\210\022:v:\340\267\323I\n\267\240\316\262\267\237\252\325\270\346\037\201\271!\034\026\270o|\212\270\356\320\325\271h\226\250\2671\345t:\002^\016\266\263\232/\265\202\016\343\265H\251\007\267\276\367\243\267\240\235>\266\366\332\257\266\233\301\007\270S\024\326\2653}\2338\000\000\000\000\000\000\000\000\000\000\000\000\000\000\000\000\000\000\000\000\000\000\000\000\000\000\000\000\000\000\000\000\000\000\000\000\000\000\000\000\000\000\000\000\000\000\000\000\000\000\000\000\000\000\000\000\000\000\000\000\000\000\000\000\000\000\000\000\000\000\000\000\000\000\000\000\000\000\000\000\000\000\000\000\000\000\000\000\000\000\000\000\000\000\000\000\000\000\000\000\000\000\000\000\000\000\000\000\000\000\000\000\000\000\000\000\000\000\000\000\000\000\000\000\000\000\000\000\000\000\000\000\000\000\000\000\000\000\000\000\000\000\000\000\000\000\000\000\000\000\000\000\000\000\000\000\000\000\000\000\000\000\000\000\000\000\000\000\000\000\000\000\000\000\000\000\000\000\000\000\000\000\000\000\000\000\000\000\000\000\000\000\000\000\000\000\000\000\000\000\000\000\000\000\000\000\000\000\000\000\000\000\000\000\000\000\000\000\000\000\000\000\000\000\000\000\000\000\000\000\000\000\000\000\000\000\000\000\000\000\000\000\000\000\000\000\000\000\000\000\000\000\000\000\000\000\000\000\000\000\000\000\000\000\000\000\000\000\000\000\000\000\000\000\000\000\000\000\000\000\000\000\000\000\000\000\000\000\000\000\000\000\000\000\000\000\000\000\000\000\000\000\000\000\000\000\000\000\000\000\000\000\000\000\000\000\000\000\000\000\000\000\000\000\000\000\000\000\000\000\000\000\000\000\000\000\000\000\000\000\000\000\000\000\000\000\000\000\000\000\000\000\000\000\000\000\000\000\000\000\000\000\000\000\000\000\000\000\000\000\000\000\000\000\000\000\000\000\000\000\000\000\000\000\000\000\000\000\000\000\000\000\000\000\000\000\000\000\000\000\000\000\000\000\000\000\000\000\000\000\000\000\000\000\000\000\000\000\000\000\000\000\000\000\000\000\000\000\000\000\000\000\000\000\000\000\000\000\000\000\000\000\000\000\000\000\000\000\000\000\000\000\000\000\000\000\000\000\000\000\000\000\000\000\000\000\000\000\000\000\000\000\000\000\000\000\000\000\000\000\000\000\000\000\000\000\000\000\000\000\000\000\000\000\000\000\000\000\000\000\000\000\000\000\000\000\000\000\000\000\000\000\000\000\000\000\000\000\000\000\037\344\273\267\206\t\237\267\215\345\254\270\206Ua\267\"\021\273\267_J\213\267\266K\245\267Z\014\000: \032\224\270\227\311h\271\t\302\221\267\247\277v\267< \206\270\374\315.\267\\\036\221\267\201\034X\267\274:\200\2676\253\3069W\310e\270.\2264\271\030\247\000\270\243\342\002\2674w\031\267\252\034\033\270=/\032\270b \"\265\017\004}\267%YV9\234\005\320\267\301\2162\270X_[\271\"\nO\270\333St\270\362\307L\271ZZ\226\271P*\324\266\356\367\307\270\354\254\262:\3520\r\271\320\362\253\271\026b\252\271\253\307\244\270\362`\310\270-\236\214\271\345\274\016\272\270\3738\270hE#\271\260\377#;Q\034K\271|\364P\272\264\026\300\271\351\207\256\270\302\327\324\2702\231\232\271\027\005$\272\375\n\000\271\365\351N\271LrN;\340\213T\271\376\217\227\272\027\237\256\272\243\004R\2715\250\203\271\021>\037\272\305\201\277\272\002\n\354\271\254j\033\272\213\356\333;{\213\323\271\3624\271\272WQ\311\272C\\l\272\340\002{\272\237\342\223\272\010\221\243\272\'\261r\272;\304\216\272\036\275\275;u\361\210\272+GG;\253\177#\272\030\356\033\272`z$\272G\216D\272vMG\272\007\335\234\272\024C+\272\177\336+;\202Z*\272`\350S;)_\020\272\3241\\\271F\374\300\271p\243\225\272\257z\202\272\322\243\322\272\206\203\314\271\240k\276;\376\320\240\271V\024}\271Pa$\272\230\205H\271\031n\260\271\247\372\236\272A6\206\272\214\030\301\272\362%\274\271\204\221\270;M\312\205\271R\035!\271A<t\270u 2\270\241Vq\270\320\2003\271qo_\271\322\200\341\272\254\024\021\271\307\270+;Ym\364\270\004\273\326\270\000\000\000\000\000\000\000\000\000\000\000\000\000\000\000\000\000\000\000\000\000\000\000\000\000\000\000\000\000\000\000\000\000\000\000\000\000\000\000\000\000\000\000\000\000\000\000\000\000\000\000\000\000\000\000\000\000\000\000\000\000\000\000\000\000\000\000\000\000\000\000\000\000\000\000\000\000\000\000\000\000\000\000\000\000\000\000\000\000\000\000\000\000\000\000\000\000\000\000\000\000\000\000\000\000\000\000\000\000\000\000\000\000\000\000\000\000\000\000\000\000\000\000\000\000\000\000\000\000\000\000\000\000\000\000\000\000\000\000\000\000\000\000\000\000\000\000\000\000\000\000\000\000\000\000\000\000\000\000\000\000\000\000\000\000\000\000\000\000\000\000\000\000\000\000\000\000\000\000\000\000\000\000\000\000\000\000\000\000\000\000\000\000\000\000\000\000\000\000\000\000\000\000\000\000\000\000\000\000\000\000\000\000\000\000\000\000\000\000\000\000\000\000\000\000\000\000\000\000\000\000\000\000\000\000\000\000\000\000\000\000\000\000\000\000\000\000\000\000\000\000\000\000\000\000\000\000\000\000\000\000\000\000\000\000\000\000\000\000\000\000\000\000\000\000\000\000\000\000\000"
      }
    }
  }
}
node {
  name: "Variable/read"
  op: "Identity"
  input: "Variable"
  attr {
    key: "T"
    value {
      type: DT_FLOAT
    }
  }
  attr {
    key: "_class"
    value {
      list {
        s: "loc:@Variable"
      }
    }
  }
}
node {
  name: "Variable_1"
  op: "Const"
  attr {
    key: "dtype"
    value {
      type: DT_FLOAT
    }
  }
  attr {
    key: "value"
    value {
      tensor {
        dtype: DT_FLOAT
        tensor_shape {
          dim {
            size: 10
          }
        }
        tensor_content: "\272\023\327\274r{\301=t\355G\274\267O\234\2742\376`<\212\236w\274r\336\213\274\350L\321<\020\320O\275\223\271\333;"
      }
    }
  }
}
node {
  name: "Variable_1/read"
  op: "Identity"
  input: "Variable_1"
  attr {
    key: "T"
    value {
