node {
  name: "input"
  op: "Placeholder"
  attr {
    key: "dtype"
    value {
      type: DT_FLOAT
    }
  }
  attr {
    key: "shape"
    value {
      shape {
        dim {
          size: -1
        }
        dim {
          size: 784
        }
      }
    }
  }
}
node {
  name: "Variable"
  op: "Const"
  attr {
    key: "dtype"
    value {
      type: DT_FLOAT
    }
  }
  attr {
    key: "value"
    value {
      tensor {
        dtype: DT_FLOAT
        tensor_shape {
          dim {
            size: 784
          }
          dim {
            size: 10
          }
        }
        tensor_content: "\000\000\000\000\000\000\000\000\000\000\000\000\000\000\000\000\000\000\000\000\000\000\000\000\000\000\000\000\000\000\000\000\000\000\000\000\000\000\000\000\000\000\000\000\000\000\000\000\000\000\000\000\000\000\000\000\000\000\000\000\000\000\000\000\000\000\000\000\000\000\000\000\000\000\000\000\000\000\000\000\000\000\000\000\000\000\000\000\000\000\000\000\000\000\000\000\000\000\000\000\000\000\000\000\000\000\000\000\000\000\000\000\000\000\000\000\000\000\000\000\000\000\000\000\000\000\000\000\000\000\000\000\000\000\000\000\000\000\000\000\000\000\000\000\000\000\000\000\000\000\000\000\000\000\000\000\000\000\000\000\000\000\000\000\000\000\000\000\000\000\000\000\000\000\000\000\000\000\000\000\000\000\000\000\000\000\000\000\000\000\000\000\000\000\000\000\000\000\000\000\000\000\000\000\000\000\000\000\000\000\000\000\000\000\000\000\000\000\000\000\000\000\000\000\000\000\000\000\000\000\000\000\000\000\000\000\000\000\000\000\000\000\000\000\000\000\000\000\000\000\000\000\000\000\000\000\000\000\000\000\000\000\000\000\000\000\000\000\000\000\000\000\000\000\000\000\000\000\000\000\000\000\000\000\000\000\000\000\000\000\000\000\000\000\000\000\000\000\000\000\000\000\000\000\000\000\000\000\000\000\000\000\000\000\000\000\000\000\000\000\000\000\000\000\000\000\000\000\000\000\000\000\000\000\000\000\000\000\000\000\000\000\000\000\000\000\000\000\000\000\000\000\000\000\000\000\000\000\000\000\000\000\000\000\000\000\000\000\000\000\000\000\000\000\000\000\000\000\000\000\000\000\000\000\000\000\000\000\000\000\000\000\000\000\000\000\000\000\000\000\000\000\000\000\000\000\000\000\000\000\000\000\000\000\000\000\000\000\000\000\000\000\000\000\000\000\000\000\000\000\000\000\000\000\000\000\000\000\000\000\000\000\000\000\000\000\000\000\000\000\000\000\000\000\000\000\000\000\000\000\000\000\000\000\000\000\000\000\000\000\000\000\000\000\000\000\000\000\000\000\000\000\000\000\000\000\000\000\000\000\000\000\000\000\000\000\000\000\000\000\000\000\000\000\000\000\000\000\000\000\000\000\000\000\000\000\000\000\000\000\000\000\000\000\000\000\000\000\000\000\000\000\000\000\000\000\000\000\000\000\000\000\000\000\000\000\000\000\000\000\000\000\000\000\000\000\000\000\000\000\000\000\000\000\000\000\000\000\000\000\000\000\000\000\000\000\000\000\000\000\000\000\000\000\000\000\000\000\000\000\000\000\000\000\000\000\000\000\000\000\000\000\000\000\000\000\000\000\000\000\000\000\000\000\000\000\000\000\000\000\000\000\000\000\000\000\000\000\000\000\000\000\000\000\000\000\000\000\000\000\000\000\000\000\000\000\000\000\000\000\000\000\000\000\000\000\000\000\000\000\000\000\000\000\000\000\000\000\000\000\000\000\000\000\000\000\000\000\000\000\000\000\000\000\000\000\000\000\000\000\000\000\000\000\000\000\000\000\000\000\000\000\000\000\000\000\000\000\000\000\000\000\000\000\000\000\000\000\000\000\000\000\000\000\000\000\000\000\000\000\000\000\000\000\000\000\000\000\000\000\000\000\000\000\000\000\000\000\000\000\000\000\000\000\000\000\000\000\000\000\000\000\000\000\000\000\000\000\000\000\000\000\000\000\000\000\000\000\000\000\000\000\000\000\000\000\000\000\000\000\000\000\000\000\000\000\000\000\000\000\000\000\000\000\000\000\000\000\000\000\000\000\000\000\000\000\000\000\000\000\000\000\000\000\000\000\000\000\000\000\000\000\000\000\000\000\000\000\000\000\000\000\000\000\000\000\000\000\000\000\000\000\000\000\000\000\000\000\000\000\000\000\000\000\000\000\000\000\000\000\000\000\000\000\000\000\000\000\000\000\000\000\000\000\000\000\000\000\000\000\000\000\000\000\000\000\000\000\000\000\000\000\000\000\000\000\000\000\000\000\000\000\000\000\000\000\000\000\000\000\000\000\000\000\000\000\000\000\000\000\000\000\000\000\000\000\000\000\000\000\000\000\000\000\000\000\000\000\000\000\000\000\000\000\000\000\000\000\000\000\000\000\000\000\000\000\000\000\000\000\000\000\000\000\000\000\000\000\000\000\000\000\000\000\000\000\000\000\000\000\000\000\000\000\000\000\000\000\000\000\000\000\000\000\000\000\000\000\000\000\000\000\000\000\000\000\000\000\000\000\000\000\000\000\000\000\000\000\000\000\000\000\000\000\000\000\000\000\000\000\000\000\000\000\000\000\000\000\000\000\000\000\000\000\000\000\000\000\000\000\000\000\000\000\000\000\000\000\000\000\000\000\000\000\000\000\000\000\000\000\000\000\000\000\000\000\000\000\000\000\000\000\000\000\000\000\000\000\000\000\000\000\000\000\000\000\000\000\000\000\000\000\000\000\000\000\000\000\000\000\000\000\000\000\000\000\000\000\000\000\000\000\000\000\000\000\000\000\000\000\000\000\000\000\000\000\000\000\000\000\000\000\000\000\000\000\000\000\000\000\000\000\000\000\000\000\000\000\000\000\000\000\000\000\000\000\000\000\000\000\000\000\000\000\000\000\000\000\000\000\000\000\000\000\000\000\000\000\000\000\000\000\000\000\000\000\000\000\000\000\000\000\000\000\000\000\000\000\000\000\000\000\000\000\000\000\000\000\000\000\000\000\000\000\000\000\000\000\000\000\000\000\000\000\000\000\000\000\000\000\000\000\000\000\000\000\000\000\000\000\000\000\000\000\000\000\000\000\000\000\000\000\000\000\000\000\000\000\000\000\000\000\000\000\000\000\000\000\000\000\000\000\000\000\000\000\000\000\000\000\000\000\000\000\000\000\000\000\000\000\000\000\000\000\000\000\000\000\000\000\000\000\000\000\000\000\000\000\000\000\000\000\000\000\000\000\000\000\000\000\000\000\000\000\000\000\000\000\000\000\000\000\000\000\000\000\000\000\000\000\000\000\000\000\000\000\000\000\000\000\000\000\000\000\000\000\000\000\000\000\000\000\000\000\000\000\000\000\000\000\000\000\000\000\000\000\000\000\000\000\000\000\000\000\000\000\000\000\000\000\000\000\000\000\000\000\000\000\000\000\000\000\000\000\000\000\000\000\000\000\000\000\000\000\000\000\000\000\000\000\000\000\000\000\000\000\000\000\000\000\000\000\000\000\000\000\000\000\000\000\000\000\000\000\000\000\000\000\000\000\000\000\000\000\000\000\000\000\000\000y1\272\271(i+\270\314\3664\272d\245o\270\262\311\210\272\005li\270\220\rM;\246\371\277\271\351#8\271\274\213\264\271\033\n\312\271\270\3779\270\200]D\272N\005\202\270\354m\224\272\242I}\270\031\201^;AP\320\271\320\317G\271S\351\303\271\267^\023\271w\253\207\267*;\217\271c\255\275\267D\210\330\271@\300\270\267\030L\242:B\362\027\271\274\276\221\270m\346\016\271\000\000\000\000\000\000\000\000\000\000\000\000\000\000\000\000\000\000\000\000\000\000\000\000\000\000\000\000\000\000\000\000\000\000\000\000\000\000\000\000\243\307x\271\243\307x\271\243\307x\271\243\307x\271\243\307x\271\243\307x\271K\360\013;\243\307x\271\243\307x\271\243\307x\271\331\216\002\272\331\216\002\272\331\216\002\272\331\216\002\272\331\216\002\272\331\216\002\272\264\340\222;\331\216\002\272\331\216\002\272\331\216\002\272M\351\330\271M\351\330\271M\351\330\271M\351\330\271M\351\330\271M\351\330\271v\006t;M\351\330\271M\351\330\271M\351\330\271\235\314\324\271\235\314\324\271\235\314\324\271\235\314\324\271\235\314\324\271\235\314\324\2710fo;\235\314\324\271\235\314\324\271\235\314\324\271\000\000\000\000\000\000\000\000\000\000\000\000\000\000\000\000\000\000\000\000\000\000\000\000\000\000\000\000\000\000\000\000\000\000\000\000\000\000\000\000\232\212>\270\210\354i\270\n\224\005\271h\212C\267O4\216\270\234\205\232\270M&q:3\322\217\270_\260\216\267SI\355\271Gl\031\271\267Z<\271\362\034\327\271\305r\035\270\037\001e\271*\327x\271#,B;\245\233g\271\352\310e\270\322\017\277\272\000\000\000\000\000\000\000\000\000\000\000\000\000\000\000\000\000\000\000\000\000\000\000\000\000\000\000\000\000\000\000\000\000\000\000\000\000\000\000\000\000\000\000\000\000\000\000\000\000\000\000\000\000\000\000\000\000\000\000\000\000\000\000\000\000\000\000\000\000\000\000\000\000\000\000\000\000\000\000\000\000\000\000\000\000\000\000\000\000\000\000\000\000\000\000\000\000\000\000\000\000\000\000\000\000\000\000\000\000\000\000\000\000\000\000\000\000\000\000\000\000\000\000\000\000\000\000\000\000\000\000\000\000\000\000\000\000\000\000\000\000\000\000\000\000\000\000\000\000\000\000\000\000\000\000\000\000\000\000\000\000\000\000\000\000\000\000\000\000\000\000\000\000\000\000\000\000\000\000\000\000\000\000\000\000\000\000\000\000\000\000\000\000\000\000\000\000\000\000\000\000\000\000\000\000\000\000\000\000\000\000\000\000\000\000\000\000\000\000\000\000\000\000\000\000\000\000\000\000\000\000\000\000\000\000\000\000\000\000\000\000\000\000\000\000\000\000\000\000\000\000\000\000\000\000\000\000\000\000\000\000\000\000\000\000\000\000\000\000\000\000\000\000\000\000\000\000\000\000\000\000\000\000\000\000\000\000\000\000\000\000\000\000\000\000\000\000\000\000\000\000\000\000\000\000\000\000\000\000\000\000\000\000\000\000\000\000\000\000\000\000\000\000\000\000\000\000\000\000\000\000\000\000\000\000\000\000\000\000\000\000\000\000\000\000\000\000\000\000\000\000\000\000\000\000\000\000\000\000\000\000\000\000\000\000\000\000\000\000\000\000\000\000\000\000\000\000\000\000\000\000\000\000\000\000\000\000\000\000\000\000\000\000\000\000\000\000\000\000\000\000\000\000\000\000\000\000\000\000\000\000\000\000\000\000\000\000\000\000\000\000\000\000\000\000\000\000\000\000\000\000\000\000\000\000\000\000\000\000\000\000\000\000\000\000\000\000\000\000\000\000\000\000\000\000\000\000\000\000\000\000\000\000\000\000\000\000\000\000\000\000\000\000\000\000\000\000\000\000\000\000\000\000\000\000\000\000\000\000\000\000\000\000\000\000\000\000\000\000\000\000\000\000\000\000\000\000\000\000\000\000\000\000\000\000\000\000\000\000\000\000\000\000\000\000\000\000\000\000\000\000\000\000\000\000\000\000\000\000\000\000\000\000\000\000\000\000\000\000\000\000\000\000\000\000\000\000\000\000\000\000\000\000\000\000\000\000\000\000\000\000\000\000\000\000\000\000\000\000\000\000\000\000\000\000\000\000\000\000\000\000\000\000\000\000\000\000\000\000\000\000\000\000\000\000\000\000\000\000\000\000\000\000\000\000\000\000\000\000\000\000\000\000\000\000\000\000\000\000\000\000\000\000\000\000\000\000\000\000\000\000\000\000\000\000\000\000\000\000\000\000\000\000\000\000\000\000\000\000\000\000\000\000\000\000\000\000\000\000\000\000\000\000\000\000\000\000\000\000\000\024\177$\272\260\336\327\270\"\315\263\272\242L\352\270 M\302\272\203\2143\271x#\247;}\024\010\272\037\254X\271\027\000\005\272Tt\314\272\205\277\223\271\345\345K\273\0100\322\271(\240 \273\027w\027\272\037\3733<\375\020|\272\202\307\025\272\3344\214\272T\333E\273\014\3178\272em\223\273G\272\244\272V\225G\273x\225\324\272\340\213\245<\351\263\307\272n\333\343\2728p7\273\"\3336\273\3578W\272\023\365\217\273\243\222\327\272\2323\301\273\222h\344\272\202\335\310<\222b\005\273KX\004\273\3468P\273\222\312T\273\215y\237:}\271\205\273\302\247\201\273\004l\322\273\325\3775\273\351\220\351<\212D*\273\246jZ\273\364/Y\273\355\350\302\273\213\321\272:\253\252\'\273\312\260\247\273<\371\305\273[\233a\273\273\315\016=\026\254N\273\357\367\251\273J\236\236\273*$\366\273\241\260\'\273\326Sb\272\343b\265\273\211\004\304\273\354\241\356\270\216\304\032=\330\257t\273\361\363\315\273\251o\252\273!\374\341\273 \355X\273U;\177\273\221\227\263\273\256\236\303\273\024\266\037:\256\177%=\263\030z\273m\333\340\273\332\305\234\273\372\216\262\273\374\026(\273Q\261\231\273\376\000h\273,M\217\273\310YF:\214#\002=\"\222M\273\0230\243\273\013\252x\273\260i-\273\341\371*\273\374\'\226\273W\302@\273\010Vr\273Z\341$\273^4\353<W\357\020\273&\270y\273-Nr\273\333\203\270\272M\377\014\273\240\341k\273\274\213\013\273.q\'\273\023\315\334\272\332G\243<\362\305\260\272\3006\033\273\313\0360\273\266n?\272\203\341H\272M\373{\272\212\026\213\272w$?\272f\266D\272\214\322\360;y\3424\272\326\223w\272\241\312;\272\030\365P\272\033\332P\272V\333Q\272[`S\272\\d,;8\373P\272\312\202v;\364\246P\2727\037R\272Q\320P\272B\216\360\271B\216\360\271B\216\360\271B\216\360\271\255:R;B\216\360\271\226\234\3629B\216\360\271B\216\360\271B\216\360\271\336\205\201\2674AM\267\253\316\3159\\P\024\267$\335\235\267\236x\021\270\346\000^\271\330\225\260\266\253\363\244\270kI\347\266\263\350\030\271\207P\362\270\211\367r;\301\027\257\270\364]:\271\235\274\253\2712\013\003\273\002xP\270\033\274B\272\000\206\210\270\331\341\305\270\262\312\234\270\3026\035;6\227b\270K.\361\270b?^\271\005\226\251\272>\344\006\270~\002\374\271j\2550\270\000\000\000\000\000\000\000\000\000\000\000\000\000\000\000\000\000\000\000\000\000\000\000\000\000\000\000\000\000\000\000\000\000\000\000\000\000\000\000\000\000\000\000\000\000\000\000\000\000\000\000\000\000\000\000\000\000\000\000\000\000\000\000\000\000\000\000\000\000\000\000\000\000\000\000\000\000\000\000\000\000\000\000\000\000\000\000\000\000\000\000\000\000\000\000\000\000\000\000\000\000\000\000\000\000\000\000\000\000\000\000\000\000\000\000\000\000\000\000\000\000\000\000\000\000\000\000\000\000\000\000\000\000\000\000\000\000\000\000\000\000\000\000\000\000\000\000\000\000\000\000\000\000\000\000\000\000\000\000\000\000\000\000\000\000\000\000\000\000\000\000\000\000\000\000\000\000\000\000\000\000\000\000\000\000\000\000\000\000\000\000\000\000\000\000\000\000\000\000\000\000\000\000\000\000\000\000\000\000\000\000\000\000\000\000\000\000\000\000\000\000\000\000\000\000\000\000\000\000\000\000\000\000\000\000\000\000\000\000\000s\'\320\266W\2760\267\024d.93\343N\267\220\351\234\266\225V\312\266\325\213\246\270~\013\224\267-\215\316\265ER\352\267\314\022\235\270\245^\277\270\236\341\301:bR\204\271\030Oz\270\t9\216\270^\261\030\272Z\375\347\270\351\247\235\270\013\347,\271\356K\265\271W\2512\272\221\374\302;q\363\250\272I\310\227\271\266+\240\271\302C\363\272\2264\231\271\315d\000\272v[\322\271=\321\360\271\370\017\230\272\2238\375;c\016\317\272\350s\374\271\002\266\320\271\343\317\010\273\206\215\311\271\2042,\272\203Q\010\272t\375\245\272\331\002\002\273\340\263\032<}U0\272\020@1\273\0066\202\272\314e\360:5>\214\272\215\'\254\272\n\273\246\272\022Qb\273\316\347\305\273\037\240\247<\034\030\336:N}\242\273\353\332I\273G\036\240;\201\355-\273\005]V\273\336\010k\273\373\022\252\273{\003\353\273\242C\254<\304\310\235;4\n\272\273\276\364\226\273_e4<\316\316w\273]\253\244\273\346\371\260\273\271\365\373\273</*\274\215\016\250<V\247\370;%\231!\274\364\324\354\273\277-\367<\302\361\261\273Qg\035\274]>\004\2746\344\013\2743H8\274\333i\271<\231wa;\247\026\202\274\233 \022\274_hH=\r%\345\273A\035a\274\377\250\036\274R\356 \274({\356\273\r\201\243<vS\325:\320H\243\274\217-7\274<J\203=\021L\014\274\202\001\216\274?\304=\274\346\352M\274V\264\255\273|!\216<(\016/\273\237\314\222\274!C\025\274\366\\\215=R\263\014\274k\315\231\274\202w;\274\254\316Q\274 \037\020\274\247\275\\<\031\221\371\273R\225b\274\204\307\247\273\315\246\236=,p\017\2743\242\267\274\t\020>\274\224\361Q\274\231 \'\274\254\316/<\271\0342\274\376\312\026\274R/\267\273u\037\227=C\252\005\274l\t\214\274\255{-\274\274W(\2748\267\026\274\267\247k<\206\277\031\274\221\3432\274\372\343\033\274\271\'\203=\351\250\337\273\225.W\274mL\026\274^o\341\273a\017\t\274\226<\010<j*\t\274\2736*\274\216\037?\274\331\343\204=\021\377\320\273zv@\274\231\035\032\274<\331\340\273\352I\257\273\373t\206:[\032\300\273;d\363\273\310w\376\273B\302X=\215\230\242\273J\200\004\274\245\374\371\2738Ox\273\302\216\203\273\277\376\326\272\367\346l\273\307,\364\2720!*\273&\312\355<H\357I\273\033E\212\273\212\346\211\273\273J\352\272\025\301:\273$\321u\273\304sP\273\033{\022;\004\374w:3H\213<\210\350\032\273-[8\273\254La\273i\013\245\272l0\330\272\3437\347\272\000\232\335\272\312\353\220:/\353z;\305\325\302;\360b\250\272\022\276\265\272\210\352\361\272\244t\371\271(\001\263\272\251\340\365\271\315\271P\272\366\035B\272\264\303G;:\220?;Y\276+\272\360\333\276\271S\317\220\272\303|\005\272]Y\254\272;\356@;\253nD\272\313\255I\272\375)\016;(\262Z:V&\"\272\314&y\272\373\274\207\272\325\256\304\270n\327\233\270\327B\034;\2477a\270\031\270\357\270\220\346\\\271\347\216\250\272\365\022\006\270\177{\372\271L\233/\270\000\000\000\000\000\000\000\000\000\000\000\000\000\000\000\000\000\000\000\000\000\000\000\000\000\000\000\000\000\000\000\000\000\000\000\000\000\000\000\000\000\000\000\000\000\000\000\000\000\000\000\000\000\000\000\000\000\000\000\000\000\000\000\000\000\000\000\000\000\000\000\000\000\000\000\000\000\000\000\000\000\000\000\000\000\000\000\000\000\000\000\000\000\000\000\000\000\000\000\000\000\000\000\000\000\000\000\000\000\000\000\000\000\000\000\000\000\000\000\000\000\000\000\000\000\000\000\000\000\000\000\000\000\000\000\000\000\000\000\000\000\000\000\000\000\000\000\000\000\000\000\000\000\000\000\000\000\000\000\000\000\000\000\000\000\000\000\000\000\000\000\000\000\000\000\000\000\000\000\000\000\000\000\000\000\000\000\000\000\000\000\000\000\000\000\000\000\000\000\000r\013\263\270\251\317\272\270\313^\356\270\n\014k:2]\325\270\252\223\275\2702\210\027\271\264\007\230\270c\320\377\270\026M\242\270wk\371\271E\001\t\272\330\306\003;h\013Z;C\004\002\272yk\351\271&/\317\272[\020\001\272\334\3145\272}\234%\272=\006\255\271\271\247H\2721\023\323;\242\212\271:#\030\232\271b\014E\272\267Z:\273\031\320,\272\274D\240\272\211\323\201\272H\026\032;\315\346V\273oK7<\364>d;\354\371$\272)\235\013\273\030\005\247\273%\323\271\272eu\017\273^W\025\273V\346]\272\021\272\241\273\n\023f<\'\273a<Z\323E\273\257rx\2731\336\250\273\317\245D\273\364~u\273\344#Z\2731F\023\273Y\327\000\274\271q\243<\367\030\242<\221\017\335\273\247\027\004\274^]\036\273\016\000\256\2730\237\t\272r7\327\273zF\346\273z;{\274A\236\033=T;\331<\307@\027\274\224ba\274\014\037H\273\315\346\360\273\250\036\003;\030:0\274\374\234\027\274\030g\237\274\177PI=\035\225\337<\311\246K\274@\224\210\274\251\'\006<bz\033\274\000\n\'\273\222\034r\274\250\220\005\274\020\316-\274Llg=\315\010\344<\370\221\251\274\206=\277\274\371\365\362<\025\227T\274\221\257\230\274h]\240\274\222f\355\273\206@\201\273=\200\204=(\262\352<\000V\375\274H\320\371\274>\225[=\006\310\230\274_\267\353\274)\216\334\274_K\262;W\304\212<rHx=0\351\003=\006\0161\275\242\010\020\275rz\204=NX\342\274\213\014\031\275\306\202\025\275\205].;\311N\200<Jj\224=\251B\376<1*&\275\255\263\334\274\311\230R=\r\363\367\274a\253\025\275\377r\037\275\340\361\006\274\001$\232<k \215=F\205\347<\030\347\344\274\260\350\315\274\335\335W=\006\374\003\275p\355\376\274B\\4\275\350g\342\271~*K<\367a\213=y.S<\323J\265\274\n\323\372\274 ~p=\270A\365\274[N\272\274\203<=\275\332z\364:\0146\253;\034\322h=j9e;2U\252\274Rm\363\274/\357\205=\232\353\307\274\225E\215\274\321\224&\2750\335\254\273\264\010{<\251\217\'=\336\200\257\273\315\363z\274]\244r\274\016\346v=\271\213\256\274j\361\235\274\210\007\020\275\336\234>\274\020A$<L\336\266<\3675\252\273\336\230\335:X\246\250\273.iL=T6\206\274\217\017\220\274[_\345\274\327\310(\274Q\320=<\314wv\273S\231\276\273\"7\215<\300\\\335;Bv\365<U\332<\274\352\206v\274db\234\274t\315\032\274\250y\003<\357\332y\274\232\306\363\273\254m\223<\213\343\251<\235\256\234<\325\220\004\274\226?9\274>\035k\274\246k\021\274\203\214\020\273~\367\t\274v\217\002\274\302\024G<3\357\260<\260\016\021<B\362\261\273\323A\224\272\304j\014\274\307\360\260\273\2609]\273\245X|\273\246\244\314\273r\030\313\271a\350\235<5\233#;\30647\273\327\254\225;uq\214\273U\274A\273j\311\036\273\210\n\307:?w3\273V\377\202:\"\222#<qh\226\272\351\216\324\272\251\355\225:\240\3134\273z\253\000\272+;)\2729\207\003;$\304\335\271\342#\370\271?\261%;^%d\272\333\371\233\271\360\252h\272\364s\352\271\242\010t\271\217\036\210\271\035\307p\271\004d\231\271\r\274\023\271\241%\210:}2\201:\220\236\303\270\0025,\272^\031\371\270\303p\325\270\330\250o\271N\0343\271\206?\002\271\214\245{\270rf\275\270^\315\223:N6^\270\032\366n\271/\033\225\270\000\000\000\000\000\000\000\000\000\000\000\000\000\000\000\000\000\000\000\000\000\000\000\000\000\000\000\000\000\000\000\000\000\000\000\000\000\000\000\000\000\000\000\000\000\000\000\000\000\000\000\000\000\000\000\000\000\000\000\000\000\000\000\000\000\000\000\000\000\000\000\000\000\000\000\000\000\000\000\000\000\000\000\000\000\000\000\000\000\000\000\000\000\000\000\000\000\000\000\000\000\000\000\000\000\000\000\000\000\000\000\000\000\000\000\000\000\000\000\000\000\000\000\000\000\000\000\000\000\000\000\000\000\000\000\000\000\000\000\000\000\000\000\000\000\000\000\000\000\000\000\000\000\000\000\000\000\000\000\000\246K\317\271\345%\337\271QW\213;X\256\014:\316\r\206\271:\332\371\271\004\"\334\272<\343\264\271\215\3616\272\337\224\006\272p\217\231\272\340}\247\272\024\324\215;\006a\201;\356\323R;&\346\363\272\326\340=\273\037.\220\272\265,\230\272\'\266\004\273\323nD\273/\314\261\273\333\231+<o\344\232<bb\332;w\370\323\273\034H\t\274\340\236\213\273,O\326\272\336h\341\273<\010\2649\264K(\274\001\224\204<\033\273\341<o\316\212\273\342\366\353\273\227\232\025\274\230\237\005\273\206\255X\273@b\001\274\2543\020\273-\310x\274\013\234\362<\231\342\345<\206\003%\274\230m\245\273\024\324\000\274\260\220\253\273\200\\k:8\207T\274e=\023\274\035o\325\274\300LJ=wo^=\312\035\216\274X\334T\274\230$\227\273W\350>\274\230d6\2722\356\256\274\002\r5\274z+\014\275\255g\210=\226\366\223=0\201\275\274na\232\274f\000\341;\255\334\232\274\020\274#\274c>\362\274t\013\216:K\"\306\274\215\356\226=b\342\202=#\005\326\274\336\345\337\274W\227u<\270\210\363\274\ra\256\273\360\340\'\275\212\342\014<]\3137\274\256\352\222=\246\355y=\332t0\275\261\313\317\274^%\350<\345r0\275\246\316\014<\216\201c\275G\340|<>td;\235\352\251=\344\025\224=\232.v\275\2702\236\2744\021\271;_\207V\2758K\222<d\374\206\275`\232P<3\327\224<\334\254\311=b_\216=\013\312\216\275\n\335\301\274\0242\355:l}}\275\306\275\003=\377\350\236\275pK\032<\377\275\277<A?\310=\242\005\'=\210Tk\275\201c^\274\307\356\342;k\341\214\275\330Kf=\270\367\301\275\202\317\265<\375dB<\212\327\230=9x\033=\016\211-\275\340\233\267\274\377\311\264<\360\366\213\275\271\372\204=\360\336\315\275q!\304<6\017}<\006{p=\262\254\341<\231b\022\275\333\315R\274\020\216N<\221\027t\275\207\334|=\'\374\273\275G\257\250<\362|\306<4\226\355<\016-w<\276\360\353\273N\317\325;\217}\037<)\315A\275\251m\002=\032\364\250\275\006\252\326;\006\340\241<*\275\316<\276\253\306;7\343\265<q%\326<\270\267\346\272\327\212\024\275\230\316\335:\302\225\216\275\232\212\340\273\300\304/<\315\240\224;^\216x;\264\020\373<l\200@=`\240p\273y\300\362\274\241\321\363\273,!I\275\024\205\315\273\244\234\363;\360\336\204\274\255+\374\273\360\003\270<}\341\203=\340\364:\272\322\036\217\274\322\237i\274\304\257\001\275\205X\004\274\241V\225\273\3449w\274j5\026\274\205\254\230<\255\n\200=\334\311\375\272)C8\274\036\270&\274hC\253\274\'f!\274\271-\336\273[f-\2746S,\274\263\317Q<&\243A=\301\301X\273\340\326\373\273\014\363\247\271D\3124\274r\223\303\2731\375T\273\037(+\273\216\306\266\273\274\305\020<\r\265\237<\000\010\336\272\302oc\273\320\235\263\271F\177\261\273F\257\030\273t\266\316\272\300_w\271p\267\356\272k\272\211\272\2143\n<\2174\030;\323\346p\272<\340\270\272\014?\271\272\254\327\236\272J\220\203\272C\261j\272c\212V\272\024\270\003\272\314o};\010\246a;\354\035\302\271fU\367\272\351\331\"\272\025\212\035\271=\344\260\271^3\204\271dE@\271<\275\271\270\235\313\013\271(/\332:\202\003\244\270O`\260\271\360\033\334\270\000\000\000\000\000\000\000\000\000\000\000\000\000\000\000\000\000\000\000\000\000\000\000\000\000\000\000\000\000\000\000\000\000\000\000\000\000\000\000\000\000\000\000\000\000\000\000\000\000\000\000\000\000\000\000\000\000\000\000\000\000\000\000\000\000\000\000\000\000\000\000\000\000\000\000\000\000\000\000\000\000\000\000\000\000\000\000\000\000\000\000\000\000\000\000\000\000\000\000\000\000\000\000\000\000\000\000\000\000\000\000\000\000\000\000\000\000\000\000\000\202H\216\270\376\'\270\270j\271\210\270\313\227I:\205?M\267UN\317\271\306\314\214\270\022W\371\267/(\233\267g\032\323\267\304\254\233\272\014P\215\272o\374f;\005\257\310;\021)\217\272\317\346\023\273\306\321\027\273fl\323:\260f\022\273\361\274\217\272\3772p\273\266pG\273\271p\277;\354\";<\201\252\367;K\254\220\273\201\223\313\273{\243\221:\346\346\214\273f\321\214\273\343\"\241\273\310\277\352\273\325\255\211<\255\311\247<o!(<\377\247\355\273\230\034<\274p#O7\372i\031\274\252\360\361\273\325\003?\273\245\034f\274\247\021\326<\270\274\324<].~;O\220T\273@\312N\274\3679\266\272v\372\352\273\355\027o\274\345\344\341\273\360\254\304\274\177`\036=\3118\024=\247\234!\274\214\020\345\271\370bF\274\375\226\276\273R^j;b\036\236\274\327XF\273\340\202\014\275\205\342Q=\330\366w=\300\245X\274iTW\274q:\342\273\256\340x\274\020\266/:\204c\332\274\300\315\261\273\300\2538\275z\361f=f]\226=\322\035\215\274\240\261\032\273\322\367\003\274V\006\255\274`\361\000\272\302\017\366\274\206\235\225\273\276\347.\2756\354\205=\336/\232=\020;\222\274[\376\000\274#\374\344\273G\001\006\275\"v\307<\335YV\275\006\276\264\273\000\200\345\274=\250\202=\371<\244=\374)\024\275\tld<\006\016\260\272\257\215N\275\275\024\334<\370\257\201\275\027,\277;n\273q\274\347\257n=\361t\247=\311\267\204\275^ \r=L|Y\274J\312u\275\244H\303<4<R\275\362Q^<\300Z\321;m\333R=\277\"\223=\275\"\330\275&$\017=\354\256<\274\215\227\210\275c\340\r=\001\212\356\274\007\252\245<\350\344\241<z\304^=\306\032t=\326$\322\275B\253o<\244MM\2748\302\225\275\031\2553=A:\306\274\244\351\036=\3003\327;\275\211\033=\026\003U=\363\317\250\275\240[\027:\\\256\346\274\261C\210\275\230\253q=\006\317\221\274\210\2176=\256\026\007<\345\340\324<(\024e=\321\206\207\275x\272\331;H\2449\275?\356l\275^\306G=\267n\252\274\252,\037=\340\316\207:\t:\240<&3\014=\300\327\220\274\"\366\265<\3735S\275\214\301U\275%\033:=\033n#\275~\267\n=\260\251\346\271\212\034o<\204\342}<O\245\226<\261*\034=\345tl\275\004\004?\275]Q\033=\271\177[\275\366Fa<\243\357E\274\220z\236<\223\232&<\031\302\320<\254\303k=,\200$\275\035\214\024\275e\207J<\016tM\275\004\240l:\372Jb\2747\201\014\274\014nJ\273~;\217<\256\266\237=\275\250\272\274\305\362\273\274\363\344\204;\027e\357\274\262Ld\272\271\226u\274\023\354\234\274\372\004E\274B\013\262<\324o\257=\361m\\\274\323\\Z\274\001\335\241\273\236\221\352\274kD\365\273\346\'\023\274x\354d\274\204\3654\274\'$\003<\333@\220=#\234\217\273#\347\231\273\013=\017\274!\300\234\274M\310\305\273K\026\225\273{\235\346\273\233\265\316\273G\350r;\234\253\021=\217\255t\273\360=V\272\366\016\300\272\207\276\030\274\025w0\273\024\022\266\272=U\351\272W\307\204\273\244z\330\272\024ZV<\316Z\366\272\332\332\221\272\207\n\201;\325k!\273\364f\341\271m`\257\271\3135\363\271\0176P\272\247\222\365\271\364]*9xZ*\272\371\372\223\271\"Hk;>\304\254\271\000\000\000\000\000\000\000\000\000\000\000\000\000\000\000\000\000\000\000\000\000\000\000\000\000\000\000\000\000\000\000\000\000\000\000\000\000\000\000\000\000\000\000\000\000\000\000\000\000\000\000\000\000\000\000\000\000\000\000\000\000\000\000\000\000\000\000\000\000\000\000\000\000\000\000\000\000\000\000\000\000\000\000\000\000\000\000\000\000\000\000\000\000\000\000\000\000\000\000\000\000\000\000\000\000\000\000\000\000\000\000\000\000\000\000\000\000\000\000\000\000\000\000\000\000\000\000\000\000\000\000\000\000\000\000\000\000\000\000\000\000\000\000\000\000\000\000\000\000\000\000\000\000\000\000\000\000\000\000\000\254\310\257\271\020\305\210\271m3\234\271/\301Q;zK\323\271\366\325S\272\325\241\036\272TL\2778\244\304\252\271\254\033\206\271\352\240\n\273\035\013\321\272\360\353\3268\320,^<\002\001\016\273\217\312A\273\303\244!\273\254pf;\214\343\207\273\304\372\342\272\356\311\234\273\250Y\243\273j\320\225;!v\234<Z\215\010<t\233\274\273\0179\004\274\334\207\r<\007\363\005\274\023^\021\274\277\225\r\274\320HB\274$\226\267<\203\342\306<\010&\023<O\317*\273x\245w\2742J\202<h?u\274>\232\226\274\035w\317\273\334D\230\274\006\305\007=\366\331`<\304\010\n:\366\335Y;=\362\213\274\225\270\206<&\261\367\273z:\220\274\327\357\023\274\267m\360\274\253?\017=-\313\340<\004\375W\274>\010\240;\344\324D\27427\245<8r\257\273\236\330\227\274`u\323\272M\303)\275\204\203\341<\023I\000=\366#^\274\212\000\237;ta5\274\264\226\246<\020\323\355;\234`\301\274hh:\273\202\356v\275\317{\277<6\0337=\370h\361\272\232\237\317;p\333n\274\021\252n<\204\245\317<*s\016\275\256\372~\273\0003w\275\001\027\254<Q\2647=\322M\233\274\277}\201<\030\237\216\273\242k\007<\\\311\333<\252A\357\274v\242a;\331\3632\275nc\220<y\3772=\247\021b\275jo\323<\247f\023\274`\323k;\305J#<@\303t;d\034\020;\023\026\340\274\323~/<\341\023\004=[E\333\275\003\014-=\272!\365\273\334\020\246\272\2714\032<\361\333==W\200\252<\000\255\302;\266\023g<\242\325\361<E\262\024\276\314\310\365<\375\242x\274\347\354\254\273\000\231a\272\362u\207=JEs<\377\025\003=\315\300\271;\332\325\026=\222&\007\276(!\242<\230\033\350\274\024\247f\274%\307\270\273j2\221=\000m\257<\317\364\250<\336\274\336\273\372\323b=\020\235\326\275\206o\035<z4j\275\022W\371\273\344\337\232\273$\266\227=wT\335<v\377\305;`L\013:\225\273?=\230\343\245\275\300D\010<\025F\232\275\334Y\003<\000\242\0357\342\016t=\333\350&=\327b\001\274\300\254\200<\204\010\273<\335\211\010\275b,\252<2b\302\275\2564\262<4\225\364;0\002\341;e\307,=\261\350\337\274l\372\221<_\260\000=\224}&<\023r\007=\014\224\300\275Nu\200;\346\304\211< [\013\275\227Z\364<\252\236\370\274\374\304l<\262\244\272<\026\213x<\254\341+=N*\207\275\022]\027\273T~\035<0\373\017\275\221\024\246<\221\310\351\274\206\3021\273\372\334\223\273\275\032\307<\374H\205=\205\262@\275`&0\272\340:I<(\211\035\275\006)\001<\035\354\234\274\344\313l\274X\352\207\274\310\222=<u\237\230=\342\277\262\274\261\232\004<H\037\342;PZ\027\275b\226\017;\250\343*\274o\257A\274\202\037L\274m\377K;\354Mm=\344\314b\274\235\316\005<\312\345\004;\332\322\313\274\207&_:9\230\325\273\354\177\030\274\372J\265\273\220R\3729#a\002=\265K\035\274\010u\276:1\367\362;\217V5\274\202-\030\273\030\177\311\272\366\300\001\273W\361t\273A\020\200:V{\r<+\371\025\273\324b\250\272r\'\323;oz>\273>S\016\272\234j\365\271$\030\356\271.a\t\272\224\327\0109\346\231\006\272\024\226\006\272\361\245\345\271\311\212\200;l\023\035\272\000\000\000\000\000\000\000\000\000\000\000\000\000\000\000\000\000\000\000\000\000\000\000\000\000\000\000\000\000\000\000\000\000\000\000\000\000\000\000\000\000\000\000\000\000\000\000\000\000\000\000\000\000\000\000\000\000\000\000\000\000\000\000\000\000\000\000\000\000\000\000\000\000\000\000\000\000\000\000\000\000\000\000\000\000\000\000\000\000\000\000\000\000\000\000\000\000\000\000\000\000\000\000\000\000\000\000\000\000\000\000\000\000\000\000\000\000\000\000\000\324\017\203\270\376B\251\266Q\352+\267#\036\351\267Z\305\031\267b^5\270F\2709\267X\252\2649\236\024\307\266/\3301\271\275>\331\272\022W\001\272\217\345\033\272\340\007\237;\004\016_\272\236]v\272O\177\272\272\213B\205;\345U\254\272\227\301\327\272\331|h\273\326\275\340\272\"\036-\273\222<B<~\2027\273\252\243g\273\200_3\273-\331e<\212\331\246\273U$z\273\355A\321\273\276\254\355\273;I\375:\222\227\201<7\215\273:[\265\336\273\025\347\014\274N\253\001=TQ\030\274\277\354L\274Q\\`\274\010\034c\274\026|\224<\366\252\037<\006\\\005<\363m\002\273\n\323\213\274\324\nF=Cby\274&\207\270\274\207Y\033\274\'\373\262\274\004\000\303<\332\257\031\273\234\205\000\272\364k\260;8\331\203\274\312\301d=\240P0\274\373\272\304\274\035\316\334\273\336\350\021\275\226Q\n<\200\254\226\270\000i\261\274wOR<\224\3428\274\270\326\226=\030\023\271;\372y\316\274\327\013\242\273\001\342R\275\356\312\243\272\200h\232\273\350\305\r\274\266Y\004\273\211P0\2746J\246=H\247\225<\355\033\200\274JS\025\273`T\216\275\317Rh\274\302\256\021\274\300\023-\273\362\353?<\275\207$\274$\001\221=\000h\022=\360\316/\274\254Hj<\277\003\222\275\024\307a\274\177\234\207\274R\217\333\274X\342\202<pK\241\273\340\030}=\037)\255<\236\017\245<\332\246\212<\307CB\275\372d\226\274\335 \344\274\033V\264\275g\376\032=\340\224\350;\3157u=\222\033\201\272\200\237y=d\267g<\342\024[\274x9&\274Qn\337\274\025c\377\275\n:+=\240\017\350:J\322\202=\026\025\256\274>\347\231=0\247\034<u\233#=\362\211\221;\276\033\270\2744\022\006\276\324\244\024= \276\322\273\002\010\213=\010\335p\275\031\340w=r\256\n<r\317\202=\254\332`\274\215#\202<\312\304\307\275\244\263\331<z\207 \275\306\302\222=@\177\225\275\224\212\027=F\273h<\260JD=(\362\301\2748xX=\355h\245\275\300(\0069\n\232\201\275B2\262=I\026\201\275P\236\352<t\273c<\276\314\262<u.\003<l\377^=\2734;\275\374\2318\274\360r\277\2750+\255=Z\360\206\275 \253\t=\265f\000=\215R\201\274\300,\212<H:\030=B\303\234\274\311YY\274\266\020\332\275\250\367\242=7\235(\275\220\362\374<e\325,=S\3750\275\n\367k<\310\301\375<\214\3669;\264l\344\273-\246\304\275h\236\213=\253/\307;\356=\227\274\"\3618=\334!:\275@X \272@l\270<\3552\230;Z\205\001<^\004\233\275\377\222\025=\214\241\272<\222\215\221\274\311m =)\260\030\275\n=\366\273\230\225\034\274+\235\272;\031\034\017=Y.Z\275\000\000\245<|\316\374<~\362\275\274\206\030\233<p\273\276\274\212a\216\274\277\306\213\274\210)d\273\231<s=-u\004\275\361\374\270<x\204\334<\360_\014\275\357\367\'<\223\374o\274\037\2277\274\244-l\274\254JX\274\033\324`=\247\033\275\274!\247L<\205J\300<\242 \311\274%\035\t;\002\311\036\274\345\027Q\274\013\376\355\273n$\016\273\r\\\017=\340\342n\274\274\352\317\271\343\r\276<\003\010\\\274$\364|\273<\265V\273\314D\204\273\206\332\213\273`\221\337::\220\215<\035\230\243\273\t\263D\273\315\221\022<5c\223\273\370\206\010\272\020n!\272\"\217!\272\241\311\277\271p\263C;\000\325\237:=\312\216\272v\203S\272\001R\343:mM\374\272\000\000\000\000\000\000\000\000\000\000\000\000\000\000\000\000\000\000\000\000\000\000\000\000\000\000\000\000\000\000\000\000\000\000\000\000\000\000\000\000\222\322\r\272\377\020\337\271\326\264\004\272\375\361\003\272\221\310\001\272\\\327\001\272\231\212\365\271\224\272\224;\"\271\017\272g\264\021\272:\302$\272\010\274\335\271\000\212\024\272Q/\023\272\250V\017\272\372p\017\272{\334\002\272\201\031\246;\356#(\272x\252+\272a\323\004\272u\227\276\270o`G\271\330D\226\271\240e7\271tY\275\271\314\377)\271@ZJ;&2]\271\306\272\220\272:{\326\272q\213\277\271)H\371\271\003Q\253:\270\034J\272N\276`\272\352)z\272\'\n\345;`\343\232\272\324\261\006\273Ot\201\273z\334\336\272\274\225?\273\354\224\356;H\237V\273\345\372\210\273\254\3562\273>C\261<0\201\251\273\204h\243\273\237\204\025\274\266\024\r\274\234+$\273xo%<!\273\204\272\006\354\216\273I\275\025\274\306\2752=\333\321\014\274\311%*\274\241\347t\274Z\250\203\274\326\202m;q\357\023;\320\222\323;\\\315\002\270\035g\222\274\347\030\220=`\274e\274\271\323\241\274\t6\327\2731K\307\274 \357-9t\225\211\274\377\374\006\273R\342\032<\362xE\274\300\023\252=\235rb\273z\203\340\274\024A\231\273\235\016%\275\360\327\214\274Y{\331\274\374\035V\274\373\221\034<8\2455\274\007\235\261=\256\207\304<\224\211\362\273\000D\235;Cfg\275\245\035\376\274(i>\275\234\004j\273!/\241;\206V*\274c\013\266=\333\347\006=H\216\206<\254\027\255<<I\214\275\377\031\033\275\345\025\226\2758I\017\273,-\220<L\307\014\274\270)\237=A\230K=\022\341\306<\240N\335<\245\220\233\275Y\0103\275\030\236\245\275\260\200\240\274\253\210\325<\327\354\020<\366g\264=h\222\317<,f7=u\323\376<\343\0047\275&\311 \275\366\230\246\275\220\252j\275\217\277K=\251?\273<\212\230\274=\347;b\274C?&=\2634\260<}\231A<\000\251\224\274[[\200\275\200\223\253\275\254\'+=\352\253\302<\214o\266=\325\030O\275.\333\336<0Q-<\035\266\240=\234_(;\001e\364\274\311\306\264\275\003\032r<\374\337\000\273\352D\265=\307\354\230\275\0005/\271^Rg\273\360\276\363=\177\336l\274\234\310\326<\345\353^\275\256B\326\273r\327.\275\202\356\304=\374\343\251\275\316\276\026\275zto\274\351 \230=\226G\377\273f\244\240=\nr\003\275>\367\210\274ym\217\275\267\322\343=O\271\257\275\310.\027\275\354\324\264:\022#\220<\260\222G<{\351|=\356\307I<\2246\256\274\203\210\315\275d$\371=\234\276\226\275\230\227\001\275\014\231P<\"\302\356\274\254(\213<\014\235\"=>0\212<\306\235\014\275\317:\323\2752c\352==Z-\275,b\006<\373g\354<\341yv\275.lt<\3774\021=d\r);Q\226\006\275\2274\311\275\014\266\255=\023\240\371<H\275\276\273$\220M=\252\264X\275$\325Y\273\220\000\216<+\325n\273\234m\257\274\372s\257\275\010\334L=\330\034[=\374Y\205\273])X=\225\265\036\275T\345<\274\354\177/\274\200\322K\274\300\223O\270\037.p\275\361N\016=\250\177_=\306I#\2748MC=>\202\310\274\242\024\245\274\300O\216\274\'p\213\274\004<\314<\300g\n\275kz\363<;_+=\213t\000\275TT\273<\002\326w\274\343aZ\2746u\035\274O\320\216\274Xg\007=\271s\270\274\302\264.<\321\347\375<\250J\240\274\207\326\300;\036\243\r\274\334gA\274~\227\n\274\025\254\344\273\374\237\304<\317\023;\274h\215\246\272\340\216\353<\000\353$\274\256EE\273\335^U\273a]g\273\332\036A\2730&\0139\304\252z<\337\373\241\273\263\2142\273\352k\006<\350gS\273\310m\206\271\246)\271\271\263\230\314\271\031\347u\271\032S\000;\256\206\t;\262\024R\272\351\"\014\272tca9D\373\336\272\000\000\000\000\000\000\000\000\000\000\000\000\000\000\000\000\000\000\000\000\000\000\000\000\000\000\000\000\000\000\000\000\000\000\000\000\000\000\000\0006\202_\272K\274\026\2720\233I\272\n\307G\272d\225B\272\357\270B\272\026\2741\272\212r\341;9\023d\272\374\325h\272\316\344/\272\333\364\227\271\203\322\021\272\302O\017\272/.\010\272\374^\010\272E\030\342\271\370.\242;\324)6\272&\263<\2723 \177\272\"\020\202\271D?\r\272r\0362\272\221\365\004\272\205I9\272\343\235\342\271\211\326\324;tbF\272\355\236\330\272\221\007\007\273\356Q\002\272\307@s\272Z\316\360\272\353`\251\272\341\021\334\272\275\331t\272\315{v<\275\370\004\27373x\273b?\260\273\274\363\323\272\335mL\273j\334R\273\206vO\273\001\332`:\260\0075\273\274\370\353<b\371P\273\360`\354\273\n*\030\274\367\206\004\274\306\364\361\273h\3416\273\241/\264:\250\272\312;R\"\020\274\005\3405=\353\301\264\273X|%\274\313\377\037\274\211pt\274\265\346s\274\245`:\274\254\351\353;7\336\305;\265PF\274\004\370\212=O\255[\273d\260p\274\302\243\3409W\350\301\274\007\013\342\274\t\306\312\274\301jR;(\035\227<\r\270\004\273\024\t\200=\302(\244\273\300l\313\272\304j\332:\375\000$\275\324\256)\275\356\363S\275\177\001\321;\025o\311<l\246C\273\246\3220=\000C\243<\362\276%=_\306\336<\372cZ\275\3019E\275PH\234\275\277#l<\237\273\364<\022\3123\274\320\371\354<=a\032=\306xO=V\310\037=\372\210\214\275T\367\202\275(\200\303\275\256Ly<\353\3042=\350A\231;$:B=1.\016=\342\2171=\357\n\024=\301\211\224\275G\213\205\275\224\035\265\275v\303\272\273\241\014x=\250Y\357<\336)r=MV\326<`H\251<\247\252\346<a\010(\275\315Qf\275\005\005\201\275\340@\360\274)\274\215=\206;0=\274f[=\203\0061\273\360[\333\272\033\365\376;\035\233\344<V\036F\275JZ\237\274\264\267;\275\3237I=\026\033-=\312;d=\026a\034\275S\255\375\274\010\020\362\273\0330\372=\377\311\344\274\236\364\307<\033]W\275R\337\344;\262\332\213\273\260\247A=Q\262g\275ZlU\275\313(\346\274Id >\274\265\262\274\371\370\226=c\242\027\275N\301x\274\"\306\'\275K\341]=\"\034\223\275\376\221\216\275\272\3228\275\014\247\272=]D\376\273F\221\266=\t\301\t<>\263\026\275w\202\210\275M\n\244=\"\353\212\275\310\3136\275v\315\002\275\\(f;Z]\205<\306\372T=p7]=\030vx\275\242\036\251\275\312m\323=\250\333\016\275\376\204\233\274\226hl\274\333\216H\2756F\261<t\264\005=\346\266\"=.|\226\275\327\262\300\275D&\342=\374?\266<p`\214;\234ng<\214\352z\275\020\035R<1ty<\272C\332;.\276\227\275\343\202\265\275\377\332\247=\332\274\237=0\322x<\\\240m=\232iN\275\240\313@9\310\331\036:\361&\027\274\3464b\275\352\222\211\275T\372(=^\203\221=\264\3012<\024\036\221=\004L\r\275\223\005l\274\212\377\201\274\233\023\350\274K5\001\275\342\206\035\2758\037\t=\026Pe=\200{6;\205\355\226=\243s\307\274\341(\221\274j\010z\274\341\267\255\274G\034\231\273\246\332\315\274\370R\267<\307!\021=E\322\275\274,~%=k\177\202\274\372\032a\274#\320\007\274\246!\216\274Pnf<i2\207\274\216\311;;\323\004\331<\366\320D\274\367`\364;\n\237\364\273Lv\007\274o\277\277\273c\020\006\274\240\352\236<\331\240\337\273\324\364\320\272\251\031\205<9(\241\273\007\242\344\272\262\263\375\272\272fB\271\tQ\371\272-\275!\273d\333`<\237\026\205\273!\351\006\273f\001\016;:C\311\272y~\017\272\372\375\035\272\367\"!\272[\264\r\272*c\241\272\247&\346;\017\037\213\272wHd\272w\3468\272\t\256^\272\000\000\000\000\000\000\000\000\000\000\000\000\000\000\000\000\000\000\000\000\000\000\000\000\000\000\000\000\000\000\000\000\000\000\000\000\000\000\000\000SF6\271\250w\277\270\204:\034\271\315\r\032\271\230\340\023\271\334\n\024\271\205\256\377\270\360#\256:\201\264;\271\327]A\271\266p\211\271\235M\305\270U\327]\271\251iY\271\300\325L\271\322+M\271\217\010$\271kG\366:*\370\216\271\332\273\224\271\327\361q\272\303\325p\271m\226\376\271\024\2550\272B\000\035\272H\227.\272\001G\325\271\253\207\321;\\\310k\2720\r\306\272\232I\320\272\220>\313\271\005\021?\272]\334\273\272%\362\235\272Gb\257\272\222f9\272\333=I<\312\032\347\272\030\'M\273\230\313\245\273\022\003\257\272\t^4\273\356\2752\273^\256X\272^\226\014;\034\033-\273\210\005\237<:<j\273\006\013-\273\225\330\256\273\'4\224\273:\202\033\274~\274\326\273`_\366;\n\237V;\223\230\332\2734\333\372<\261\332\375\272\310>\342\273\262\356\326\272\226\024H\274\322\007\222\274M\307\203\274\261~\000<\010\331[;\257\271\264\273\342\3214=\277\235\231\273\270\377+;*\316\r<\223\242\315\2742\276\014\275\302x\022\275\262\"J<n\364\223<\232\356\355:\205\227\372<O\223Y\274l\273\027=M\363\223<E\2752\275\205\354e\275${w\275QD\220<\377\275-=\220t\211\270\354Bo;t\305P\273\006T\247=\246\032\r=\274\300u\275\201\202\232\275:\220\231\275\r\326\"=\026\376~=V\351\362:\000\273.:\232$2<\006\034x=\221\007+=\257z\227\275\t\371\246\275B\013\250\275X\326D=\032J\243=2\336~<T\206\037;\260\311\021=\310Hl<C\373\356<\030g\226\275\026A\273\275\266\362:\275.\202\256<6\265\277=\221\215\017=\261\263\032<\334\307;=\323\320\303\274\242b\366;O\2669\275;)\267\275\2062$\273t\274Y\274zk\276=`\237\214=\010K\250;\335\330\365<\322\034\\\275\352\003\231\274\265\335(=\241\205~\275\263\276j=\353\336\034\275\201\353:=~0\037=\365C\035\274*\242><\271\024\207\275\202\213\037\275\312\306\030>\003*\023\275r\247\267=\273S]\275\250|W<\030\352\020\274\302\245\322\274\"U\334\274\376\207|\2755ov\275M\2617>\310\302\375\274\231\321\335=\2303\327\274X\317R\274\274\021b\275\312\031\220\274\030!$\275j\2126\275\353\373\207\275\341:\241=\343$W\274\320\222\254=\354\336\342<\232\023\"\275l\340\203\275&R\210<B\236\207\274Lz\356\273Q!\206\275\365\223\307\274\377\240\201<pKr=WL\215=\317Z\227\275\264\177\236\2753Ae=\354\235\377<h\363#<\254\351\030\275\022\305\206\275\345\217\277<\nD\276<\204\024U=\313^\300\275\025$\260\275\210\254\271=\334v\222=\204h\266<\2513a<\340r\177\275\005\231-<\350\317\251\273x\356\204:\n\224\267\275\213J\217\275\027U\254=?l\234=\270\014)=\236\201d=z\236+\275\374\203\221:\016\027\247\274N\016W\274o^|\275{|\"\275O\3270=\350\030k=\016\225\235<\204\237\262=\327(\363\274\306\r\224\274\364\023\301\274\265\206\005\275\377\3707\275\216{l\274n%\371<r\374\024=\245\326\027<I\313\264=]T\223\274R\345\245\274\302\031`\274\334\350\300\274\036\357\321\274;\227\235\272\274\351\370;\316g\205<\327\256!\274\253\377k=\027\245#\274\017C\204\274\033\3723\274\026\312P\274|I\370\273\350\220&\273\004\321\210\273\2404e<\344$\364\273u\014A<\271\307.\273\342\361\313:\223\300\214\273\005\240\242\273\303\214\314:\307\000_\273\265\2249\272^\031\232;\006\265i\27370\354\271\360\343\276\271f\016M;\013\023\330\271x\361V\272\326Bk;\205\335\"\273U\'_\272X\035\265\270d\277\243\272\213\323\242\271\256\311N\271@Fw\271\007w\236\271@\362\027\272<\246\205;\253V\272\271\303\355@\272^Ol\271\270\364\224\272\000\000\000\000\000\000\000\000\000\000\000\000\000\000\000\000\000\000\000\000\000\000\000\000\000\000\000\000\000\000\000\000\000\000\000\000\000\000\000\000\000\000\000\000\000\000\000\000\000\000\000\000\000\000\000\000\000\000\000\000\000\000\000\000\000\000\000\000\000\000\000\000\000\000\000\000\000\000\000\000\000\000\000\000\000\000\000\000\000\000\000\000\000\000\000\000\000\000\000\000\000\000\000\000\000\000\000\000\000\000\000\000\000\000\000\000\000\000\000\000_\275\202\271 \212\210\267\205,\014\270\227\342\332\270\355\020\206\271\304\335-\271\247\354\'\270\336U\321:/\235P\271\236\303\013\272y\"\316\271x\010\035\270X\026\311\270\341\223\261\271kL\244\271\024]\257\271\236\235\357\270\227\316?;\031\001\320\271\332\242l\272l\"\233\273\222\301\245\272\274S\204\272k\206:\273ph\031;\230\345\255;.2/\273\275R\345;\377,J\273\363o}:\177LQ\273\260\276\223\273\230\231\302\273\373\310\312\273n\252T<r\330\032;\341G\366\273}\304\252<\317\261\264\2724\227\364\273V\263,<\n\335V\2748E\226\274jD\270\274N\266y<c\343\332:\222\205\220\273\\z\316<jC\021\274\264\273n<}\013\247<\"\035\334\274\206\211\025\275#\016.\275fn\367<f0\226<A\272\274:\"\344\026<\303\214\331\274\236xX=\327\r\025=\013\301D\275es\213\275\270B{\275\355\217+=\354@9=\364\205\255:L\202\263\273\216{\333\274\341\346\255=\016.@=\201\337\205\275\017\333\273\275\354<\200\275\200w\205=\023\334\234=\016\321\222<z\240 \274\324c}\274L2\035=R\337\022=\314U\245\275\000\354\321\275\375\312<\275(\373\221=\270=\364=\302\376\340<\242\256\326\274\274@O<\330\3523\274\230\2500<h|\241\275\3659\310\275\000~\024\271\225\333\227<T\332\365=\344\305r=\242\226\364\274\220\277c=\205\005l\275Ui\226\274\220~L\275\257?\270\275n\000}=zq\002\275\003\220\251=p~\235=\245\320&\275\250M\236=\370!\213\275*\236\021\275\223\212o=\207\200V\275\230l\317=\246\002F\275\346\257Y<\337P\001=;\013l\275,\325J=:\311v\275u9\201\275\005oA>\370h+\275\030u\365=\323\354u\275\250w\023\274\372\032\013\275\210s\202\275\205\010\"; \036\"\275;\277\244\275v\324/>d.+\275G\353\354=\034\203\227\274\236\256\336\274R\235a\275XA8\275pq\005\2718\375\235\274Hg\301\275T\303%=\324/\301\274P\377\276=\323\203+=H\002E\275\273\214S\275\260\237~\273\303\'\362<\214\013\207<\335\377\300\275\221\032\203\275\013\342\327;#\315c=\240\037\235=\341\365\212\275\364[H\275\240t2=\301\006q=\216\370\t=D\311l\275\205k\244\275\351\342\243<\304\225\200<\342\277\021=\362\005\247\275\342E(\275!\207\256=P\232Z=DMP=\'\t\271;\310\020b\275E\213\273;U\2107\274\342[\254\273\213\255\232\275c\221\246\274\216\001\222=2\322\r=F\272M=\353B_=\315\206\025\275 \375u\271\330M\312\274w\235\305\274p\024X\275\236\\\352\271\240\3012=\214\366\322<\026os<ZY\253=\251\346\306\274\342\n\237\274\252r\275\274-E\254\274\005\355!\275\267\372A<K\364\232<\017\320\210<\240\035u\273\333\211\306=i\366t\274\014\251\327\274\255\004\234\274n~\244\274\360u\366\274t\233\221<\334\n\226\273\030n\331;\240\371\315\273\340![=\230*\352\273\032vn\274DvA\274[\340\355\273,\"\205\274\344\361y</\002\274\273\224\344\036:\313`\330\273E\352X<A\212&\273\371\\\211;wB\203\273q\0313\273\237\334\212\273\006\260\014;\366>A\273l\236l:\353\214\203\273<\306\226\27104\363\271\276\036\317;0\r\007\271\346OO\2726\335\335\271\252\353\'\273\313\365\333\271\337MY\272\004\377\331\271\000\000\000\000\000\000\000\000\000\000\000\000\000\000\000\000\000\000\000\000\000\000\000\000\000\000\000\000\000\000\000\000\000\000\000\000\000\000\000\000\000\000\000\000\000\000\000\000\000\000\000\000\000\000\000\000\000\000\000\000\000\000\000\000\000\000\000\000\000\000\000\000\000\000\000\000\000\000\000\000\000\000\000\000\000\000\000\000\000\000\000\000\000\000\000\000\000\000\000\000\000\000\000\000\000\000\000\000\000\000\000\000\000\000\000\000\000\000\000\000\000\000\000\000\000\000\000\000\000\000\000\000\000\000\000\000\000\000\000\000\000\000\000\000\000\000\000\000\000\000\000\000\000\000\000\000\000\000\000\000\334x4\267gz<\265\266~\301\265\333\022\227\266W\0209\267\357\000\360\2663\315\347\265\204{\2208\r\374\017\267\347\355\300\267\rZi\271\340\233\263\267^\304\222\270d(\177\271,\315\007\2718k\230\271\207\322\331\270\020\324\024;\005T\304\270@\246\217\272\244\211\223\273\207g\343\272\266\"\033;\246\330X\273j\200\327:\350a\247;\312\020U\273\007v\023<\325.\177\273\n?\273\272\356\221 ;\265\010\230\273\312\350\306\273\307\350Y\273\230\365g<W\005u\272\033\354\006\274\020\302}<\006_\315\273\010\365+\273\273\222\264<\261\321\204\274q\361\212\274$\334\272\274\363\245\365<!\302\267\273\322\013[\273b\221D<U\306\277\274;6\307<3R\034=\335\010\371\274\2633\021\275\243b9\275\010\327^=\362\361M<\224\365_\273\342\277\266;b\2377\275\310;G=\235\325E=\317\000T\275y5\220\275\322gS\275\230\363\240=\367\247 =\276\305\033<eN4\2740Qh\275\022\361\206==\334;=\n\330\220\275K\340\300\275\352\332\032\275j\341\320=`\002\202={\310!=\274w\001\275[\273)\275\273$\314<\375<\276<I\004\255\275\001\020\311\275\255\217R\274\260\314\272=qH\336=F\272-=\313S]\275\362f\210\273\212W?\274\211\352\202\274\010\310\257\275\210\023\274\275b\230/=\013\317\300<\215D\356=&\305\215=^\210\233\275>\001\204=\262\330?\275\005XO\275;\223V\275\303\266{\275\326\244\264=B\250.\274\221\336\177=\364\373^=\355m\243\275\213r\306=`\341@\275>\315\224\275\247$\244=\306\215$\275\300B\342=<?(\275\230\333\214;~\001y\273\375\030\267\275xo\251=U?\372\274=X\265\275U\260L>`iE\275\320\242\320=\\gF\275\214\247\242\2748] \275\266\226\267\275\260\3451=R4:\274\302\223\315\275\255\006\021>\273\227y\275\026\370\251=\036Z\311\273\230\361-\2755\265\273\274&\210U\275F\023C=\224\202P<>*\354\275=o\024\274\036\016\023\275Z\274\225=\316SY=\244s\212\275\364\320\246;\210\004^\273\2544a=\246j8=.\023\344\275CG\276\275\376<\302\273\262\235;=bX\223=\025\227\207\275Lt\217<\013\007|=\340q\317<\021b^=\272\243\220\275\035\010\257\275\362\241\223;f\377\342<\276\256\205<N8g\275I3\203<\014\224\246=\342Q8:\321\020\207=\200P\010\272\032\375Y\275\214&\256\271nR&<7\264E\274$\327$\275\376#\277<\343\327O=-\205\307\274\356\202>=\336ZU=S\020\007\275pr\031\272\210\326o\274\010\020\021\274\331\361\270\274!\343\003=,S\310<rx\331\274\374*(\273\341\335\266=Yf\242\274\010V\232\274\315\244\332\274\233Y3\273\226\032\263\274\\m\001=D\320\326\273\372\264|\274o\271\022\274\242p\264=R\024K\274\n\357\321\274XT\236\274j\342U\274\371\200\254\274\r\235\347<\016\321R\274w\361\\\273;2\016\274\330-N=\236\207\r\274Z3:\274\342\326d\274{\356\206\273\233\327\217\274\302\340\334<\330\231\001\274\341\253{\273\306;\"\274fBH<\332\307c\273\200\326\000<\331q\256\273W\362Q\273}\342\265\273\037\353+<]Tc\273$`\201\273K\314\267\273\236p\357\271\217\367-\272V#\256;\377\261\347\271\342Y\233\272X\300\033\272\346\254=:\322\262\033\272\345\270\241\272\004\246c\272\000\000\000\000\000\000\000\000\000\000\000\000\000\000\000\000\000\000\000\000\000\000\000\000\000\000\000\000\000\000\000\000\000\000\000\000\000\000\000\000\000\000\000\000\000\000\000\000\000\000\000\000\000\000\000\000\000\000\000\000\000\000\000\000\000\000\000\000\000\000\000\000\000\000\000\000\000\000\000\000\000\000\000\000\000\000\000\000\000\000\000\000\000\000\000\000\000\000\000\000\000\000\000\000\000\000\000\000\000\000\000\000\000\000\000\000\000\000\000\000\000\000\000\000\000\000\000\000\000\000\000\000\000\000\000\000\000\000\000\000\000\000\000\000\000\000\000\000\000\000\000\000\000\000\000\000\000\000\000\000\000\000\000\000\000\000\000\000\000\000\000\000\000\000\000\000\000\000\000\000\000\000\000\000\000\000\000\000\000\000\000\000\000\000\000\000\000\000\000\000)\231$\272#\207\247\270\003\331s\272i\001\240:g\000\251\271K^H\272\232\024\246\271(\221\244;\002\372\336\271\314\3605\273c\272\030\273\364\232\244\272\375\347a\273p\323\354\271N\264Z;a\027\215:\300ZT\273\322N)<{\357\206\273@\027\3118:\243\344;\017\017\253\273\314\310\020\274\206g\225\273\254\241\260<\002\232\274\273\342\371\302\273\177\205P<\250\"<\274\240c\r:\207\354\014=\253\264\203\274\317|\201\274Qt\311\274\230N4=\020\235y\274\3268\277\272\250\257\275;wN\010\275\243\"\266<H\024l=T\311\373\2748\267\006\275\007P7\275\\_\260=j\022\030\274RQ\237;\226`\231\273\370\373o\275_[\004=\277\276\206=s\001O\275Osa\275\252\353+\275_<\364=tGs;:k\354<\020/\366\274\345\247\253\275hg3=;\335M= \237\215\275B\247\211\275\332g\244\274\306C\n>\006K\310<]\006d=\252\247k\275>\211\231\275<\305\300<\214\023\"<\354A\247\275ksp\275\320\266T<\241\353\327=%Mm=\350_{=\322\246\245\275\014\335\353\274\310\310\037;\230\375G\275\261\351\267\275\251,,\275\224\n\034=R\313c=\0219\230=n\206\220=F\225\302\275\215|I=.\245F\274A\340\254\275\337{!\275>/\250\274\321\365n=\246\324\322<\234\234V=bc\362<p\370\310\275\307\t\256=\200\364\013\274Nb\320\275\317t\337=*\246Z\274\374b7=xk\212\272\033:\236<\207\0255\275\207\360\336\275\242Y\311=xM\026\273y\363\341\275g\275;>\006)\'\275\257R\361<D-\232\273j\200\220\274\327<*\275he\275\275\201\344\253=\322\3250<g\220\371\275\345h\325=H\010b\275&\337\305<\n#-=\006\313!\275\002\350 <IT\003\275u\337\200=\030X\253;E)\001\276I\310B\275\321J\301\274\370\324\002=\321\376\236=\2123c\275\345u?=\027Y\016=\221\304\005=H\300\355<\302\000\346\275\326*\320\275\334\235I;\347@\033=\214\357\217=\223\315^\275\036\202h=\312\353\241=\254\007\014\275\327\030c=\017o\214\275u\263\257\275\350\257*:\003j<=x\034#=Pl\'\275W\340D=!<z=\351\343t\275\214Gs=WL\233:B\337`\275) \006\274ej==\222\273\013=+\320\347\274\000a\023=\020\237\335<\213\354\211\275H\336g<~fS=j\r\n\275\377M\262\274\030\256\230<\244\031\n=\312\274\233\274\371j;=\242XM;&%M\275\200\277\347\274\251\016\256=\320\242\245\274*P\365\274\213V\204\274\275\256\220<\376\\\007\274\312\2203=\203\230a\274\274\025\360\274\3560\354\274\030J\236=\305\357T\274t\025\323\274\236\'\225\274\'\314\217;\341\0301\274\377\336\033=<?\033\274\321B\257\274\226\265\254\274\270\360A=\327\361\004\274^{w\274f.^\274\006\264R;\3039(\274\256{\377<\252\376\352\273\006\n>\274F\204\202\274\357\306D<\030\342H\273\020\n\213\272\375\'\237\273\2237\010;\"N\244\273|\250n<\336\022\r\272u\376\211\273\017X\"\274\240~\004\272\0221\364\271@\342\312:\226\363\342\271\333\343\033:6+\035\2727>X;\2124\023\272e|V\272\n\355\006\273\000\000\000\000\000\000\000\000\000\000\000\000\000\000\000\000\000\000\000\000\000\000\000\000\000\000\000\000\000\000\000\000\000\000\000\000\000\000\000\000\000\000\000\000\000\000\000\000\000\000\000\000\000\000\000\000\000\000\000\000\000\000\000\000\000\000\000\000\000\000\000\000\000\000\000\000\000\000\000\000\000\000\000\000\000\000\000\000\000\000\000\000\000\000\000\000\000\000\000\000\000\000\000\000\000\000\000\000\000\000\000\000\000\000\000\000\000\000\000\000\000\000\000\000\000\000\000\000\000\000\000\000\000\000\000\000\000\000\000\000\000\000\000\000\000\000\000\000\000\000\000\000\000\000\000\000\000\000\000\000\000\000\000\000\000\000\000\000\000\000\000\000\000\000\000\000\000\000\000\000\000\000\000\000\000\000\000\000\000\000\000\000\000\000\000\000\000\000\000\000\232\375H\272\222\025\372\270k\014\351\272\330\251H;\373\341\265\271\027\rm\272\225\336\334\271\211\302\222;\221\254)\272%\222\'\273t\250G;[F\233\272&\007\315\272\360q\002:\014N\021;\304\210h\273\032\234b\273r~\014<[O\207\273 \023\355\271\032\255\246<\272f\361\273-9}\273X\370\340\273\3233\336<Qq\037\274\347*\033\274C>\206;\013\201\210\274\224\354\034;U\335J=\244\225\224\274\224\242R\274\034\033\322\274\022\211J=-\335\264\274\223\310\004\273X\303\340\272\335\255\032\275k\023\256<r\233\225=R\377\376\274\321^\332\2741\017 \275 \302\310=\220\315\001\275\306:]<\230\014\271\274\013e\200\275\301\244\357<b\252\242=\014\270>\275\264e-\275\021a\036\275\027M\004>\304\312\020\275co0=\357 P\275\361M\247\275\335\r3=\351\013J=\327#\201\275\350\347\026\275\262\002\257\274\004\213\353=\006K\302\274\235$\236=\373\345\222\275\335\264\227\275\364\240I=l{M\274\306*\232\275\224\0069:\020\255\n\273h{\305=\373\315U<\335!\227=\355L\230\275\345}3\275\224\311\305<\276\353\214\275\035\354\226\275J0\206<>?\322\273K\261\241=\274e\n=\206\016\206=\262\202\263\275B[\025=\214!\265;fP\311\275+\274,\274wv\031=d\355t\274\202\306h=\277\327\342<N=\036<\031e\314\275\301\366\270=\320\364\325:4^\351\275\201\342\372=~3\261<z^\306\274\305\2401=\240<\257\273\316\313\347\274\032F\317\275\"\306\300=\352\031\r\274~\200\373\275\373\217&>\260R\031\273\344\'\014\275\330+d=ii\032\275\2727\232\273\016a\205\275\203\320\232=\235\270\335\274R\246\002\276p\357\210=*\221\r\274\332\270\333\274\222#\267=\225)S\275 \212\252<\304\000\t<ZEJ=\031\332\245\274\304\233\363\275J\261\212\275p~\317\272\027Q\257;\\y\323=\312\374w\275\023\221\007==\346\221=lG%<\010\r\323<`b\271\275\204T\311\275\241y\232;\0169\024=\226\251\241=Gw4\275\"\211\357<\206\215\221=\323i>\275\314\223r=\271\262<\275\210\242\240\275*\256\342\272Vy8=(\204\203=\004^\213\274\270\270\272<W\264\037=x\014\223\275\322B4=\266\335\222<\357\323R\275\016k\262\274v\024|=D-b=\027\374U\274X\235\033=X\317\340;\300L\230\275\311\213\232\274\262\022j=\260\360\006\275\326\005\023\275\374\010(=\370\272\017=\334\033\302\274\263\274k=D\214\022\274\314\220R\275\010[\033\275\312=\242=\255p\241\274\366\264\037\275\300\316\365\271g\344)<\022\023\036\274\"5s=\302\201p\274\202 \016\275b\026\374\274\327\303\207=\030\356P\274\245Y\005\275\277_E\274\360\243\300;Z\375\r\274\277\357I=a@\'\274\3730\306\274\306m\254\274\275\3601=\250\026\322\273\301\277\214\274[p>\274\377bM;1\212\373\273e\303\363<\327\363\372\273\210\3375\274\316\210p\274\004\232\020<\252\2524\2737\265C\273\237\022\222\273\0243\371\271\250t\212\272\261At<y\256\005\273\317\023;\273[\343\350\273;\033\010\272\326,\323\271\332N\3149R\007\373\271%\221*\272\017B\352\271\'W\207;\265\215\371\271\235\300\363\271\004\251\215\272\000\000\000\000\000\000\000\000\000\000\000\000\000\000\000\000\000\000\000\000\000\000\000\000\000\000\000\000\000\000\000\000\000\000\000\000\000\000\000\000\000\000\000\000\000\000\000\000\000\000\000\000\000\000\000\000\000\000\000\000\000\000\000\000\000\000\000\000\000\000\000\000\000\000\000\000\000\000\000\000\000\000\000\000\000\000\000\000\000\000\000\000\000\000\000\000\000\000\000\000\000\000\000\000\000\000\000\000\000\000\000\000\000\000\000\000\000\000\000\000\000\000\000\000\000\000\000\000\000\000\000\000\000\000\000\000\000\000\000\000\000\000\000\000\000\000\000\000\000\000\000\000\000\000\000\000\000\000\000\000mH\257\267\352\210\230\270{\375\367\270\272\313%\270\306\243\022\270\317\230D\270\265\257\\\267\312n4:7\354\034\270e\243\237\271\235\n\371\271\026\320!\271\260W\0379zk);\022\363\351\271oo\000\272\350\323\025\272\026n\2069\234\275\020\272(\216\237\271\244\320\n<\030\214\004\273\377\221\260;\350\207)\272#\307 ;\314\306\335\272`\330\267\273\372u\031;\200\202\264\273r\034P\273O\271\021=\005r\037\274!\201\326;\240#\003\274\007v\245<\326!\003\274\301\276.\274|i\352\272\376\327\247\274\332yn\273_\244\177=N\005\260\274\336*\034;\035A\264\274\300\235\034=\353j\303\274\200)\200;J\\~\274\271\211\032\275\347\275_<\307\322\242=\010\303\006\275\364F\370\273\0345\024\275eBt=\220\267\351\274\332\206\236<\351\333\000\275N\3012\275<\235\262<\027#\251=n<;\275\246>%\272t\236$\275\300\'\244=\'18\275\340\027@=\306\370[\275\026\233c\275\250\016\377<\366\322\002=\324\365j\275\271\023\t=]UC\275\000r\212=\030\030V\275\314\244\254=R5\211\275\237\357*\275G\251G=\231\235\t\275\241\003\206\275\021\351u=@m*\275\236\212\216=\367\247$\275p\303\243=\356\351\214\275\230 \027:6\254!=C\320\226\275TbU\275\366\370\211=\236\300V\275)\312\215=Y\264\t\275\035j\217=B\240\221\275o\365q=\314\320\214<\210\200\312\275 \254\324<L\035\245=\n\201\221\275\032?\201=^e\033\275\020\010\020=\3362\222\275$s\260=\344\273@\274\3760\343\275`\242\002>\324\017\204=<\353\247\2754Gy=\200\362*\275\312\270\016<)\024i\275\2366\207=\264\314\023\275Lg\370\275y\203\027>DOv=v\207\274\2752\372\235=M\326\t\275D<\210;M\023C\274~\255\256<<7T\275\031F\353\275\234*\007=\367\345,=\324\031q\275\256g\322=\242k\317\274\270?.:\325}f=\242\305\250;\236\323\'\275`*\314\275>Z\211\275\035\n\336<W\240\023\274@\371\320=\036\235 \275\322d\361\273\375-\233=t\322\271;\274\264@<G\\\206\275 \365\262\275\026D\260<\033c\021=t\n\223=\234q\031\275\010\004\273;\344oF=X,+\275H\326I=\177Qk\274\261\027\237\275-tx\273\372\370i=\244\2273=\000\270\3348X3\273<\2307R<\333n\203\275X\204\276<\343%\024=\000\215e\275>\216\261\274\025\262y=\032Z\204<0k\240;\311\206B=\025r\346\273\236\341i\275r*\303\274\371\270\177=\332V\017\275;\260\264\274p\201\017=d\335\n\2732pV\274\346[\203=\246\342J\274\2744\036\275\363\013\035\275\342\354\222=s|\300\274\005e\206\274\025!\325;\221\237\203\274\300\032\027\274w\\\202=\323\221y\274\240\227\001\275\031g\364\274\262\316d=\260\033r\274\226\020-\274\346\224\354\273HTZ\274PA\273\271\364\203M=\263\265\220\274iw\313\274\251\245\215\274\033\345\364<\002\304\002\274N5\371:\255\\\031\274TM\261\272U\271\345\273d\226\303<\026)\307\273{\303)\274\237\236]\274\365\013\210;\366\300\224\273BmV<5n\226\273\335\216;\273Z\201b\272\"\303\023<\200\320\376\271D\306-\273\347*(\274\013\"\233\272\250\370\367\272\255\340U<\352\224\355\272\376\251\001\273\203q\322\272\307\375]:\243K\256\272\254\362\270\272x(0\273\304\037d\271k\036k\271\\,C;:\321\351\271\233\023\277\271DDb\271\263\265D\272\017\274I\271H\377\270\271<\350`\271\000\000\000\000\000\000\000\000\000\000\000\000\000\000\000\000\000\000\000\000\000\000\000\000\000\000\000\000\000\000\000\000\000\000\000\000\000\000\000\000\000\000\000\000\000\000\000\000\000\000\000\000\000\000\000\000\000\000\000\000\000\000\000\000\000\000\000\000\000\000\000\000\000\000\000\000\000\000\000\000\000\000\000\000\000\000\000\000\000\000\000\000\000\000\000\000\000\000\000\000\000\000\000\000\000\000\000\000\000\000\000\000\000\000\000\000\000\000\000\000\217\255\020\267\264\315\373\267\267\260L\270\353\330\210\267k\022r\267=E\242\267a\'\266\266\273\355\2249\005\206\201\267\322\303\003\271xnq\272\350\207\352\271\260\364W;Ls\212;\207 \270\272]^V\272S\345\354\272\267f\316\271\334H\227\272\233\213\026\272({\013<\2466O\273\034\233o<&^R;\252\261\257:\004\277\265\270\324\231\375\273\003\232\t\273: \023\274i.\270\273\361\213+=\223\005D\274\016d\307<\223\321\301\273g\244\271;\300\270k;\323mV\274KK\002\274\\\317\277\274\022rW\274\264\307\214=\237\340\273\274C6\366<\324\036\203\274\274N^<\352\360\300\274\303=\247:\022\257\243\274\312\272\317\274VX\276\273\226K\260=\013\267\005\275\375\214\370</\216\000\275\243#\234<R\251\002\275\256t\264<\261N\373\274\006\346\254\274\255\203 \274z\220\251=\017\2540\275\234iD=h\273C\275\006\251\256;am\r\275\276\016k=Ha\030\275U\032\343\274\360\261J\273}\202\203<F3V\275[\243\217=\227z\203\275`+\260;\2665\\\275w\r\312=\005\2121\275z\237\214<\010\201\313;\005\337\n\275isP\275\314\300\254=\344\277\212\275\3409\036\273\274\027\215\275L\237\344=q*3\275\226\371j=\320Wi<$W\207\275\n\002\227\274\'\023\306=\361U\237\275\360\235\322;\335\277\235\275\267\363\320=z\226#\275>\230\242=\210\004\255\273\001\031\257\275S\272\200=\027\021\300=\362\276\265\275\032c\374;\360\273~\275\215\376\214=PA\002\275\362\367\203=\"\306\360\274\"%\275\275\205\351\014>.p\257=\311\324\300\275\200\020\276<\326Fc\275\006\245\332<~\234\221\273\207\260\250<>\313A\275\206_\326\275\026\014\002>\347\371\257=6\217\301\275f\340}=a\300\002\275\002\205\302\273#\340\035=\033\257\245\274\263\036f\275\211/\317\275\010K\242<\342\002\241=&\020X\275\277\361\301=\332\3471\274\250.\021\275\315\013\247=#0\007\275r\336)\275\226\362\237\275\203x\201\275dU\200=\033=\226\274,!\217=^k\276;\263\314\324\274\356\337z=\246\013\320\274\304\031;<\323\217\033\275\326A\251\275$\250\023=\375\230\024=`v\346<\360\301\307\273\310\360\210:\236\026\316<\030J\336\274<\303\336<W\374\370;U-\235\2751l\r<\316\304\206=\270\267\023\274\316\350\017<\350\3725= \3557:\362{F\275`\217\342\272\303d-=\227\314j\275\346f\246\274\274\220\210=\013\230\233\274\035\3678<\310\000\222=\021K\256\274qY-\275\220z\000\275|`p=\r\260\032\275\000\370\225\273\tg\003=\372\010\340\274(k7\274SX\243=_\310\301\274\367\330\326\274,\331\"\275\372.O=\347*\334\274D39<;\336M<\377V\316\274C\306\226\273\314\340i=\220\367\217\274n\357\273\274\354\306\014\2754\314\035=~\254\231\274*^\221<\306i&\273\342\360\232\274\342\325\224;K7\036=y$v\274\027k\276\274\264\262\253\274\242\202\235<\310\037A\274\325\375\261<\221\035\n\274\227\315\320\273\244\n\020;\374X?<Z\242\323\273~\021\023\274\302\325Q\274\023e/;\347M\315\273#7\313<L\316\221\273\022\301R\273\nC\004\270@\263s\272\364V`\273\\\334\010\273\314\371\347\273\260\240\207\272\326G&\273o\352\225<:\031\364\272\000\025\032\273\274\331\346\272\013\2670\273\351\334\264\272d\322\321\272\032\236I\273p\035\200\271\210\\\247\271N\033m;\005h\037\272\312\006\323\271\272C\213\271\225ih\272\\\235p\2712Q\325\271\340\322\205\271\000\000\000\000\000\000\000\000\000\000\000\000\000\000\000\000\000\000\000\000\000\000\000\000\000\000\000\000\000\000\000\000\000\000\000\000\000\000\000\000\000\000\000\000\000\000\000\000\000\000\000\000\000\000\000\000\000\000\000\000\000\000\000\000\000\000\000\000\000\000\000\000\000\000\000\000\000\000\000\000\000\000\000\000\000\000\000\000\000\000\000\000\000\000\000\000\000\000\000\000\000\000\000\000\000\000\000\000\000\000\000\000\000\000\000\000\000\000\000\000\337k\237\267\265\223\205\267\352\250\231\267b\320F\267\267A)\271\017\177\330\267N\301D\267\306\247\3119-\261x\270\364\206\200\270e\336\027\273L\006j\272\3166\275;\327h\336;A\227\013\273\350\327:\272\271k \273\303\334a\272\023\300\000\273>\336\241\272\271\347$<)\016~\273\264\024\255<\312i\035<(?\234\273|#W;a\"1\274\303\003\257\273P\2566\274\027N\005\274X\014(=\021-Q\274\214\271I=\370\236\3039P>\342\273\302c\260:*\266\220\274\2334\\\274\344\322\243\274\010\327\255\274\266\310\205=YR\270\274\022C|=\013\035Y\274\215\007n\274\272[\355\273,)\276\273kz\267\274\344\270\207\274\312\257\311\274\262\016\267=\034}\372\274\371W{=\274L\277\274\005\"\276\274\014jt\274\252\033\177<\024\331\014\275\377f\343\273\336\345\006\275+d\254=\345\035*\275\332\241\216=\370u3\275\360\222\023\275d\346\377\2745FV=Z$\005\275\020)k<(\336\020\275\351S\267<\237Y9\275_\360\253=\335\321]\2752$D\275\253{3\275\006|\317=\003\340\r\275\006CK=g\032\001\275\200\254\263\274\035\324\340\274\336\353\237=V2h\275muN\275E\372v\275(\234\014>\245\236 \275\350\234\242=6\001\037\275\'\274R\275f\361m<\367\314\247=\024\312\220\275\335\232\027\275\260\336\201\275\207\325\000>\312y\342\274?\230\225=x\2678\275{\203\203\275\022\035\257=\250\345\232=7\266\257\275\rj\326\274d]v\275\327\005\316=\2000\340\273\250U\023=\354Z_\275\002\214\225\275\327=\004>\344-\215=\214?\257\275\274\261\032\274%M]\275\236w8=\206\324\035=\241\351\373\273b\221T\275Z?\243\275\006\264\300=\334V\221=\020\345w\275@\263\351<\263.\031\275D\024[\273x\326\223=\000W\001\275\241\001Z\2755\363\212\275\3005\364;\032\243\222=\374\253\356\274\3647b=\370Y\305\274\264\372@\274jb\226=L\276I\275\266\306\321\274\340\0139\275\206\253[\275\004\361w=\210\375\263:\376\005\337<r%\311<\206\376\232<\221%\264<\353\300\\\275\300\r\370\272}\0072\274\344\233\243\275T/1=\032&\021=\204\356\301\274j)\254<\230\212q=\226\233\014\274!\021\020\275@\362\002\2727\367\257<\263\231\230\2757\031\216<\332\214\243=BN[\275\340\276}:F/\254=\314\302\343\274\200\212\353\274F\236\234\274&\374/=\235\353`\275\324\336\n;\242z\205=\304HA\275\200a\206\270Jm\264=\003$\032\275\004T\336\274U\264\000\275\036\224<=\232C\025\275\030p\362<\212\237\306<\371]\"\275\017\305\344\2731\345\212=\177\352\362\274\312\004\223\274u\264\027\275\350O\372<N\343\334\274\232N1=\322\2050<\330\344\013\275|k\224\272\'\347@=:\331\262\274\346HG\274xF\021\275\367V\226<\004\255\230\274\324\376C=\232\311\304:\373\027\276\274\353w\025<\277\037\217<*\013\203\274\000\346\231\274\304\306\220\274\317\373s;I\305\'\274\320\342:=\333\275\030\274\221\3218\274`\343\377;\024\330\276\272\332?\033\274\264\034\002\2749\337\363\273:\223\3549\315\\\216\273\210\261\372<Q(\254\273\210\350\202\273\020\3140\272@\237\274\273\230\027;\273\237\236\201\273\210>\212\273\000\333A\272l\274\034\272\241\214V<\304\203\030\273\337\366\310\272\032^j\272\355\027\010\273\316|A\272\031\344C\273n5\235\272\000\000\000\000\000\000\000\000\000\000\000\000\000\000\000\000\000\000\000\000\000\000\000\000\000\000\000\000\000\000\000\000\000\000\000\000\000\000\000\000\000\000\000\000\000\000\000\000\000\000\000\000\000\000\000\000\000\000\000\000\000\000\000\000\000\000\000\000\000\000\000\000\000\000\000\000\000\000\000\000\000\000\000\000\000\000\000\000\000\000\000\000\000\000\000\000\000\000\000\000\000\000\000\000\000\000\000\000\000\000\000\000\000\000\000\000\000\000\000\000\000\000\000\000\000\000\000\000\000\000\000\000\000\000\000\000\000\000\000\000\000\000\000\000\000\000\000\000\000\000\000\000\000\000\000\000\000\000\000\000\362\252t\271\362\252t\271\362\252t\271(\240\t;\362\252t\271\362\252t\271\362\252t\271\362\252t\271\362\252t\271\362\252t\271\241\307{\273\306}\267\272\344\236\317;I\201,<\311\253\016\273\177\214\275:\033_U\273\240\235\363\272\251&6\273W\202D\273\244R\263;\325\261\261\273\024|\334<\\\306\261<\354\244\020\274\374W\267:9\225G\274y\002\340\273n\021@\274v\363+\274Us\016=\361\260{\274\321\010\206=X\256\204<\021\016\237\274\244\356\310;n\256\344\274{\344\222\274\267\277\230\274\312\272\276\274\263\252\204=\270\035\300\274\254\240\230=\330*\\:\255#\375\274\037\255\230;\260\213\272\274\225\214\342\274X\301\311\273\020\270\n\275\027s\242=\345v\t\275\276\026\230=\333.\262\273\243z4\275\245u\016<H\240\377\272\226\233\035\275\205\230\375;+\224>\275\321\367\253=\237]\036\275\343\214\245=Q\306\304\274>nY\275\300H\3437,*\376<\356\032\032\275\307\227r<\351\226j\275\025\354P=\212~\351\274\177\331\233=\032\037\035\275\342\234\204\275\314<t\274y.\237=\217\304\034\275\315BR=w)\222\275\276\2470<\253N\203\273\223\365\205=\034\030i\2753\237\214\275p\356\370\274\335\316\006>\013N#\275\336e\215=V\313\235\275p\320\301\274\303\031\'=)]\213=J\261\214\275\262Pu\275R#\022\275\264C\020>*\010\334\274\000\253R=~\345\260\275\002K$\275\017\304\263=\260&\200=\322r\223\275\247\244X\275\344\000+\275\235e\r>z\305\t<\325),\274Z\376\242\275\3621?\275*\031\324=\271Po=\230\351\213\275)\021\022\275\345\253Z\275B\236\307=\035\"h=\027\203A\2758\316\204\275\013\3454\275k\253\212=\333\277$=_W_\275\3601\000\272\217\357k\275\257\367\214=\300\300\233=\354oX\275\344\3520\275\355\242\016\275\002N\351\273\322\251)=\314\377\253\2743\350\254<\321\264\305\274\302\t\223=\304\270 =q]X\275\330\345\t\275Gp\251\273\037\022c\275\252\300\004=\314>\235<\330\237\230\272\357\2718<L\005\300=\246\345\214\2744[T\275\366\213\323\274\256j\021<y\362\227\275\016+\353<\346J_=\006\326J\275\310B\247<\202\322\322=_\351\357\274U\2200\275\027\203\236\274Li\265<$7\216\275\213\177\376<r\361\246=\002\221\212\275\314\207P<\347\277\273=\273\246E\275 \323\305\274\366\260\362\274\354\227\345<\356xQ\275\332\201\371<\276\306f=\216-`\275@\'}\272\201\240\243=\217\3469\275\305\033t\274 \030\342\274\233\316\365<s\346\372\274\345\245I=\345Ci<?\325\036\275\340~\030:\002ZX=\246_\354\274u\255>\274\203v\027\275\264s\253<n\211\252\274\356\010C=\264m$<w\330\336\274\200\246]<O\021\230<\031\035\253\274~\3240\274\274\267\375\274\3578P<\364\362Z\274<`V=S\363:\273}x\204\274\027]<<\007o\221\273C\t\\\274\256\354~\274\301\310/\274\334\267\003\273\260\010\013\274Y\027g=\334\3316\274\0333\001\274\374U\236;\035\3029\274\037\370\336\273\345\365(\274\266BU\273\020\000z\273_\000Z\273z\225\020=\000\244\302\273\252\016\222\273\260i\3279\005\376\345\273\020\016N\273x\342\346\273B@|\272\2267\335\271\374Y@\272/M\014<\256\265\231\272\367\251\200\272P\352=\272\322\014\003\273\214\276c\272L\327\362\272\202\263I9B\317\275\266\341\317\264\265\0314^9S\365\313\267\351\327\226\265\330\032,\270m\227#\270j\2113\267\371\241X\270\365\207\033\270\000\000\000\000\000\000\000\000\000\000\000\000\000\000\000\000\000\000\000\000\000\000\000\000\000\000\000\000\000\000\000\000\000\000\000\000\000\000\000\000\000\000\000\000\000\000\000\000\000\000\000\000\000\000\000\000\000\000\000\000\000\000\000\000\000\000\000\000\000\000\000\000\000\000\000\000\000\000\000\000\000\000\000\000\000\000\000\000\000\000\000\000\000\000\000\000\000\000\000\000\000\000\000\000\000\000\000\000\000\000\000\000\000\000\000\000\000\000\000\000\367&\350\271p8\007\272\370\366B\272\201c\260;\200]9\272\374\r\353\2716\360\361\271N\303`\272j+:\272\330\r\002\2722\024\222\273\033\342\003\273\270\355\007;X6\251<*\230\035\2734\2459:\246\037x\273\324u=\273!\244\231\273g\211Q\273\233\360\254\272\357\265\373\273);\352<\244\304\375<\332<\030\274j\025\243;;\365O\274k\n\027\274oVV\274X~8\274\370 \346<`X\207\274\253[\200=\270\367\025=\006\020\313\274\376(.</\244\010\275G\373\255\274,\247\202\274Z@\326\274_\336S=\331\213\336\274Z\004\231=\222\265\366<\034m!\275\215\177\214< J%\275j\317\377\274\250?H:\306\275\024\275\212E\212=4d\036\275\364T\215=\264p\022=T\237M\275\365#\376<\031\356\343\274\203\373)\275\274Qi;\256VG\275\260\352\224=d\264\t\275\375\014\207=*\r\252<\204\367g\275\266&\356<\360\345\330:dD7\275\r\036\362;\371\021\200\275|\337\214=\310\337\213\274oO\203=\324H\016\273\021\246\177\275\205\342\001<\267\020$=/H7\275\030A\305<\203\342\240\275\010\206\033=\224\006;<\315\355v=UO\233\274\225N\213\275\177R1\274I\341\257=~\204\025\275\333\014\013=z\363\302\275\212\344\005<\335\230)=|\371{=\215\263\001\275\211\324\212\275Z\352\272\274\242\352\354=\326\201\330\273\000\201\326:b\331\313\275W\211|\274\250\207g=d?c=\266\300\017\275\263\277\200\275H<\361\274\216\247\013>\255\357\222<A\244;\275\"\034\237\275\314\223\322\274z\211q=3\361\304<nC\327\274g\252H\275\302\262E\275;\350\017>\202\275J=e\252]\275\263\266\216\275\033\376\237\274\004\315\037=\n\221+\274t\313w\274\315\305\273\274\372\001/\275\220\305\374=\370\0042=\322M4\275DTQ\275o_m:\nf=\274]\033\202\274v%\240<\220\225\335:\210\317\271\274\032h\366=\022\330\260\273\\?\022\275\327\333Q\275\\\271\352;\027LM\275 \361\027<&xD=\"h\250\273\020\225\326\273\027\366\334=\272\346\016\275\334\002\340\274\354\243E\275\'\323\000<o\321\200\275j\017\023=^0\207=(\353i\275\271\014\342<\267+\260=\301>$\275\253\374\372\274\243\267\005\2756\014)<\030\257\204\275%\252\211=\227\260\200=\376\343\210\275\t\350\005=\355\\p=\010/R\275\362Jb\274\220U\017\275\223iJ<\023\356;\275\021\316\262=s\340\264<Ng-\275\362\213\321;.B\r=\026\225$\275\266\227\035\274\022\224\311\274\326\202\230<Fg\001\275\217\340\252=iY\010;\202\375\365\274\225\233\221<o\331\274;\2775\372\274\t\355\257\273\"\345\366\274\210M\017<\253\'\255\274\254\227\227=\334\301r;\016\210\234\274a\343\t<\210\216\300\273\221>\225\274\224\037\237\273\222u\322\274a(4;\224\343H\274\321\261\206=&|\005\274[\375D\274X$\376;\246\034<\274\362\027\034\274Aww\274\310C\375\273L\310\312\2730u\010\274\350\310b=\030V\034\274\355\025\331\273<>\201:\236W\035\274\224e\256\273\t\305G\274Q\363\275:pTS\273\022\277\235\273\210\315\336<\0351\202\273 \357C\273~\236h:\305\333\224\273>\0324\273\266\245\276\273\200\233\3267\217@\326\271\342\375\215\272\272\226\241;\235k\026\272\003\274E\272\347~B\272\354\304\306\272\340\025\215\272\266th\272\304M\n;\214\016\007\267\233\247\000\2669\033\2369\312\037\021\270i\251\326\265 \353t\270\245\315h\270\240~\177\267{$\232\270+U]\270\000\000\000\000\000\000\000\000\000\000\000\000\000\000\000\000\000\000\000\000\000\000\000\000\000\000\000\000\000\000\000\000\000\000\000\000\000\000\000\000\000\000\000\000\000\000\000\000\000\000\000\000\000\000\000\000\000\000\000\000\000\000\000\000\000\000\000\000\000\000\000\000\000\000\000\000\000\000\000\000\000\000\000\000\000\000\000\000\000\000\000\000\000\000\000\000\000\000\000\000\000\000\000\000\000\000\000\000\000\000\000\000\000\000\000\000\000\000\000\000\3126\255\2713T\306\271\346N\201:\344\300@;\020\034\373\271\000*\200\271\264\311\031\272,\305,\272DF{\272X\307\230\271\213\232`\273Yy\t\273T\342\222;\363\343\204<\207\324\007\273\231\260\314\271Mq<\273\223q \273\236\340\222\273\250\301>\273\254\337\177\273\353#\267\273\265x\225<A\221\343<,,\331\273\361\223\207;\tq\032\274u\345\346\273\304/\022\274h\252\r\274)2y<\013\345c\274\365\355%=\223\0033=\330\021\257\274R\223&<\267%\337\274\331\207\236\274X\240`\273\325\377\306\274\003 \010=\366h\356\274g\"0=`\374\214=d\331\034\275F\335\036=\014[>\275\010\264\002\275H\344y:\017\343\037\275\\\242P=9\331\022\275\n\371o=\033\036\257=D|]\275\013\032S=\240\024x\275\305\315\'\275\270.\030\273\3366X\275\356\301]=\362\345\320\274\207\217r=&\264\206=K\005d\275*H\202=\30173\275\243\351!\275\200\207\"\274F\007\214\275>\006\206=\345r\232\274\006\347_=\\\266\022=\276\205o\275\017FE=~\212y\274Y\020\003\275\020\332O\272/?\241\275i\217c=\242\241\325;\021\204i=\352S\233<\215\037\212\275\320\254\350;\314L\312;Y\326\241\274\340V\346<\004\351\274\275Y\3411=\351\316}<\255\343\\=!`\210<}@\221\275\236Jy\274\2364#=*\360\350\273\2502s<<<\272\275\276\010\274<\331\211`<\003.S<\372\'\255<\333\326d\275I>,\274\220\352\222=\030\231\257<\247\022n\274v\336\251\275\215X[<\307\025\333<\306\266\343\274\235\257\303<7UZ\275e\\h\274\337*\253=\234j\357<p\034\253\274\374mx\275\025\335!<u\355\311<\001:\202\275t.&=\236\377\321\274xA\241\274^\360\255=7\313H<\300!8\272w]\200\275W\321\305<\243\023\007\274\223\223]\275\312\203\200=\214D\203;\272G\026\274\230\344i=\032\264\344\274\364Dv;M]V\275\234[\226<b|\013\275Wc\211\274\355\275\202=\254O\260\273\327\353\312<\346\210\024=\333q\030\275p\323B;\324+X\275cr@<\002\371<\275Z\242\221<7\tq=\306\3378\275\212\2513=\t\255\206<\003q\010\275d2}<\336\371!\275\253\325\325;0\257=\275\3468j=J\217\360<\337\0040\275\206\363>=^\3373\274G\201\017\275\035\351O<\303\367\213\274t\254\020<\200\002\022\275\242L\274=Y\250\317\273s\353\330\274\247+\n=\356@\277\274$\352\377\274+^\200;\362\343{\2745\244\233;o\274\323\274\000l\276=\272\265r\273\3165\204\274\263*7<\006\031\213\2744R\316\274\014\2039\273\331I\225\274v^\362:\204X\204\274\261\202\214=\260\260;\272\214r:\274\000\026\243;\361\270\360\273\240\214\\\274\310\272\036\274\362\264\210\274\007\251e\273\362\032%\274\257\200N=\035\230\017\274|Q\005\274\260VY<*\351\331\273/\220\337\273p\362q\274\tw\242\2736Z\227\273\032/\344\273\010i\010=\351D\302\273\227\206D\273a\217\330:\3579\302\273\372\023T\273x\317\374\273\250q\037;\246\202\"\273\233\360\205\273\227\357\233<.\350Q\273=z\302\272\243+\324:\033\260S\273\323\376\005\273\\\007\246\273\016\321v: K\022\272\345\n\371\272\304n\316;\204\tf\272\016\316!\272\331o:\272\302\016\207\272\330\300G\272/\234\227\272s$\254:i6x\266Mrl\265sI\0219{[\205\267\272AE\265i\017\341\267g\355\325\267c\307\352\266\373\244\r\270\005c\313\267\000\000\000\000\000\000\000\000\000\000\000\000\000\000\000\000\000\000\000\000\000\000\000\000\000\000\000\000\000\000\000\000\000\000\000\000\000\000\000\000\000\000\000\000\000\000\000\000\000\000\000\000\000\000\000\000\000\000\000\000\000\000\000\000\000\000\000\000\000\000\000\000\000\000\000\000\000\000\000\000\000\000\000\000\000\000\000\000\000\000\000\000\000\000\000\000\000\000\000\000\000\000\000\000\000\000\000\000\000\000\000\000\000\000\000\000\000\000\000\000\242+\300\271|\233\235\271a\276\203;(\'\016\272/\353}\270i\311\367\270\214\302\204\272\260\217\031\271\224\257\261\272\376A\366\270#Km\272Z\231\326\272Pd\371;\223p\036;%\375)\272\273^\233\272G\210\374\272X\244;\272\261\244\030\273\263d2\272\324.:\273\246\232\203\273\365\202F<\201\200\234<\302(z\273\234\347\322:WN\300\273PO\205\273\252\244\360\273\032\271\237\273\336\211\271\272.o\010\274\256h\261<\265\365\037=\243eZ\274\221z\347;\330\026\221\274J\245Y\274\213\016d;\r\310\214\274\2660\200<\356\301\255\274\223L\256<=\372\213=\307\034\342\274\250g\246<\024\330\003\275\310\226\250\274.\315\000<o\207\002\275*\010\002=]\216\263\274\315;\031=\352\025\244=f+/\275\022\'\006=\263Rf\2751T\251\274\203\321\273;\256!=\275\340\352$=fFt\274&\372&=.\024\227=\013\243?\275,Sb=Gb\200\275\260\372\227\274\004V\002\274\202Tr\275\301\3632=\001h\377\273\267Z\375<\224,\224=\036+e\275\321Og=\261\316\207\275\360:\032\274b\234\022<}V\225\275Z\273M=\340IC\272\352\314\307<\237\214\217=\343\025|\275\340\002\013=i\204t\275\350G\000\274_:\002=p\037\245\275J\026g=\n\316\243;\034\244/\274S\314\250=j\342U\275\r\016\030<H\243k\275*\274\275;`w$=2\366\240\275[\350`=$jt;\341\177L\275\022]\240=Y\223@\275\360\004T\273\235\263E\275\262\263\322<[:U=\030\273\207\275q\212-=\307\241E<B-\231\275\013*\225=0;1\2750c\250:-[\030\275\t\226\302<\\uC=\237Y7\2754\375\030=6\340\217<S\003\257\275[\315\206=\270\033E\274\214,\214<\276\230G\275\000\253\3138\327\217`=\242\255>\275\366\274\345<\220\330\205;\3614\223\275q\031\\=\036\356\203<\030\236&=\021\244V\275\234\025\305\274\310\357]=.\237F\275\314Vh<b\3608\274\210\252F\275\305o\\=\350\311S;\314\177Y=V\2606\275\030`\322\274\276p<=\240\353$\275\270\333\315:\210\331\340\274\354\206\230\274\357\355\037=\236 \245\274\334\373\\=\322o\031\275_\013\241\274\333\0146=\355^\200\274h\311\224:\277\361\355\274\361/\214<C\355M;r\247\271\274\215\\H=\301\216\n\275\305\033\254\274\271\017\352<\334=\373;\351\222\231;X\241\312\274\354\324H=\300\211\002\273\331E\367\273\024\177\240<8w\341\274;E\222\274\301\343*<9\374\205\273\312Y\314\272\274;}\274\267Mn=\006=\027\272\356iX:\322Bc; J\213\274\360\333\215\274\\\246\261\2736h\250\273\'\204\213\273B\304\377\273R\3246=K+\262\273\275V\302:\262n?<n-\013\274\2007\021\274kJo\274\236\241\010\274\260\007\245\273z\030\223\273TL\373<\257I\306\273\245\363A\272$\251\000<g\177\313\273&w\222\273\236\232\'\274\"\276\252\272C\250G\273\355\220\010\2734=+<\333\347.\273?)\222:\204\215\007;\026JB\273\273\317\361\272\327\366|\273\340\2629;\204\366\225\272c\'\246\272\364,\307;\227\225\265\272\261\262\t;N\327\206:\266/\267\272\334\274\020\272!O&\273J!r\272!9!\267\016\006\257\271\340#\3769l\273\254\267\312\360\250\267\n\010\306\267\362\376@\270O\321\014\267\277\230)\267\350\262P\267\000\000\000\000\000\000\000\000\000\000\000\000\000\000\000\000\000\000\000\000\000\000\000\000\000\000\000\000\000\000\000\000\000\000\000\000\000\000\000\000\000\000\000\000\000\000\000\000\000\000\000\000\000\000\000\000\000\000\000\000\000\000\000\000\000\000\000\000\000\000\000\000\000\000\000\000\000\000\000\000\000\000\000\000\000\000\000\000\000\000\000\000\000\000\000\000\000\000\000\000\000\000\000\000\000\000\000\000\000\000\000\000\000\000\000\000\000\000\000\000\000\000\000\000\000\000\000\000\000\000\000\000\000\000\000\000\000\000\000\000\000\000\000\000\000\000\000\000\000\000\000\000\000\000\000\000\000\000\000\000\000\000\000\000\000\000\000\000\000\000\000\000\000\000\000\000\000\000\000\000\000\000\000\000\000\000\000\000\000\000\000\000\000\000\000\000\000\000\000\000\314\317>\271\031\\v\272\342K7;\226\342\2678\203c\231\271\354\375\323\271\200\367\t\272u\277\036\271\243\372@\271Q\024V\271\200\016\307\272\036\235\007\273\357\331\270;u\231\203;\346\036\001\273,J\236;\242\3049\273\224v\324\272\2708*\273w\376\365\272\256\033\213\273Y\030\242\272\277[O<\230\213\215<(7\303\273V\237];mu\032\2742Lm\273;3*\272\242\002\006\274\366\017\371\272O\023\r\274\330\231\206<\362\221\024=\354na\274\203\r.\273GV\211\274\334\206q\273-\023\031<\317Xp\274\372\263\375;$\257\"\274\212\335K<\217\031V=\271\244\273\274P\006d\272-}\000\275\321H\364;PU\372;\222\037\270\274\270\350U<\236\316\200\273\2540\371\272\'\276\203=Ec\357\274*`\301<\3301;\275$-m<\3607\255\271\230\320\014\275\354\354\204<\240\371]:^4\271\274D\305\230=\341_6\275\2003_=\276\335j\275EQn<\300\0342<\032\360@\275\334\034\236< \303~:\262\260@\275\237+\245=b+2\275\322mN=\201\023\215\275B\245O<v\372\031=?\257,\275%x\274<8\243\351;o\301\217\275G\t\247=mx#\275\245#:=\3700\236\275\250l\245<\332\331a=\241\3318\275C\333\345<n\372\361;!\314\300\275\344\242\241=\026Y_\275L\343)=4\333\262\275\236\2067=\205X\215=\364\345\t\275j\247\254<nlD<\227I\300\275\303p|=\301\225.\275\204\200F=\227\230\265\275\0378\033=vN\225=\n\266\353\274YZI<\322\264\260<\360\242\276\275\203r(=\000\027\3229g\0258=\013O\254\275:\341\315;\346\337\240=(\352\344\274\266c\000\273<\2567:\000U\233\275\343\002\004=\310\222\315<\255\264\202=\254\302\224\275tsn\273DF\215=\030\204\026\275@\344\353\272\266\226[\273m\236H\275\341\336\235<|\212\004<\336i\207=XFm\275\373\"\324\273H\332(=\314|\204\274U\372\032\274\244\330H\274r\264\320\274\347\326o;\310\024~\272\'\277,=\224\2526\275N(\013\273\323\307 =\347\177 <\252\327\240\273\026\207_\274\256\320\014\274\372\336\246:\352\370\006\274\035,\247<\200i\367\274\251\213w\273\004\021\244<#\216\342<\256\321\331\273o\177-\274p\214\'<\306 E;\344\037\257:\032\361\017<z\'\214\274\242\331\253\273\010L\264\271Z\316\207<\202/\370\273\002\013\340\273@_\336<\326,\224\273\177^U<\262d\021<Zr\020\274\205\212$\274\370\327j\274>\033J;6\377\276\273\364>}\273L\246\332< \351\007\274\236Q\361;\342\213\274;\342\230\275\273\330q\250\273D #\274\030\324u\272\340\006^\273\364%\027\273E\'\221<$\265\220\273j\004\271;\276:\212:+O|\273k\3436\273\302\027\353\273\244\234\001\272\346\025\014\273o\037_\272:\364\\;Z\241\002\273V_\202; \022\353\267\355\245\335\272X\023\274\272\3512+\273\345\261^;\372\233\303\271_\310\311\270\234\230\272\2673e(\272\227\353<;\252\2052\271>\275\351\271\346\215\253\271\035\245\273\271\244\247\352\271\000\000\000\000\000\000\000\000\000\000\000\000\000\000\000\000\000\000\000\000\000\000\000\000\000\000\000\000\000\000\000\000\000\000\000\000\000\000\000\000\000\000\000\000\000\000\000\000\000\000\000\000\000\000\000\000\000\000\000\000\000\000\000\000\000\000\000\000\000\000\000\000\000\000\000\000\000\000\000\000\000\000\000\000\000\000\000\000\000\000\000\000\000\000\000\000\000\000\000\000\000\000\000\000\000\000\000\000\000\000\000\000\000\000\000\000\000\000\000\000\000\000\000\000\000\000\000\000\000\000\000\000\000\000\000\000\000\000\000\000\000\000\000\000\000\000\000\000\000\000\000\000\000\000\000\000\000\000\000\000\000\000\000\000\000\000\000\000\000\000\000\000\000\000\000\000\000\000\000\000\000\000\000\000\000\000\000\000\000\000\000\000\000\000\000\000\000\000\000\000\000\000\000\000\000\000\000\000\000\000\000\000\000\000\000\000\000\000\000\000\000\000\000\000\000\000\000\000\000\000\000\000\000\000\000\000\000\000\000\000\000\000\000\000\000\000\000\000\000\000\000\000\000\000\000\000\000\000\000\000\000\000\000\000\000\000\000\000\000\000\000\000\000\000\000\000\000\000\000\000\304\267\270\271\206\377\224\271K\211 \271\271\244\27396\345\310\271\244\254&;\010\361\361\271\211k\232\271XS)\272z%\253\2711\355T\273\231\302R:o\377d\272\220\315\210;\362V2\273\273\241\263;E\266V\273\255\007\224;\216\262v\273\226c\217\272C\237\332\273lN ;\227\326W\273z\360\017<\373\036\034\274\335\020\210;r}\331\273\342\210\013<}\005&\273\350\035\234;\371\241\022\274^\372\037\2730\216\320\273>i\220<Y\332N\274\n\221\261\272\376\314>\2746{\356<\375>\020\273U\300\227\272s\2418\274\026\013D\274C\016\201\274\332\026\034=\336WC\274v\250J;\351N\210\274\204\\>=T\233g\274\n;\304\273\222F\225\273\303B\220\274\344Q\355\274\007Oe=\002\201\321\2748%\224<\365\215\271\274\264AF=#\014]\274\260\226\035\274\322;\352\273,\353\\\274;p\027\275\261\260G=P\t\005\275\376\332$=\236b\000\275\354o\020=\013 \310\273 mV;Q\027\\\274m\002\234\274g\235=\2750\326\002=\203\035\025\275\371F:=\325O\031\275\217\342f=\310\2044<\374\206\377;\250\233\254\274\311\r\231\274\254\334U\275\032?\235<\362\270@\2759\002?=\242\3546\275V\221\215=\334\315\327<2W\267<\361\303\337\274Fgg\274\334\030Y\275zh\346;VZ\t\275\207\353C=\206\007S\275\234v\206=\377\200&=^\037\226<O\234\331\274D\2607\274\361\233>\275\000\275\r\273,j(<\272i8=\2271P\275H\020\370<\343\013\026=\034-w<\003Z\277\274\314x]\274WY\003\275\320\267\350:\214\274\371<y\177\t=\3016\037\275\n\344d<p\017\225<L\334 <tVl\274iWk\274A\244\245\274\210}+:+ \026<?J\215<:\210\334\2740:K<\254<\022<\276\221\341< \351;\274h&/\274\264\031$\274\000>\2607\313\347:\272\332p\313;8e\253\274\320\020@<$s\031\273fw\034=\322\371;\274j\215\363\273p\341\220\273\350\226+\272}ii\273%_\257:N{\201\274\370\353\245;2\3676\274?\024E=\314w\361\273\016.\214\273\346\312\221\272\314\007\215\273\334\005\203;\274\022\316:\267\026\037\274\334\350\244:\362\t)\274>\347\367<\003\033\225\273y\037V\273\002?\320;\233\245\335\2733\266\007<\022\262\221:\300l\263\273\036\001~\273\224o\001\2748\301\203<N\360\021\273\337\370\022\273.\216_<\371\312\203\273\274\022\025;\277\245\343\271\"\3768\273\027A\"\273V1\256\273GJm;:\017\241\272\324S\351\272\206\315*<|\272\010\2732\324\006\271\322%v\272Y\233\310\272\322\270\266\272Z\251;\273*\000\310:\340\346\240\272>\036\303\272\024\246Z;c\321\244\272s\333\2539\024%+\272\331J,\272\302\342{\272\205\022\271\272\326\323\202;\366\231\200\270\001\372*\272L$\020;\363\005\010\272x\200\2449\267\265W\271\270T\227\270E4\321\270E\357+\272\313\240\201\271\000\000\000\000\000\000\000\000\000\000\000\000\000\000\000\000\000\000\000\000\000\000\000\000\000\000\000\000\000\000\000\000\000\000\000\000\000\000\000\000\000\000\000\000\000\000\000\000\000\000\000\000\000\000\000\000\000\000\000\000\000\000\000\000\000\000\000\000\000\000\000\000\000\000\000\000\000\000\000\000\000\000\000\000\000\000\000\000\000\000\000\000\000\000\000\000\000\000\000\000\000\000\000\000\000\000\000\000\000\000\000\000\000\000\000\000\000\000\000\000\000\000\000\000\000\000\000\000\000\000\000\000\000\000\000\000\000\000\000\000\000\000\000\000\000\000\000\000\000\000\000\000\000\000\000\000\000\000\000\000\000\000\000\000\000\000\000\000\000\000\000\000\000\000\000\000\000\000\000\000\000\000\000\000\000\000\000\000\000\000\000\000\000\000\000\000\000\000\000\000\000\000\000\000\000\000\000\000\000\000\000\000\000\000\000\000\000\000\000\000\000\000\000\000\000\000\000\000\000\000\000\000\000\000\000\000\000\000\000\000\000\000\000\000\000\000\000\000\000\000\000\000\000\000\000\000\000\000\000\000\000\000\000\000\000\000\000\000\000\000\000\000\000\000\000\000\000\000\000\000\000\000\000\000\000\000\000\000\000\000\000\000\000\000\000\000\000\000\000\000\000\000\000\000\000\000\000\000\000\000\000\000\000\000\000\000\000\000\000\000\353\315\247\272- \016\272\245*!\272.\310\020\272\332W/\272\252\207;\272Sy2\272#\311\267;\334\310J\272\300\035f9\260\220E\273\270\210\323\272\321\231\010\273dk\177\272\026\223m\273@\2359\272\366\241\304\272\276T6<\007\3643\273\026[\250;\273D\252\273\3257\231\273\"\364\313\273\351F\326\272\302=\010\274\365\266\304\272\003\307X\273sX\010=O\325\313\273\276Ax;\302\010\363\273a\245\333\273\265=\013\274\374\355\221;\352\2276\274\n\304h\273K\022\252\273\361\020>=\322>,\274\242\253\r;7J\021\274\375\372\353\273<\376\000\274\364=\005<\210\0148\274\344\344\213\273\277\305\275\273a\257D=y#S\2742?\001;\207\247\"\274\023\261(\274\031\352\037\274d\364\323;\304\006\203\274\2267\027\273l\261\032\274\024\275[=\026\323-\274\"\264\006<5yi\274\275\361U\274\344\337Y\274\344\266\3069z\321\312\274\241\314)\272K\246X\274\210)\223=`\253i\274&-\256<\225\007\236\2747\272o\274Ab\203\2744\032\316\273\234\326\t\275\211N\367:U(\202\274\206\375\241=j\272\233\2748y3=G\231\233\274\304mW\274\332\302g\274k\357\213\273r\260\332\274*\022p;\206\037p\274\343\260\203=\337g\243\274\326\3073==\205V\274\347d$\274ln1\274\270\216\332\272\242\355W\274\'\3533:\326%9\274\017\274\030=\261\001\234\274\224\244(=o\270$\274\323q\347\273\345\377\004\274Tfa\273\005\000r\273\310\246@\271\323h!\274\313S\324<\3524\231\274!\036\020=\353\312\004\274^\270\247\273\323\251\360\273\354\212\226\273\014l\325\273dGb\2738% \274.\301\260<\275\232y\274\275\361\035=7\313\342\273\340\255\204\273\372i\376\273,\027\327\272 \201[\274\340\312D\270|\210\t\274Dbm<\365A3\274\242`\036=!w\317\273I\271\177\273RG\353\273(\0055\273\361\252<\274\252d\300\272\202\347\007\274\3731\000<u\266\026\274\225l/=/\207j\273x\231\030\273D\034t\273\2273^\273\330LO\273k\316\257:\353!\254\273%\223\005;\005\346\253\273\\\352\276<\\o\346\272\032\275\200\272\214\227\247\272cy\037\273\243F\331\271\252|&;\036a\034\273d\001\350\272\027\310;\273^\3549<@\221\230\272\332\003\344\271\215s\026\272\037|n\272\223EX:\253c:;\331\374\210\272\254\007\206\272lm\310\272\356HE;\336\216\026\272\241p\276\271\251\301\023\272\306T\n\272\355\233\3209K|3;\034\344\374\271N\010\033\272bu\361\271\004\247\3379\253\2236\272\340T!\271\002\327@\272\332\374(\271\306\"!\271\206\\\3668\270\337\261\271\266-\001\272\',\272\270\32571;\000\000\000\000\000\000\000\000\000\000\000\000\000\000\000\000\000\000\000\000\000\000\000\000\000\000\000\000\000\000\000\000\000\000\000\000\000\000\000\000\000\000\000\000\000\000\000\000\000\000\000\000\000\000\000\000\000\000\000\000\000\000\000\000\000\000\000\000\000\000\000\000\000\000\000\000\000\000\000\000\000\000\000\000\000\000\000\000\000\000\000\000\000\000\000\000\000\000\000\000\000\000\000\000\000\000\000\000\000\000\000\000\000\000\000\000\000\000\000\000\000\000\000\000\000\000\000\000\000\000\000\000\000\000\000\000\000\000\000\000\000\000\000\000\000\000\000\000\000\000\000\000\000\000\000\000\000\000\000\000\000\000\000\000\000\000\000\000\000\000\000\000\000\000\000\000\000\000\000\000\000\000\000\000\000\000\000\000\000\000\000\000\000\000\000\000\000\000\000\000\000\000\000\000\000\000\000\000\000\000\000\000\000\000\000\000\000\000\000\000\000\000\000\000\000\000\000\000\000\000\000\000\000\000\000\000\000\000\000\000\000\000\000\000\000\000\000\000\000\000\000\000\000\000\000\000\000\000\000\000\000\000\000\000\000\000\000\000\000\000\000\000\000\000\000\000\000\000\000\000\000\000\000\000\000\000\000\000\000\000\000\000\000\000\000\000\000\000\000\000\000\000\000\000\000\000\000\000\000\000\000\000\000\000\000\000\000\000\000\000\000\000\000\000\000\000\000\000\000\000\000\000\000\000\000\000\000\000\000\000\000\000\000\000\000\000\000\000\000\000\000\000\000\000\000\000\000\000\000\000\323>\023\272\323\227M\271 VJ\271\203\301\\\271|\257O\271\266~u\271\231\213\202\271\376\300\032;\"R\220\271w{\177\271\205\224(\273{D\013\272\267c\021\272\235\276\031\272\351\311;\272\241\247M\272\215zO\272)\027\016<\264\221\245\2720\252d\272\222QA\273\325\307\263\272\302\337\316\272\276\003\256\272\331c6\273*\216\275\272O\037\322\272\3768{<QE\035\273\2502\0049\336\364:\273=\371\247\272\241\307\246\272O\\\206\272\2631Y\273\355\242\264\272\003<\264\272@\375/<\372\224z\272\336\3241;G\376\007\273\276\250\320\2720\326\301\272\371\373\311\272\n7\206\273\337\356\371\272\246\005\326\272\357\003I<K\"\360\271\235\230$;\372K\213\273\312\035`\273_\020\202\273\017\363\201\273\263y\r\274\\\274\232\273\201\031\205\273ao\032=\253WN\272\367\020\177\273\304\005\312\273&\233\276\273i\246\307\273\024\t\302\273\343T\206\274\3746\362\273\270.\302\273\324\014Z=\216f\253\273\200\t\273;\001l\334\273\311@\311\273~\313\327\273\226\311\334\273\344\360\202\274\247\270\005\2741\357\333\273\216\336S=5\201\232\273^y$<\264\025\242\273)\007\227\273\\\370\223\273\177J\243\273L.6\274\301\321\302\273\304\256\230\2735\030*=\245\217~\273\000\206M;*\215\205\273\n\320[\273\340\270]\273\350\306\222\273\373)C\274\216\345\217\2737hk\273\032V\320<\314\227\260\273\306\"x<\177)h\273\033\022\005\273\022\367\004\273\016\236Y\273\245\336\310\273\340\362o\273\304\215.\273\360\374\237<\341\261\226\273\274b\n<I\353_\273\345y!\273[\001h\273\300\321\241\270\033\265\332\273\205\325\237\273\021\217`\273\322Q\222<\001X\215\273\265\0163<\032.\034\273\307\320\030\273V\216\212\273z\201\361:\002I\006\274\373z\214\273^aA\2737\004\035<\2506U\273~\277\204</\210\355\272\305\335\257\272\371M,\2730\353\3679&~\240\273?G?\273T\217\030\273\314\370\274;\306\301 \273\250\351F<\236$\266\2725\337\013\272>n`\272\326M\327\272\311 \267\272}\014\350\272Q\254\377\272\022\\\010;H%\017\273\247\000\036<(m\022\271&\"?\270\372p\255\267\3205g\271\246\346\301\270\036\325c\271\013q\247\271\315\000\227\271\260F\257\271e\352\333:\000\000\000\000\000\000\000\000\000\000\000\000\000\000\000\000\000\000\000\000\000\000\000\000\000\000\000\000\000\000\000\000\000\000\000\000\000\000\000\000\000\000\000\000\000\000\000\000\000\000\000\000\000\000\000\000\000\000\000\000\000\000\000\000\000\000\000\000\000\000\000\000\000\000\000\000\000\000\000\000\000\000\000\000\000\000\000\000\000\000\000\000\000\000\000\000\000\000\000\000\000\000\000\000\000\000\000\000\000\000\000\000\000\000\000\000\000\000\000\000\000\000\000\000\000\000\000\000\000\000\000\000\000\000\000\000\000\000\000\000\000\000\000\000\000\000\000\000\000\000\000\000\000\000\000\000\000\000\000\000\000\000\000\000\000\000\000\000\000\000\000\000\000\000\000\000\000\000\000\000\000\000\000\000\000\000\000\000\000\000\000\000\000\000\000\000\000\000\000\000\000\000\000\000\000\000\000\000\000\000\000\000\000\000\000\000\000\000\000\000\000\000\000\000\000\000\000\000\000\000\000\000\000\000\000\000\000\000\000\000\000\000\000\000\000\000\000\000\000\000\000\000\000\000\000\000\000\000\000\000\000\000\000\000\000\000\000\000\000\000\000\000\000\000\000\000\000\000\000\000\000\000\000\000\000\000\000\000\000\000\000\000\000\000\000\000\000\000\000\000\000\000\000\000\000\000\000\000\000\000\000\000\000\000\000\000\000\000\000\000\000\000\000\000\000\000\000\000\000\000\000\000\000\000\000\000\000\000\000\000\000\000\000\000\000\000\000\000\000\000\000\000\000\000\000\000\000\000\000\000\000\000\000\000\000\000\000\000\000\000\000\000\000\000\000\000\000\000\000\000\000\000\000\000\000\000\000\000\000\000\000\000\000\000\000\000\000\000\000\000\000\000\000\000\000\000\000\000\000\000\000\000\000\000\000\000\000\000\000\000\000\000\000\000\000\000\000\000\000\000\000\000\000\000\000\000\000\000\000\000\000\000\000\000\000\000\000\000\000\000\000\000\000\000\000\000\000\000\000\000\000\000\000\000\000\000\000\000\000\000\000\000\000\000\000\000\000\000\000\000\000\000\000\000\000\000\000\000\000\000\000\000\000\000\000\000\000\000\000\000\000\000\000\000\000\000\000\000\000\000\000\000\000\000\000\000\000\000\000\000\000\000\000\000\000\000\000\000\000\000\000\000\000\000\000\000\000\000\000\000\000\000\000\000\000\000\000\000\000\000\000\000\000\000\000\000\000\000\000\000\000\000\000\000\000\000\000\000\000\000\000\000\000\000\000\000\000\000\000\000\000\000\000\000\000\000\000\000\000\000\000\000\000\000\000\000\000\000\000\000\000\000\000\000\000\000\000\000\000\000\000\000\000\000\000\000\000\000\000\000\000\000\000\000\000\000\000\000\000\000\000\000\000\000\000\000\000\000\000\000\000\000\000\000\000\000\000\000\000\000\000\000\000\000\000\000\000\000\000\000\000\000\000\000\000\000\000\000\000\000\000\000\000\000\000\000\000\000\000\000\004\026,\2720\333\023\272G\025=\272\022\010H\272\255\313\234\272\010\001+\272A\032f\272\337\330\343;\376\247G\272\312]G\272\036l\177\2728\260\037\272\016\353J\272\315\tS\272q\2614\273\314\232N\272\007\304t\272\234|&<\022\320}\272\363a\313\272\320\375U\272\337R\240\2716\266\346\271\306_\315\271*L\n\273\244\334\367\271j\336\315\271\362m\352;\016\257g\272\010\300\257\272\035\250\352\271M-\303\270\246_\032\271&\235y\271\\\264\013\272\260\354\220\271\325\271\037\271\020CR;cA\200\271\272\014\215\272\020/\273\271\227\336H\270\253\325\242\270;\335[\271\333\037\247\271\375\243p\271\361\230\351\2709\212\037;\021x\377\270^\326{\272$\367J\272\023\254o\271[\230/\271\014\331/\272\031\240\034\272\316\325#\272iX\361\271B\250\260;n@1\272\030\037\234\272\246;^\272\277\220\010\272\230\206\330\271\032v~\272\314\367\200\272\334\004s\272A\2737\272|\377\376;\347\343\214\272D\377\257\272\244\266\325\271\203\023\213\271VV\372\271\035\3331\272\02149\272\272\367\337\271\354\364\024\272\255\377\220;\246\344\360\271\257\365\343\271\016\027Z\271\257\252\n\271\313e{\271\243\237\260\271\202{\267\27160a\271\342\216\223\271Ae\021;\037\333t\271\032\315h\271\246\234\353\266\364\035)\266J&\276\266\221Z\272\266\245\222\257\266k\334\257\266\237\231\214\266\246\030S8$\027\365\266\344\370\376\266\000\000\000\000\000\000\000\000\000\000\000\000\000\000\000\000\000\000\000\000\000\000\000\000\000\000\000\000\000\000\000\000\000\000\000\000\000\000\000\000\000\000\000\000\000\000\000\000\000\000\000\000\000\000\000\000\000\000\000\000\000\000\000\000\000\000\000\000\000\000\000\000\000\000\000\000\000\000\000\000\000\000\000\000\000\000\000\000\000\000\000\000\000\000\000\000\000\000\000\000\000\000\000\000\000\000\000\000\000\000\000\000\000\000\000\000\000\000\000\000\000\000\000\000\000\000\000\000\000\000\000\000\000\000\000\000\000\000\000\000\000\000\000\000\000\000\000\000\000\000\000\000\000\000\000\000\000\000\000\000\000\000\000\000\000\000\000\000\000\000\000\000\000\000\000\000\000\000\000\000\000\000\000\000\000\000\000\000\000\000\000\000\000\000\000\000\000\000\000\000\000\000\000\000\000\000\000\000\000\000\000\000\000\000\000\000\000\000\000\000\000\000\000\000\000\000\000\000\000\000\000\000\000\000\000\000\000\000\000\000\000\000\000\000\000\000\000\000\000\000\000\000\000\000\000\000\000\000\000\000\000\000\000\000\000\000\000\000\000\000\000\000\000\000\000\000\000\000\000\000\000\000\000\000\000\000\000\000\000\000\000\000\000\000\000\000\000\000\000\000\000\000\000\000\000\000\000\000\000\000\000\000\000\000\000\000\000\000\000\000"
      }
    }
  }
}
node {
  name: "Variable/read"
  op: "Identity"
  input: "Variable"
  attr {
    key: "T"
    value {
      type: DT_FLOAT
    }
  }
  attr {
