node {
  name: "Variable"
  op: "Const"
  attr {
    key: "dtype"
    value {
      type: DT_DOUBLE
    }
  }
  attr {
    key: "value"
    value {
      tensor {
        dtype: DT_DOUBLE
        tensor_shape {
          dim {
            size: 676
          }
          dim {
            size: 60
          }
        }
        tensor_content: "\007X\365eQ<\362\2772w_d\251*\323\277\216U\023?\277\311\324?\256\2405\355\303\244\333?\215\r1Y\363u\341?\362Q\372qR\327\360\277\246rPe\364R\353\277\346\000\323\223\277\367\326\277\276\202\315\363\244+\346\277\\\220\214*\2750\364\277\246\373Z\037@\006\346\2774\346\005\'\355\031\365\277\316\371\370+J\334\351\277\202\276\221\337\035Y\332?uG\267\360\261\346\320\277}[\2746\331\222\301?\3459\377\"\036\306\327?\330\261\326{r\236\354\277y P\364\231\017\346\277\210-\265\317C\033\327\277\311\216l\245\322\332\352?^j\242g\232d\340\277\240\262\346\250\007\t\372?\226k\030\366f\347\343\277\300\306$\030A\013\300?\326\324\327\000\267\323\361\277N\362\033M\002\353\342?n$\204Sh\234\342\277\240\017u\200I\320\263\277\016\207\231\035[9\376\277\277$\271\232\023\037\325\277\014Rr`\220\257\361?c~[a\036Z\365?3\232\020\000\270\317\276\277@\364\240\312s\331\372\277\315\211l\277\340\233\306\277=\240rb\341\344\341\277\3241\351\3376\222\364?!\003q\016aH\304\277\3766\215\301b\231\351?\215\375\320\232,\233\352? \203#\340\366\335\311\277\262\341\307\344#h\353?\202\312::\023~\326\277\034%5(\320H\367\277\032\005\2021\357W\352?i\322\250\226\376\320\352\277\232\235q\254s\311\354?\363\033\343\257\017\240\270?<\226\344s\007\313\267\277\235w\014\304\n$\320\277\363C\006\322\312w\345?*2*)UE\360?\231Gk_\267\320\342\277\005\307\363\371h\205\003\3008\370GI\353\005\362?\220\371\274\006s\263\335?\254j\231.\334F\323?\227\203|n5}\362\277\377\322en\000\001\366?\226~J\204c\336\334?|T\217\267/e\323\277Mwf\352*\331\303?\262=\224\346\343\307\355\277I\360\200\2306\335\342\277\337\374+\327\372&\006\300\342\031\201\262\240W\322?\305\341\252\375c\220\341\277k1\377/\001\337\337?.\037C\275;%\327?\213\250\2552\0009\333?$\371\337\037\364\242\344?\357\321\345\362\215\216\363?\263\222@\r\307\301\323\277\371\220\232\214\3239\337\277K\034(\335\2234\336\2770{X\024\267|\352\277\3332Z\264\250G\373?\330\332\334R\206E\372?d\230\2564\2713\356\277\246EN\310\200b\343?\221\316(\204v\013\353?\304\261\202\016\221(\362\277\251if,\033\350\351?\243~\270\001\361\347\350?\260.\231q$k\361\277/==\205r\002\326\277\206I\246\307\2675\361\277\346\035\250\315\240O\320\277(\0104\241\216\300\344\277&]\352P\330\355\321?\301\006\340\276:\320\373?\374\332\220\270\"\213\327\277\214\324\001\213y\275\371?L7@\007\364B\000\300\320U\322t0\377\342\277\305\322VI\357\203\321\2774C\337\266\253\005\346?V]F\262\304-\350\277P\312\352\007W\331\342?\361\271\037\016@O\002@\326\301${\320G\354\277\204\373\363\225\034\200\330\277\216=[L!x\325\277`\2563\n\374\247\252\277\032i\"K\317\220\345\277\213\027\342.\213s\321\277)\205\326U\330k\271?\362\271HRc9\000@(jz\004\375/i\277\377\376\233N\261{\321?\336ea\341\n\240\326\277\335\360*`\224A\350\277:\037h!\274o\356?*q\007E\234\032\351?\333\222\371}\265\231\337\277\360{N\037!v\330?\032V\026\034/\301\240?\220nq;^\024\346?<J\223kdR\330\2770?\250OC\200\346?\351Sa\275\253#\365?\356\235e\201L\272\321\277\033\234@r\263\221\366\277\000\014H<T\237\363\277\317$\025\003\210\t\332?\336k\236\237\225\264\321\277\225\363\246#K9\273?\322\223c{~8\347?\013\370\331s\224\257\355?\235\332\031V\367I\334?\210\315\243\374\314\250\374\277\317\327\005t\3463\332?\360&\371\344\227\326\350?\267Lo\030\375\007\331?\017g\024\326\260=\323\277SW\017!\020^\321\277\3623\337\233\204f\334?\232\031\030\377\234>\366\277\364\030>\232\207=\257?%\373\355u\030\237\347?4U\330>E9\332?\370\242\210\343\271\"\360?Eb\244=\014\266\355?\017\255\337\206\004<\377\277G\260V\314\213F\370\277Y\233\355\263\245\221\272?\306\370\330YN\313\374\277\354VE\265xY\351?-@\230E=S\360?m\317\322\335\215\226\343?\340}\030\034i>\347?E\263\206+\307Z\311\277\311\017\306\0072\314\315\277K\312\226\232\373\345\325\277\244L\306\351\212\210\337\277]\257S\277YH\350\277l\242\354\026x\263\331?\301\030(\231\235z\363?\240\304\010\342\324*\007@\334\317\037\010q\247\342\277ms\006\337\351O\361\277fy\201\246~\372\372\277\361\201\022l\2725\365?\350\237\316M\303E\373\277\370\317\363R\030.\301\277\343\004\221\254,{\326?-\215\260K\343\317\363\277\337\36093\337\367\340?\212\352\221\214\350\215\306?\006;\354\016\016\241\327?\014\345\370\311f\236\237\277(v\177.\365\264\320?\243\363\207zU\213\372?\027e\\\227\336\222\317?)\225\345\365\214D\326\277]\027\253R\032\004\351\277\177>Q\036\346\300\350?\270\034\371X\364|\343?\036\353\233\332\251\350\346?N\350\275\211\315p\003\300F\233\263Z>\202\363?\037\3535:\232\232\351\277\334\037\240\033\366?\347?\301\313*\315io\320\277\265\223r\372\223K\335?5h\225\205\3234\346?\240\211\305\276J\241\361?\n\352,\353B\365\307\277,s\254\315\005`\357?\33266hb\312\343\277,\376\205\221\324\332\323\277\201\337\344\001\313a\327?\230\311\205+\365U\351\277\024\2738\222\265\337\310\277\370l=_\276\321\344?c\346w_6\253\345?\212k 7\221\036\005@\307\021\363x\374\n\262\277WE\"+fT\360\277\241Y\0271\022\024\307\277<\371\214\226*Y\314\277\003\220\315\243\013a\365?\003\360\366\034\3626\315?G\311\213\214.w\327\277UN}\033\177w\346?|\304Q\203%0\367?\353\344/\206\246\255\340?F\231\023\264\0377\241\2778\372\3437\307\312\344?\302`\276\347I?\374?\311\035\345H\332*\360?\304\254\262zW!\315\277m\260gk\225\373\227\277\243{\330\035\027p\334\277\326\317\312\252P9\255?\246\265\334?\257\351\343\277\371N\210M\252\350\271\277\025\362\330 1\370\370\277\030\330\022\225\277\247\353\277\330\314\325\013 0\346?\271\300(x\371G\362\277\300v=\220\'\254\355\2771Q\333\336\277\224\364?\226\356\200(\315\026\324?\341\255{`\333\002\355\2777\204m\343rs\320\277%\322\340\262\020\025\360\277\260\273j\347\344\232\314?\226ezS\n\213\343\277\030\225\014\262H\372\303?u?\265\221\237 \353?\225\320U\003\022N\355\277/\251\355\005\3475\353\277\0252\236\263O\354\312\277;U\274\217\003>\364\277p\346\271\356\261\'\344?W8c\317\376q\360\277\250NH@\351y\336\277e_\177\\CO\336?m\rnk\377\322\314?\243E\304\233\001]\342?\206\027\354\361\257\374\362\277\341\206:\235g\020\002@7\212KXO\367\272?\r\301op\231_\370\277o\370\216\370\250\323\364\277\230\006\233\314\266\376\335?\032L\310\303\031\245\377\277\005\311\221\026\360\335\366?(\336j\2243\335\375?\357\021\000E\322\024\340?<\374\035\242\326-\346?\371\022c\326Zt\335?}?\360\257\337\340\301\277Q~\r\323\"u\340\277\"\330\023\310\353\354\353\277\237y\257\026\221.\370\277xd\205S\007\342\335\2777\013\271\210]\275\340?Q\357\371c\312\376\005\300\221s\354\336n\\\366?\214\232+o\304\002\364\277\024\010~\024\002t\300\277 ?\343\232\021\373\336\277\005\240\373\305\344A\323?\266\261\330\213`\231\314\277\364\335\004\341+\224\350\277\267\246\314lW\316\327?\313\r\227\tk\016\236?\255\217\237\220\354@\354?t\366\240?VZ\363\277Z\243\223\321\242\003\353?UI\377{\213\341\311?{\371p\301*\365W?K/\224\212\315\t\315\277\367\000\006\311y\337\364\277\321@\356\273\343\034\365?N\316\232%\356\242\344?z\373\235VE\265\324\277\211\235\220\230\217$\335?\221\336\315\266\037\217\347\277\354\222\253\251\216\226\361?(rp\013;l\244?\321 \300)V\226\376?\265\'y;\240#\373\277\374\3779\263\013\363\344?\355w\\\251Rl\360\277\333r\0209\231\326\343?5]C<3\254\250\277\030\275vv\377\006\352?\014y\\\352\032\203\362\277\335\3631\233\261O\376?\021t\\\214\272\261\344\277_\"\244\343\221\306\330?\256J-OFC\001\300\210\266\370\014\341\307\357?>\346\367\243\214\320\371?G\346\030\343\027\306\361?\277 N3\322<\230\2771\211N\363\263\257\324?\247?\037\225\324\306\363?6\250\014\036w\026\332?\335a\021M\267M\362?\255\244\246\\\204\314b\277\'\244\321S\257z\353\277\005,\237\010\202%\327\277\347\360\t\344d\332\245?a\243\r\366Q\201\013@\305\264\230\323\351G\375\277+\241\362\224&\232\335?F\266\022\033\345c\311\277\234e\247\304\354\002\363?\213\235\247\2034M\376?#\226N\266{\245\356\277\261Rt\037I\232\312\277\310J\020\354\020 \370\277\216C\246\2316\327\370?\320\367\021\272\361I\350?|!<r\016\262\344\277\274\215\340\360\r\366\352?\374S\352\242\331\273\362?h\244\374\260\005\236\330\277\373q\242\255\343r\345\277B{C\374\327/\276\277o\331D\256b\252\376\277\247\"L\354!\332\303?R#\022\327\243<\260?\320A+\010\007\371\375\277\234q\224M\004\003\000@\266\254\254\251\233\030\360?(\362\rG\352\014\337?\246n\222+[)\363?\036\027\306\254\223\365\362?\352\351c>/\020\361?\350\355\353\314\204\323\340?\371\224!6\314v\307?/\371\024PC\233\303\277\212\013Lck\275\372?\374|\302G\211\360\000\300\313D\211\037i\202\343?\022E\244#\001\026\005@Ek\306V!\372\364\277S\234\010\370;\263\330\277\365;\300M\265\036\334\277Y\353`^\257\241\352\277\257A\342T\315\370\344?U\344\244\274\003G\354?\242b]\254)\205\342?\360\233Q\237\337R\340?M!\267\240#>\266?\202\n=\n\252z\301\277\264?\013\254\372\215\311\277%A\207$!\013\357?X1\211\377\333\331\364?\313\305\343\301\326\351\251\277\035\247\205\000\226\367\354\277\231\270\226\021,\026\360?\361\375+\261\031)\340\2776%\300qkym?\323\365\260\254\360\025\360\277w\343<R\270\305\360\277{\274\314\205\314\227\330?\225\303N\301\006\351\370?\301\204\327L(\270\331\277\272\004\252I/\342\361\277Ox\276\031:\356\344?Z\200\\S\331\201\337?\330\013\333#Y\263\314\277Z\372\252\271\0230\363?\256\343\210\226@\256\337\277\304\210\034\010R\323\356?\377f\017\311\317a\261\277)_\260\367\034r\352?\020\334\243>\324|\001@\241\335\212P4\337\321?\241{b\247\264\243\311?W\330,\020\206\332\001\300x\264c\205%B\347?I\252\335pg\246\322\277\236y\000\342C\341\335?\352\300\265\362\275F\002@\365a\246\356\220\"\362?\263\227\230\243\241R\361\277\341n\027\227\211\372\323?m\341G%\356\017\341?\031\376\220\227\373\353\352\277\367\025\267SBE\340?Y\341\234\331\262:\342?#bd\276\242\314\364\277\361\317\207a\365\274\340?C\0247\030\321\354\325\277\343F\204\273\322\267\302?\246\254\346\363\371\361\343?\205\275\365\266\220\200\322?\030~\375\274\273/\353\277\370\263\372;l\310\371\277S\032\\\252\037\271\324\277\233[\337b\232v\337\277}rv\300\326\322\342\277\016\231.\032\2418\344\277`o\020\266I\324\305\277\210)$\036\205\002\344\27789Y\262\032\261\331?\260=\347\321\253P\001\300ga\253\261\tn\350?\227\036\255\261W\241\363\277\352\251\215C\374\243\246?\265\254[\366\375{\357?\352\261\316\240\321_\243\277\311\321Y2\r\244\240?g\372DV\310\213\354?b\212r\363o\307\370\277\021\344\237\373t\362\360?\337V\027t\305y\312?J\330<\032\237\267\321?\376\356\3650-*\320\277\364t\356-y\363\354?\023\361\001\261{\256\351?p\275i\211E\253\362?\337\334\304\276i\243\362?\217\037<2|w\327?|\373\341\364\316\264\334?\262\217\363\t3\374\364\277\2350\232\264\001|\302?\203\266\361\346\321\325\346?Z\253KU\026\311\352\277H\363K\355cm\336\277V\367E`\253V\350\277\330\217\3240\013\316\342?T\267/\010\037 \302\277\336qt\345W\272\336?\020\303\371\277\\&\272\277Y\357\365 \202d\300\277\205\310\\\365Jm\352?b;\263\254?\002\274\2772o\t\021xN\351\277\337sT@S\225\327?\355+\2440\243\342\237?\316\336\355\316\342\276\366\277~\006\322\362\036{\304\277\300\231\226\236\243\332\273?p\036D\326\np\254?\232\351\260\235\2450\360?\303\325\213\330\267\013\310?\030\331\006\251\203?\365?\302\376\326I\325D\310?\307\310\310\201b\237\347\277%\220\322\224\010C\347?zF\246\334\236\274\325?U\267\376>-\274\253\277\3615\177\257\245\222\303\277\254\326\3027T\236\261\277u\364\251H\366C\337\277\304\306\332\205\263\242\351\277\035\347\016\023\217G\341?R\342\376\331\354$\332\277\213\331\026OC\235\373?.\350\254\306\343\214\327\277\267\030I\237\222\303\360\277t\316\313\221\177\214\363\277\323t\370\240|\240\352\277@\304\001\346\271\340\344?<\'\031\346.\321\002\300T\332\367\034D\273\366\277\317dMK\310S\331?\365\217\327\313\307a\336?\234\244\276\273\037\020\316\277\214\014\347\331\212\272\346\277x\376[\014\003\323\362?\273Q%\357\375\315\321\2776\223\331\013\3368\306?L\000\177z8\324\374\277\342\322u\026\007\243\364\277\022{\251\254n\022\307\277y1\342\227\276\246\374?I~\305\227\315\346\314?\336\325\373\2714\371\340?\251\220\347>\254\206\363?\210O\224<\325\220\265?N%\215k>\036\363\277kH9\361!U\346?\222@\321\030\374N\327?\224\252\324\2576c\260\277\323\345\277\3719\306\356\277\275E:n\360\303\337?\373?T:\332\242\326?y\250k\344d\361\372?4E\256\314\332\360\326??\350\213\360\\H\361?\001\226\360\234\363\210\322\277\014\334\027\t\334c\374\277\315`/\020e\333\323?O\376pf\335_\354?;\034qP\035*\360\277a\3312\357A\262\364?\333%X\332\355x\353\277\222m\262{\222x\240\277\301\363\232\362\256\035\364?\214CG\352\323\352\327?%Q\t\214T\321\374\277\022\030\3568x^\376\277\010\316\211\355\213\001\377\2773\215$\316\225\035\312?\007\032\273q\346Z\360\277\304\324:\207\245,\264?\260\373\025\202\037\377\346\277+\244\006B\336\000\342\277D*a\220-\325\360?%g\027\230bw\355\277\003s$\020\3162\275\277ol\"\232\246\260\274\277\251\3356\220Vw\375?\025\003\313\256!\271\353\277;\364|\360\225\214\357\277\3231\210k\200\022\354\277h\021\3558<$\321?\317H\307\234\tU\321\277o~\004\377\325`\276\277s\345+pR\223\356?D\326\026\201\306p\371\277E\226\303\370\001\205\000@\376\375:?\035\265\346?\264\245(\235\010m\245\277\244\204\365\215\022\210\354?#\237y\010\310\346\334\277:\243\312J\t\374\363\277\331\363m\270L\356\347\277EPPQt!\333?\022\307\256\332\217\036\373\277\253I)\355\265\310\000@U\331o\351\254\315\274\277\371\207m\335\333\341\352?m\t\326\244^K\342?Q\211\340\354\247\n\327?N\365\331\013w\005\351?1\371\324\377\013\020\375?\334\310\365]\371\366\247\277~\"1\356\203[\373\277\344v\305\355\224X\374\277\2326\350\205\353-\354\277\304\227\215\014\226V\357\277\201\250\231(\354\376\356\277k+\254\376/\245\342?\254\330\225\005UJ\343?\337\013\250:\226\270\000\3001V\023#U7\356\277c\366\005\373\340:\267?\352\260\256\217\277L\326?\036\322\277\227\312\360\323?\210\250\271`g\275\322\277\330\242\274\315$~\371?\201\022\367\271\271\036\366?St\227\243C\206\364?{\267\262\252\001\274\354\277\245\353\022\230\232f\324\277\230 ]\373\036a\373\277\010\226?\326\330\237\370?\255\n`\277\336R\360\277\323\256\010\231\270\305\355?\220\007>Qn\374\331\277s\330\322!\235j\362?\266\325\361\243\000_\366?\235\375`#\274v\340\277Na\244ZBZ\323\27737s\252\236\244\321?5\360\216\2740<\273\277\321\317\205\303\020\334\362?\210\"\277\2618\006\334\2770+\014\327\264p\265?\002\331\224\233\304B\244?\374r\246e\016\375\312\277`?z\307r\236\336\277&\354\226\245\241\200\363?e7\360N]\340\002@*\224\256\036\341\241\006\300{\230+Y\250z\r\300\001y\217\245\316\324\347?\205\004\340\031J\001\256\277\361c<\313@;\004@\211\201\222\301g\300\223\277L\347\337{\000\257\331\277\'\002\013\3667z\001@\347\222\351\3346Y\373?\002\333e^L\013\302?R\324\337fE\010\326?\323\257\360\222\256<\353?L|\211\260\022\232\336\277\017\277\302o\346A\234?\232Y\354:\254\357\374?B\200\004\264\304\272\345?\202;E7\230\031\343\277\271\021\001\0048\223\326?q\254v\324\230\350\352\277\037\343!\340{\301\320?dY\372\241\007\264\316\277.\330\007=\\\002\364\277\367:\223n\343\307\323?\365I\333U0\202\322?\364\002\326Q\254\227\321?\033h\341\216\016:\363?6\312\025\244\372\013\317\277mu\261/=\316\375\277\275e\324\244F\270\001@\024\321\342\254\'\234\331\277\230^d$\331\242\272?\277\276z\226F\364\315?j:\256%\365\264\373?\304\034\205\034\320x\360?\006\267xHJ\336\347?\253L\265\331\237\253\320\2775R;\201\254\361\364?\237)8\350\225\353\345\277\240\227P\013\034\257\337?\376-\'\2125\243\366?\306T\265F\223\267\324\277\251GJ\235\345\272\262\277\317~c]\026e\324\277\327x\026s$\224\342\277|A\201\214\301\234\350\277\271n\350\2006\"\003@%\224vf\206\253\301?H>\253\250\235\232\370\277\n8\216\340\312\342\301?\025v\233\254DN\207?\025\363K,U\345\303?\307\304w\262\232\341\365\277v\037\237\032\352\340\322\277\"?\234\374\206\007\370?\375[h\234\204T\323?\023(\277\230\234\334\362\277\023\n\202\243\023\037\315?\304\006\240B\227\341\264\2775X\301\201C\252\336?\207\272\005\247- \226\2776?\'\270\326]\363\277\350\251LK\'u\357?\030x\021/~@\333?\037e3\001\002\337\000\300/\r\360\2531C\373?\300\360z\305\226\226\367?\357\343i-B\177\366\277vy\324\305p\321\351\277c\305_\205i\274\321\2779\222\2015L\005\361\277\267\017\220>\010\336\323\277-\304\230\276U)\325?\031\347ws\2620\353?\203\314\217\263&\302\341\277\357[\375\335h\255\322\277k\n\241m\247\333\343?\362\233.F\222!\371\277 \013\352\025\326c\337?\326y\311K\207\344\360?\010\234\272\225\211\254\313\277\035\207\037/\276\005\207\277\025\210)\250\031q\000\300C\372\013\270\252g\362?\274h/q\353V\377\277\342\310\014\240U\035\356?\345G\352}\r\321\365\277t\335v\3420\263\347?_e\210k\005\201\375?x\307\222\033\224\236\226\277\303\343\220\026N$\373?\262\210)Oc\243\366\277\317\226\n2\205\203\357\277O\220\377\307\245\t\370?zX\232\267Q\326\365\277\370B\222\202d\325\233?\026\262c\372M\313\307\277s\326\233Iy\376\321??bQu\031s\356?\324\213\217+\353\221\366?\"\277\226O26\335?\322\310H\032\305\017\261?5\371\360\226\264\351\212\277[\031\323\356\010\376\347?\212\244{u\363N\227?\350\231*\254\256\257\363?\365\343\235\310\206~\303\277\333\177_\034B\272\343\277F\"S:\303\333\333?\006\375N\271\230?\362\277\036\345\337\t\365\244\322\277|QG\306\266g\335\277\376\331\t\367\274\035\332\277\353K\177RA;\374\277\360b\032\205\006\203\353\277T\365\345o2A\341\277\211B\2635\025y\355?\310\311\205=\225\271\314?\263\'\3072|\017\272\277\322\177:S\333r\353?inT\331\267k\310?\022b-)\341\373\352\277\3153\300\375h\177\353\277\337\3725\260T$\324?3c\365s\341D\335\277\213\321,\321\327\022\322?*\221Q\336?\204\341\277\t\363Mw\033\364\353\277\320\342#\350\026\275\214\277\016\252s\243\035\177\234?\343\004\023)\343\343\351\277\227\023\345\0264\224\360?f\371\260\370\367\254\310\277\235*\306\271\214\365\237\277a\315C\033e9\274\277\375\316\324\026z\267\363?\334F`\216\226>\002\300J_\207A\253o\343?\224\016g\350(\330\002\300\340\031\360\313\2024\001\300\240\213\257\222\334u\366?c\352\341\362\213i\333?\000G\361]h\264\360?\013>f;\277\005\337\277\343\010X\201\203\263\344?\313\260\341\320\354\342\371\277zs\311\236\230\370\353?5\374\323\023\325\273\252?\344;C\237w\267\304?\253\370&6\341\207\364?\026\337\327\212\004\360\357?\251<{_\246\240\372?\266\304?\304\036\032\327\277\001\331\277Y\216D\376?\330\254\0265a\331\311?\315O\270\263\032J\364\277\244M\001s\255z\335\277j\014\253\324\207\353\324?\354\347\271\322w\303\352?\244\243?(\3330\347?\262\006j\303\355y\361\277yd1\266\273\364\367\277\304\316\310\323\363\027\347\277uI\272xn\017\340?C7h\005%\214\321\277\311\201y\377@\276\332?\316\006\321\246\322\"\370?\363\00633\346|\225?v\367\355\250\263R\361?\036\226\225j\314\037\326?=)\027\267\243\233\363?\225\217@I~v\353\277sFX\025Bv\317??\313\257Ws\316\377\277\235\177\372\252p\214\345\277 \360v\354\344|\326?fe\311/6\207\360\277A\344\'\217\212L\372\277\021\243\267[\377\007\352?<\220\247\225\003w\212?\225\373Y\334\322]\341\277\330\217W\203c\361\335\277M\375\340\\\262\275\330\277\300\224B\213\347\331\260?\330\271\270\216,\"\345?\031\254\235-\202|\313?\251\254\001t\332\245\356\277\006K\035b\225\032\272?M~\"\024\005\t\353\277\327\025\222F\346\276\362\2775\340\347\265_o\320?g<\021w\223\016\351?\332\242\312_\245\251\356\277d@\356\376\357h\305\277\334\3721A\000\264\325\277\\kt6\0059\361?\\\261q\225;W\365?e\244Q\267\367\205\370?\252\002\000\252a<\341?b\343Y.\226\214\301?\264\3176}\024\026\366\277\330\333\277\347\247\334\372?\262\021\234\375\216\215\371\277W&\003\2362~\255\277`\265\235\320O\200\306?\033G\005\217\2675\377\277\030\277\200\270b\363\345?Y\367\016\253\242\207\363\277e67\242?\226\364?x&Y\276\250^\333\277\332\n\350\201\010\351\357\277\211\234\305\235n\352\345\277\346\332F \2756\327?\317\313\227\001]\366\007\300N\241\303\001i\242\371\277\255=\300\223+\322\333\277\223\206 \227\207\303\350\277\271\337)\363\272\372\345\277K\001\334oUM\275\277&4-q\367^\001@A\250e*!n\340?R\226M\025\261\301\350?\242!\3415\364\233\244\277(\333\333\3561C\360?\266\363\n+)e\303\277)Y\367\224\302\206\340\277\337F\250\006\r\213\340\277\n\007\354G\267\372\247?G\r\266hk|\377\277\301\003\344T\207\226\353\277\347d\017\346\004\361\361\277Z\337\037\022\234=\366\277\364\3755\2638\343\263?X#.%)\323\353\277\352\215\006\214.I\364?\307\232\333\203\314P\266\277\020\270\310\357\314p\362\277\341C\017\275\342\223\344?\367G\313\001\033.\352?\314\331\204m\243\234\314\277\271\001\233[\350\344\003@\272\355\020\303Y\242\370?\330\232\034\035D\"\001@\232\013\304\317\312\017\343?y\001\230b\206\362\324\277\023yi\262\231%\234?<\360^\214\315B\363?\237U\364\177\261\361\352?4\354\230\235\262\200\375?A\007\242\364\255\274\353?Rd\266C\306\241\350?]\242\030B!K\345\277\257\226\315\177\277\325\370?\002+@B\300\213\000@\334\357\370\273\3024\371?\007\004\324\362uZ\346?\234\030N\016\312`\340\277\017>\022\021t\r\341?\271\244MH\245X\304\277s\312\210\006\353\247\344?\013\212(lN\002\310?\247\\&\301t\376\000\300\211\320#\017\366N\374?\n\251S\3215\337\351\277\333V\362\320\333:\356\277\330\335\304-\205\024\371?>\310\370\310\020l\362?\216/\027\362;\362\354\277m\3522c`\337\372?\353\304m\325q\204\313\277y\226\311\211n,\361\277\356&\317Y\251\312\236\277\371\352\tZ\246\007\256?U\303ZY\037O\272\277\353\205\030\252\020\334\210\277o\016\325\207\217\346\375\277WpW\336l\274\314\2775;\376\272\r\270\314\277~b\316\271\253\302\351?9\333\001{u^\n@+FBXUv\353\277\037}\262l\2549\333?\320$\351\025 Q\330\277\013\307\215\205I\324\363\277\255E\325\t?l\003\300\273\2622\004\177\235\362?\301\007\256\301\345q\321\277\200\360e\210\334-\336\277\033\262}\322\3147\366?4\024\001\356\202\330\366?UH\211S\236\321\331\277H\027\221\201\014g\325\277\306\303j\226A\001\356\277\262\312I,R\033\300\277\302\243\035+\311\227\365\277\346\305g?\316\021\356\277\004\355?\314\003M\364\277\216DJbX\021\354\277\257\314\317Nl\355\340\277Zj\177 $\275\375?\267\352\242s\203\315\302\277\215\333\300\232\276\217\343?\273\021t\214\241P\363\277\300=\300\232R\027\372?\371\025\2766\020G\370\2779\013\212\025\001|\361??\341Bq\343\326\360?\224\300\0160\213\214\342\277(\017\274\313\330\345\340\277h\274\303\334\203\001\375\277\250\342\317\251\343P\252\277\201H\234\344| \376?\377\332/&\005#\352\277\266x\303\256CB\331?\245\212\'e\0242\305?S&\253\375\2713\367?V\245i\340]\003\363\277JA?\270\262\240\366\277\021\245\013\267\252W\300?\3573\377*\316\316\342?\356Nxd%m\323?K\315\247\356\330\376\373?\304\212Z\025\247\334\352\277r\277;\263{|\005\300Z%[t\232\317\332?Q\361[\t\212%\313\277\013\031)X\372W\353?\300\311\334\267\247?\325?\013\363r\323%\314\322?\346\221\307\252j~\324?\205Z\003\260\241\200\314?q\217 \351\221U\000\300N\3124\022/*\367\277\"\273\243d\021y\312?E\207\277\343\372\324\343\277\026\031=$\313~\360\277E@\307\270N<\335\277q\261\\\241\315g\330?\370K\265%\302\365\361\277u\201r\256\353\361\350\277\037\302\267\254t\332\367\277\274\305\270\205\276\035\362?\301\361\206\203\234\373\362?\010\212ojf\013\273?N\242\017\240^\001\301\277\250\372\016\224@\376\361?\327\360\336\010c\266\322?\t\002\177;a\337\324\277*\207\002s\306\206\361?^\207\367\221;\006\362\277J\311CWD)\350?\000\225w[\310\"\266?8b\333K\376\343\352?2\2073\016>\205\322?9\021c\026\271\317\323?\230t^\007\001\t\340\277\317Ry\027\347!\320\2772\307\'\310\256\356\360?\237\245a\n\307\371\344?\366bh\245\273\372\341\277. \360\r\"\276\342?f\263\352u[9\363\277\361\242\352\234wj\353?\233\023\253\023!\252\336?\016`\030\220\315\203\377\277\375\205_\310\347\307\342\277\234\367\351\325\362\024\321?\250:.\201\324\232\331?\2318M\350,\272\344?\276\000\330\325\345\204\330?\270\272=\326\232\376\323\277|?A6\223X\366\277\004\315B\213\022\316\332\277?\340\260\252\0069\324\277`w2\333z@\263?u\300\212\367Q\301\363?\320\211\023\031\317\010\364\277\013\223K\354,&\345\277\311\242o\232\365\314\346\277\224\220\332W\205\021\247\277s\252\253{i\363\342\277\020\345\re*\322\343\277EV}k\343\223\360?\262\201\271\354\355\274\331?P\262\tN\250\t\374?\315\370[\224O<\343?=\\\277\344\224s\366\277q6\221a/\221\362?\3169\272\221Vy\364\277\037\271\203wg^\345\277R\365\307R\344V\333\277\034\023+Q\331i\362?\323\024q\226\277\344\274\277\0037F#\036C\354?w\347j\252\230\274\340\277\002C\270\301\363?\355?\253\303a\373*\376\337?\301\r.\244\372\316\001\300\233\2510\250\325\363\314\277\354\251\035\013A\001\342?M\306\213`\020\034\366\277\'R\376\t\264k\372?\242\312^\322\"J\321?d\372\204\257\243\321\363?\266\236ZM\207E\364?\004\312A\0355\232\361\277\376tfG\360\351\376\277@\230\001\0374\213\320?\274\"\000\330\337\325\340?\317y\314\313\330F\345\277Y\300\024\345\310\370\005\300@\214\367\326.k\334\277\311\245\231F\374q\327\277sX\204p\227k\352\277\017\363\367\r\366Z\322?\302\361\271\313Z6\364\277\265\313\317&G\221\347\277o\250\014`\207\343\354\277\307^\351\314\367^\317\277\347\337\266(51\367?-\247\331O(\237\352?\3602\355\203\300\310\362\277\374\031\013}\224\252\353\277\344\254!qv$\230?yX &y6\335\277\364\rr\325\266\363\311\277x\013*\\+\014\234\277ce\247\275\356\305\365?\263\332~ 1\224\313?hh6\3277\240\333\277\263\374\211 u2\001\300_\234\233\021\336\r\364?k\341Fb;\177\364?p\353P\3722H\347\277\302\"\304\302N\022\302\277\341\271\006+yG\330?\357\255\301K\243%\355\277E)<b\323I\226?r\350\322\370T\262\341?\232\232\271\216\2060\350\277\204\020s\250\227Z\332\277a4\246\026\277\027\347\277\357%\330Nu\377\355\277\256\234\320\321\037\265\347\277W\271<W\022Y\302\277\302k\333\262b\332\001\300\253\230\022J\263d\001@\227T{e}|\365?\354L\025\257\223\026\002\3009\347\205\300/w\320\277\226\254{\302\203\310\366?J\230\221\374\215\336\365?US\320\246\252K\327?J$\355\346h\036\362?\r\024\260\3243\315\363?\r\023\221\205\235\'\317?IR^\322_9\301\277s\3665q\343\317\224\277L\200\340\301\027\301\366\277\364\346\034Q\306,\n@\014\266\322P\374\371\350?!\305\220xyJ\334?\373\271\341\317\255{\350\277\317\307_2\307\004\356?h\252R\001\0257\352?\372\'\210i\334\224\373?~o_\243\020\351\367?\3413\327\270\236\264\360\277\0064\321L\200\376\301?R\013\246\273J\215\313\277\344\374\345\213\305\330\376?sG\020\362G\347\356?\336\370\002\017 \023\321?\233\035\302\233SQ\346\277\234q\250\305\027O\336?\337\365Y.\014\323\262?\253\305`\273h/\373\277\267\253\250\"\325\023\322\277\"e\302Q\343\254\325\277\016\037oq0w\354?n|\357\355~\227\342\277Pe\037\231\026\262\320\277\210\216\223\240Ud\000\300{\336\2406&\004\351?\262\371\202\342\266\026\374?\002I\274\031C9\374?\310S\rR\233\321\364\277\257L\031\356\336\352\353\277\227)\202\326\203\234\307?\007E\312\255\027\332\323\2771\326\255\326^\020\343?\224z\034w\235i\321\277\264~\275\262\370|\355\277\273\202Q\235N\266\330?\204F{\306&\337\356\277\2621\003\361+g\355?\235%X\372\231?\375?\316\244\377o\007\025\357?\177\222\\q\320_\363?\023\275\277K\255K\322?Q.\255\221s~\346\277\267\002\347\346f\\\342?t\305U]\252q\374\277\241\324\201\250\347t\251\277\021\2742\242\237~\352?\250\300\335\241\377\024\372\277\334\267\277\377\034X\354?M\264\033\200n<\363?\233?\035@z\266\363?\347\215\211\30386\374\277\333\307\254\276\260\021\374\277\322\260\306\000#V\364\277\310\351K\217\274.\342?86+5n;\327\277\334\325\236\313\326[\311\277\016\305\'a\341A\361?\032-\331\255m\376\376?W_p\325\004\325\323?\357\301\312\274\341\247\336\277\270\251\220\3264f\365?!\034P\207\343\362\331?\347jG!\036t\317\277\311\002|\354\273;\276?B\321\246vz\233\354\2771\003\340f\307\227\343?\204\210\312\030\";\356?e!\306\206\245\231\353?\336\241\357Q\"\263\333?\265*\213~)3\371\277\277I\356:!{\364\277\032\0201\3214Q\343?\367\226\002c0\366\374?@\362\3408\332\327\274?\263\230\327\364\023\245\002\300Y\361\312\027\346\370\324\277,\377D\346\373\216\325\277Q-\006\356\025n\270?\343\023\331\006\306\235\345\277\0067\304\272\300\036R?^\303\344C\305Q\343\277\373\301\300/{\314\345\277n\211m\324\312\310\353?w\211\375\326\236\360\325\277\373\375+\246\220W\343\277~\360L\273B~\363\277\323\021\007\324\005W\354\277i\304h\300\255\373\362\277\253\255\033\276C\312\315?\204Yh\030\377Y\001@\356\001\232\344\212\334\375?\356\272wC[\275\344\277\346\036R]\346\324\345\277\032\310\214\032\002\326\375?p\037\256\337\274[\315\277\242K\t\366\307h\343\277,\225\366=c\026\356?\030\235Mp\351R\350\2779\200\243\235\243\231\002@\"\036PK\335X\345\277>\255\376\301\234\273\362?\242\230\376\r\t\256\331\277X\216o\237\236\207\363?~\267Z\37507\315\277\t\027_b\376\266\244\277c;\2476\227[\311\277n:\317E\350;\321?\353\345\351\233\230\030\247\277\214]*\336\205\360\351\277\25585T\375\001\001@qR,\346\377\232\257\277\364\350\215\334\315<\350?\245\372\351$}A\335\277\325F4\233\220\214\301?cI\030\232\004g\234\277R\265\266\355\204\214\342?\202\362\213\361\033U\340?\360\033\243\334C\332\303?\320\310k\007F\245\272?\014I{`\371S\346?\013V\361\236\340*\275?\344\3636\243\'\020\343\277\342\2001e\002D\340\277\242\373\234\277\265\254\224?t\235\021j\025n\361?n\263\367\257*\330\342?\017A\377\002AE\000\300\027\251n\262\034V\336\277\224\024J\010Q\245\373\277\334s\377\375\360\033\375\277\314eb\336\004\031\244\277\030\010\211\311\347\272\347?\024\276\357199\356?*T\024\250\253\305\323\277\235\222\235VX\030\364\277\037S\276\206\270T\323?\n\032\2413\316g\317\277\333*\223{\310\016\350?\t\254\007\212\333\224\340?l\276\300X$m\372?\010\321\r\203a!\366?\251t\333e\266p\367\277F\r\372\275;\374\374\277\335z\325<\324\032\341\277\210\372I8~\017\361?.\004`\333\375\227\371\277\364&\231\001%\275\324\277\334G\202\177\270\023\337\277\347,\353\010\217\213\364?\365d\375\253\014\240\304\277\336\345h\320\202\322\263?\200TC\250\365\351\002@\314Z\316k\334\330\323?\374\017\276$N`\253?\202\202\217\262\221\035\345?m\227\353\244\352\271\374?\233Q\213\327\355\265\344?\261\364\250\016\003\212\373\277\307$\274XnN\245?\305j\214l)F\361?\335`\022\367\006\210s?cVm|\371&\332?\263r$6B\243\360\277\024\3244\326\354\016\376\277\320\003\212\'\347%\321?\316\277\032!qL\362\277\033@A\300$\017\357?F\205\3508\377x\335?\341\023=\355\205\212\250\277\262\356\317\023\261\213\354\277\307\234\202\323?\335\242?3o\253x\250L\365?H\317\300T(\304\372\277\373\217\251\342J\326\326?\021\351\305\302}\036\365\277\215\350\343\332\270E\363?\210\200\256\237\020\364\364?\006\034\326\326\304n\350\277\327\301\032^\254\376\360\277\257\033\352\317\014G\365\277\313~\"(\236\201\317\277\026\030\212?\351\270\362\277\032\245\302\007\3604\337\277\202j2\017\201\036\365?\037\315DkSG\363?Q\201pc\265\316\341?S\247iF\362\272\356?\226\377\265\360\206M\352?\304^\202\024\350f\361\277-\236\210\312,\032\342\277aa\3023\024q\351\277\374\340\230\232\362s\363\2777\343\027\223\005\027\276\277\003 \367\221]\322\341?&}\350s\316\003\374?C\3149Y\013e\351?\327\"\016\203\342r\336?h\036\260\213\246\262\302\277U.\227sv9\233\277\026?\275m\270Q\336?8\265<\202\352\203\374?\321b\036W;\246\351?iI\225`\325\203\362?\351\312b\r\243\250\375?w\336\304\222\030\027\370?\205\265ss\305\215\360?\033\275\251\177\375j\316?\rj\003\213\n\316\315\277\373\364\021<\006\205S\277(S\202}\264\321\265\277\221D\007\367\231S\346\277L\215%r\366\032\344?r\317\316\005\261&\275?^\220\260V\177*\367?s\356\014\376 m\354?\\\351\270\254N\221\357?\374I\313\340\211\005\340\277g\257L\t6\031\343\277\327J\024\240&\221\353?\255A&\347\177\031\354?\331\327\\\354ZU\370?\342\006\357\312-\226\374?i%)eUS\360?\276G\321\3757\276\355?\204\247/\334\352\224\343?\003\001\035\206\221\357\346\277H\004\307}\302\372\325\277hJq\214\235u\304?\207UY\273\240\232\007@x`\014\223P\007\327?\013\2702\330\303}\353?\217<\300\216y\031\327?\246\023\272igX\253\277\\\224z#d\323\372\277#\260(\"Q\231\357\277N\026\202\034\364\314\267\277;V\340az\270\347?0\326wK\371.\334\2779\212\204\325o\307\307\277S\367\005\377&\332\240?\003\312\241\021\276B\347\277\304\264\217\007(^\346\277\2220\207\235>4\267?\241p@\035\215\032\343\277\243\023t\366\236\\\317\277L#u\275\200\263\323?\335\224\306\302\327\202\342?q\327\033\260\243\020\354?\327\334\275\036\253\303\354?\352\324\312\302\326\305\363?\352\254\031\335d{\341\277\257:\270\010\360\207\365?\220[%J\222\277\261?\001V\237\263\370,\357?P\267\r\353\366\\\332\277\023\214+\207\200s\274\277\337\206\235\266\317d\327\277\243\006K\004\214A\375\277\274\263I\330x\222\306?5\207\366c\362e\333?@LG\251~s\344\277\337\277\007\262Kk\335\277Z-@C\353t\341\277R<X\252\241\r\336?\020\342*b\026\031\330?\360TY_\206o\374?\227\003u\007\275\306\326?HU\370wP\324\326\277\\\340&\204\205\\\330?\323\376a\307U\272\275\277GYt\262\201\024\315\277\342\3032\324\202\266\354?\363\227\222q\366\037\346\277\010\356\343\025\344\266\347\277\266,j\231\263\257\302\277*\207\226%!c\362? \340\213\034n\355\316\277\362\274\n\322)-\000@\333g\331G+G\324?\230]b\361E\376\334\277\306(M\036Q\202\340\277\302@\301R0\235\356?\001\332\014\225;-\343\277]yls_\362\341?P*^&\031m\362?\035H\021:\204\250\323?\004_\307\377\030j\357?w\260\220\334\no\364\2778\227\200\373O\226\274\277\247\261W\022XB\360\277\366\006\363f\212\340\360?7\351\356\321\365\372\371\277\032r\034\177\250\347\361\277`\201\217\261\226}\254?\023X\021\256\327?\362\277K\"j\010\250\312\341?\262d\204^\023\224\361?5<3\366\245\267\273?\255\220\031\206\036\244\263\277\233\320y[\347\315\303?\006\332\245\334x\250\364?\361\014\353\001\214\310\365?d\276v\371\271\366\277?\363\252\200\311V\206\334?\242P\301\r\033\304\351\277\037\335}\177\347\201\222\277\200\224\032`\255\317\360?\231\232\265\235\345E\274?UJ\246\034\240N\372\277[\372\266V\305B\301?\323\004d[]S\251\277\273\2548\356VE\263\277\276\215\r\r\311\225\335\277k\244\006V\014\377\321\277O\023\226\307\030\203\315?\224\306_\325G\232\316\277\333ml\367\237i\365?\177\364\202\235\200\322\374?Pn\367\001HQ\310\277\360\362\357xB\344\340?C\261\334\343\373\367\364\277\236Xw\270\214L\310\2771l\216 \343\344\323\277\222\207j\2429\314\260\277mjj\250\311\004\375\277Y\206A\213\036\257\367?\311\024\370\005_o\333\277\265\003/\214\320\266e?+R\003\253\365\236\364?\\:\350\252\026J\342?\020\332\372\n\013\206\346?\310\302\3621\212\247\317\2779\264\342\354\332\242\362\277(0PX\250&\370?\301?\256\360y\016\354\277\016l[\277\r\326\345?\330\377?\275Z\243\353\277}c\357@\375\005\233\277\2569\336\337\333G\374?\354:P>\252Y\350\277\276\370\236\371\n\025\000\3009\227\215\005\243\243\002@\230-\331~Z\336\270\277$\2346L(#\375\277\243\244^\276\357k\357\277\002\353C\205\034y\363?\020\366\303\001\360N\334\277\024ct\013S\355\321\277\336)\260\"\231A\374\277\001)w\3259e\357\277\277\254\271Q5\024\361\277\234rHr\361\356\353\277*\355\034\273`-\307?eb\rM\021\002\303?\"\247\313#$\326\367\277)\244\327 \226\270\370\277\344\014iH*\266\230\277\357N\252\302\263\000\276\2775\215\331\017\177\233\352?\220\004@\203\3658\366\277\302i;\000u\214\361\277a\373;7m\315\330?\257>\216\310}7\344?%N\371\237\220}\376\277\221\'\227\004\314P\354?\245\177\253\264\241\206\362?\3442\216\334\275\232\372\277\361\270\332\372 \032\316\277\323\365\353\350\216\250\377?O\3343~\311^\365\277\026\n\001\031X\005\367\277x\335R\363\354@\331\277t\231\004\276\224,\345\277g\252$I=\263\341\277\027\370\305q\3541\311?.\027\243\024?b\221\2779\245o\266\255\310\340?>\024\371<\376[\327\277\223\342\257b\330\353\351\277Ru\265\035*o\320\277y\253n!\320\235\261?\362\265\234T\356H\332\277kI\221\270\332\251\001@xt\022\316\316\361\317\277a\307\240]aK\306?\320\334\202c)\032\352?lL.\300yn\347?P\224\367%\234,\001\300\037s{1n?\363?\016\220?x\233`\370\277\364\350U\030\363\023\326?\264=\2453\307\034\334\277\214\n\371\355\204\327\341\277y\345k\3700m\271?n\344\357\261V\311\360?u\347C\002;\350\333?[\327\241E%\306\365\277J\317\036\0305\363\346?\217\032\000\242G\261\302\277CdI\346\267\352\367\277\301|yE\313\372\365\277\006\327\2760\022h\002@\265c\307L6~\346\277\272\n\363\361\025\317\337\277\345\246\"l\214(\371?\274\314\371.H\333\354\277\262\273\364\036\264\232\347\277\346`\323\330\340\245\356?)\027\026s\240\224\301?S\260\013\037\204\353\363?\243od;\334#\337\277\253\375\010qg#\262\277u\362\224&tz\353?\327b\262|\374>\350\277J\355\202\177i\001\344\277HYp\022\253y\331\277\357\225\243,t\350\352\277z>\200\253\302\310\344?Z\254Cy\000\263\312\277\352\264\330\367\002V\355?\013\372~o6\316\356\277\337u\335\367l\022\317?\335si\317q\365\325?\300\206\203\207\251)\325\277\035\370\372\202\3419\363\277\277\374\221\343\243\354\345?Q\357\326\260\333u\366?\367\350\335\303\206\373\325?\241!\004\261\357\303\322\277@\271\205\202 @\003\300L\371\347\315\014\373\365\277\332\'\317/\301\347\346?\350\014\177>\220f\274\277\240pn\032\2766\326\277\032}\211\032B\232\246\277bnNc\275\016\322?Q\223\351\260\311\372\320?\305y\222_\347~\345?\021\277$V\364z\310\277\340w\354\242\205\367\326?\313\213\256(5\240\314?yb\222\226\261\016\372?(\344\205doH\360\2776\024\370R\346\256\337?\356np\315\300\236\303?x\013\222\352=C\344?^\363\376d\031\211\326?P\307\'|\300}\326?wc\237\016\241\276\362\2771\3361\302wH\352?\274B\211\'\363\231\232?\234R\346\323\333\217\243?\224\215f\nE\215\256?3\341J\035\2227\343\277\375\t\225\177\317\301\247?\004\250t\323\361:\330?\273\026\370\002\204\261\302\277\323\327\232u\256A\360\277\345[\377n\244\251\320?\005P/i\333(\363\277\230\310\227\215\034\364\340\277\245P^L\001\314\300?\356\306\306\357I7\357?1E\320\030\304\365\002@\247\t\316\267\342\220\341\277\255\335\212\223\243\037\332\277V\270\222Hf\367\346\277\016\322|=\216s\231\2772\375\025\035kW\366?\024\252\221H\032.\360?=\024\351\016\276\\\227?\241\324\233:F\335\351\277\225\320N\373\250\303\320\277\3623\372\014\332M\375?\243W\263\314z\302\353\277\220\371\\Z77\355\277\002\314Dd\217G\214\277;\2046}qH\347\277\016;>\000q\315\335?\200\004\t\253\027\373\357\277\200\212y\330\357W\261\277\347\\\310`\200.\307\277\212\027m\017\337\261\360?-g\365\262a\335\312?\300\363\245\220j\216\313?\211c\345\363\'\205\311?vf{,\313\361\342?{\330\014H\001b\376?~\226\006ME\263\331?:? \221\203\223\345\2773;\371\275\007K\332\277+\311\275\254\301x\372\277\177\000A\210zS\362\277\274\200\326\341:p\001@\3236\271\375\0020\357\277\371\240\373\227\201L\356?\234\366\005\370\264\003\250\277I\221\'\024E\201\350?\274U\330\220\375m\374\277\242[\036\250{\251\344?J\367\337\364{d\355?\357\275\0162z>\257\277GH^]\267w\303\277\356C\321\016\256q\327\277\037,{\340\212\004\375\277-c\223\361\252\005\325?\t|k\301un\364?y!\233O\253e\331?\0352\030\214\317\025\335\277Z\225\365\202\255\203\344\277A\0213~.:\362?\007s~\023\006-\002@\377\327\321\323j\304\363?Y\373\276\300\315\317\361?\261\010?\337\312\311\360?\353\312\316Z/#\323\277\215\032U\345\372\362\363?\324\016\321/\370.\326?\336g\313\352<\272\350?$%\312u~\300\320\277a\370\266w\231x\350?\211\274\344\217\211\232\333\277\035\010\357\010\275\013\331\277+\214\037W\317\340\363\277\002\363/kV\013\347\277*g\270L\267A\002@\2774g\3536E\363\277\350>bjm#\326?\227\234\023?\352|\320?\273Cl\304Z\326\326\277\035ghB\356\343\301\2773\234\364\022\232}\316\277\275\302vD0\312\372\277W\356\210J\2118\367\277%\274\376O\007\256\337?n\355\360~\236H\364?\266\224C\221\'\017\361\277\303\035]\220\000\251\330?\010\004\2725~\365\363\277q\006U\307\0038\324?\217\342S5\220\300\343?\027[\233\2344Y\361\277P\2308\202\277\206\346?\275\336\357e \\\336?(\245p\236\277\344\354\2778x\277\312N\275\372\277\334\312\'I(\365\340?\017\366\272P\211\020\007\300\2013\3132?\246\311?\351\031\307\232\350\277\362\277\225\032\330X\247\301\356?U\265\232\001\316V\355\277\326\221\360\037&\347\362?\276\334r\354\030g\376\277\212\177\331\316\353\270\002@\'\242\250\276+\275\357?N\261\266\002!r\335\277b\312\235\365\262\377\263\277a\2504B\351\306\305?\311[RBO\006\345?\202@\201|\333\326\325?b\3329\256s\017\351?\013%\013\r\nW\343?x\323\317\357S\244\371\277\020\267\267Q2\363\003\300\350\250\214y\276\234\360\277\224sbN\351O\010@\203\236\341\225^7\003@\242\324%]\033M\324\277uM\220\231\347\035\357\277\3209\252\301\276\333\322?\346\006\017R\323\301\371\277{\267\276E!u\364\277\210\315\341\325\346\350\362\277<\351\241C[8\361\277=\216\332\013\036\275\347?\247\345\'\200\332!\356\277P\276\027\037&\262\327\277\213\337/|a.\340\277\027*_\007Z\017\310?^\202\017\312\023\240\263\277\350\242\351\330\244d\003@\255\245\211|\005m\317?\310\340O/\355j\006@\2775\373*\336i\362\277\207\316F\345A\362\305\277A\2370\357`\225\345\277\212R\304#\234&\002\300\272Q+\307dI\341?\300F\212\333$\334\370?\026\207\205\245\330\255\370?XY\3535`\365\363\2774\327\315\266\374\013\372?\263\312\030\010\0376\345\277\321!\236_GB\365\277\313r\270\220\316\233\347\277\263\244\006X1-\326\277Z\303\021Kz*\357?\212\360\204\246\026\312\373\277\200\010\302\310\033-\343?\276$&\344\300Z\366?3)\002!\017\330\310\277\235\025N\342\265\037\363?\020l\266\023\243\346\360?Y\365\300,\006\375R\277\357\360\242E\321\333\305?H\314=0\276\233\335\277E\n<%\324v\005@;\247b\'\001v\356\277n\204\216\020\005\205\351?}y\321\217\343\'\371?C\247h\226uG\354?\347\257\224K\224x\344?\277k\267#\210\373\255\277\026f\231^\037\336\305\277\252{B\2337\233\345?b\331V\272y\025\345\277^\232\353\244\016\271\304\277\230zo\370\256\215\324\277{\r\226\220\237\206\255\277\316\273\375\030\365\314\344\277\n\323WX\345\031\346?\207P?\244\200/\320?\rg\243\352\361Y\367\277c\270\177\'ol\363?\207\360\004\247\261\344\345?\341bv\3728\t\363?\272\247\373\335\370\301\342?\0378x9v\212\345\277\347A\177\214\200\332\330\277\237\352\204{j\366\323\277\232>D\222\022q\367\277\030,`\316\247\267\353?\310\377D\315\357\203\361\277O{n\212#x\304\277\303\362\256\030\3502\325\277d\027e\345\365\247\354?Y\330\r\205t\305\333?\0029\215\342\302\362\321\277\224m\330\"\002%\305?\017\032\205_\302\264\326\277(\347\214\334I\231\324?\234E+\246)\271\344?(\254\313KEy\354\277\200\304\337e\001\272\355?\306%\374\312\203\357\373?S\0041\022\201{\366\277x&\021\337\025\362\325\277\350\233\342\341D_\303?\005\370\234[O\r\336\277\033\252z\002\006A\340?\342\341A\302\007A\307?\204\027\376Y\343\027\366\277\033D\352\206Ls\320\277\0228\274\341|\256\363\277\272\300Z!\3724\335?\377\307\002\367\365\301\346?\221\315fr-\033\366?\234\245\033t\001\327\345\277\216jS\303e\312\351\277\353\314\023\363\301\231\345?\204J\230\006,B\323\277\303\215\241Y*\237\327?\034\340\021#5\236\367?\304h\016\245\275>\366\277\037\232\264}\374\000\355?ez\231\202\341\330\327?\004\277\220.\302\373\340\2778\003\315\236\242\004\000@uN Fx\347\360?\321.\031A\013\352\343\277t\035aG\221J\372?\313\344\022n\321\224\263\277\036Q\024\231\211\232\323\277u^\"y\344\204\364\277nh\304\313\215\031\346?\312\r\335/L\022\336?\340\304\372\217\006\376\334?\364oG\033tp\273\277\232Js,\326*\325\277NN\311\365\301\373\003\300\014zh\243\n4\361?#\351\203\376\2700\370\277<\010V\006\372\024\312\277\256a\237\031\225\275\362\2770<\337\226\016\032\347\277<\210\013\021b\t\333\277\210\234&r\025\257\347\277V\335\315W\374F\360\277\241\341Ad+\236\362\277\301\020J\223\372\177\345?\335\005\336}#\345\356?b`\332yE\000\365\277\231/\226\237\310\033\346?Y\277O\202\305\213\351?\365\263\307\230sj\366?\210\205^\267L\003\324?x2_\343\341^\002@<\031\2453\205\334\347\277\351\232\035bt\020\341\277]\235\211F3`\246?\010\030Gb\231\350\360?\347\222%\221\261\303\355?\363\277^\322\307c\332\2773^\226\270\323\000\376\277=\266\317\312\233\275\353?\373\244Hh2\263\340?\324*\273\354p\325\373?\336\377\250!N\235\335\277:b\030h\031\266\334?}\027\340\336\234y\334\277o6\177DM\201\344?\177\305\207Q\224L\344?\344=\232N\030\375\374\277u\226\334rx\026\361?l\033`\035\212#\354\277X\370\353,U\232\340?\304\030~\273\033\277\313?\253-\276\3300F\372?0k\314\233X.\361\277-.\216\313\303R\362\277\343\377)\200\377\342\352\277a\034\010^\016\213\263?C\326<\005\271<\353\277\264s\251aH\303\372?\347\257O\230^\027\336?\222\317\031\302\270\255\373\277\016\250\032\207\234$\356\277h\221\262\234\n4\373?\216\242\234D\314\220\301\277A\311\002\353~\274\000\300\001\037\321\243#.\353?\222\335\322L\2271\262\277*\267\335\344\225o\300?\220\227\327\025\313\246\006@\375\374\304\302\262t\322?\333\323H\271\212X\344?\3511\360\260\301`\350?\342\271\334\335\372+\344?\\\366P\311\306d\346\277\352\037m\274u\221\241\277{\202\365\331\271\250\362\277n\'\365\214tl\344?\242\031\220T\022j\377\277e\365`\037\021L\302?o\"\256\241\244\232\357?\224?\373\306]\305\267\277+\250pd\374\371\360?\263\273\344n\201\320\322\277B\356\035\345\327\364\340\277^\264\032\3220\210\362\277q\344\331qZ\352\370\277\277:\222b\001\220\372\277S\212\301/\3468\271\277\264\364\321X\321\273\341\277\251.\247;\234\200\361?S~\3736\037c\324\277\316\340\214\2258\210\237\277\300\266\226\'\232\231\327?\236\324\326xmc\341?\024\331\217\326\337L\350??\333\"\347\340w\315?\327\333/\315\216\177\350?\337\305\376\247o\277\336?\215\256A\344g<\337?\344A\245\254I\355\001\300\231\307\"\204J\270\360\277\354\017\346d\263\272\272?\354@\016\367p\315\343\277\215|C^a\203\361\277\355\tFY\345\322\317\277\355\206\326\313\343l\355?n1\r\014\037:\365?\323B\2213\304Z\373?\220\325k,\252\220\372\277-\353\373y\375\013\354\277\003\372\026\t\222\322\366?\244\202E\215\263\017\343\277\022\022\321\312\322L\330?\344\000\214&\257;\346?\267\231\267\004PF\335?\317\240\365\230f\261\363?[\333\270\370\277\274\364?4\212h\251.y\363\277B\364D\344\201\035\330\277\301\236T\260\232y\004\300u(.\2457\005\257?\317z\034\264\362\322\351?kx\007B\332\007\312\277q\375\232u\245\002\340?\023\272?\031\r\254\356\277hQ2\"\373\020\302\277\n\037\036\213\036T\317?E\335\347\020\223\267\001@\036a\350\306\021\315\376\277\034\364\305\326k\'\363?\257\327E\362\324x\341\277\352jo~q\363\233\277\262]$Thl\354\277@~i\351\025\234\364?E\003\255\354p8\271\277\214\023\335\250\315\256\337?\273\356\237\272\000\024\350\277\343\247\245\325\337;\002\300Xf\\\232O\262\224\277\346\305l\245Z\337\336\277F(\372m\203p\340\277\240\315\201\036`\312\322?-\263\303\275\361s\241?\336-.\273\362\246\357?E\360\324vVS\360\277\257\262*\271\375\352\366?\215\222Y\367\205\357\301\277;\025\357\314\315\031\373\277\301\334\240\264\020R\354\277\243\372-n49\327\277\204\363\201\314A\005\354\277,J\034\322\261\216\315?R\t\225\r\375\321\335?Rq\313\022\314\275\326\277\025\364#g\3406\375?\301\016T\271\221\314\350\277[\337\177\213\214\360\346\277\000i\376\375\277\321\207?\3015\356\262\240\253\373?\321\234\356\r\325\300\334?\221\222G\2025\321\307\277\352\206{3\260Q\332?\321\242o\230\263\"\336\277\202\271E\t\315\364\306\277\225\240>_\364\311\352\277\274\265\270\312\332\357\307\277\3376\001\363\341\351\314?K\307\212C1\034\346?\3361\'NQg\375?@[\321\003\250n\374\277\201\247.ko\320\372\277^\013OH-\267\352?\277\363\033\031\347\353\376\277\253\336`\333\331$\314\277\023|f\3307i\361?7\304j\001S\345\350?b\"\374\311\276\344\340?rE\243\257\241\361\220\277\330\354\245_\002j\341?\222\210\224w\014[\312\2770\326\372\320/\272\350?\326\361\304\273\'\306\336\277\273\272\013\224\221\242\353\277\267\354_\026\347\320\364?\352\031\340\223w\243\370\277\362\305\"\030\025\336\002\3000\344\000=\3505\314?\376`\013x[\210\267?v\243Fl\002!\360\277\225\207\300f\252=\307?\345\323\206\310\347\357\340\277\367\266\277\276D\305\342\277\320d\343I\343|\314?\241\257\321[m\005\306?k#\351b\234\254\244\277v\031\344v.\335\362\277%\316jt;\277\342?\313\257\253u\237\013\335\277\216HA\336\304\010\347\277o\034\274\030\204q\305\277\355\215\233K\251\244\362\2777\343r_m\"\367?\233\"\006l5%\360?g\357\360\265\002\022\356\277#dV\304+\331\334\277\026\247\214\222\2336\357?X\243\214!\003\215\347\277\306\232\321\262\373\005\000\300\030\2029Q\345\200\303?Kx\013\251\224;\327?k\216[\201)\004\242?\246\310\333\223B\232\326?%\223)\306(\276\340\277\221G\007\234\341\000\333\277\004\233B\270V\351\331\277\270\252V\034\245z\341?Yk\"j1\'\346?iRS\361\037\330\366\277\334\t\301\272\323\367\274\277\363\036\253\277M=\354?\014\360H\245\257v\310\277\266\366At\374\373\313?FSK\021\247\'\360?\264(=)\231\352\326?\241e<\305\0146\317?\215d\3307L\014\307?\205\360\267j\245W\317?&\355\202\036\014\237\305?\373\205+\313\327\343\321\277h\355sO,O\244\277ill\335\034\004\325?\024U\304w\017E\307?\034\303\202kud\366?\264\250\200\366k\365\365?L=Te\372\"\343?\306\342\315\312#\216\323\277\332a\333e=\370\356?\035h\247\273\002\356\360?3\235\000\230\254\021\344?\275\225\371\253\266\202\356\277\246Yy\246\336\247\344\277;K\337\2503\246\371?\227\327\217\346\325\347\342\277\354r\251~\374\245\355?DO\311:\305\014\300\277q\244\036\267\300\361\354\277\007A\214/,:\363?\030\374\\y\320K\347?\247\333\336\024\250k\321?\233\332#\255\006\246\325?\033\237$Z\036\355\355\277\326|\370\274q*\376?\245J\r\216\t1\322?Y\334\225\034O\213\364\277\335L\225\207\"v\004\300<>k\221@\342\343?\374\225s\226\314\361\344?\322\244>N-l\367\277Y\014\311\367E\033\377\277X\244\257o\016Q\353\277\241eePp[\332\277\332A\346\224\322\307\356?\\\345\272\033\214\341\353\277\304lU=\374\323\350?\312\346\235m\026\216\273\277\365\'u\341\320U\370\277\224\366\346\336\020\330\361?q\2540\325\027\230\342\277\324\214\030\367WB\346\277!\r\277\352\374\001\336?L\033\252\3067?\334\277\326\2413\036>x\250?2\275\215\327!\357\317?\207]\337 \312\365\311?Qn\030\031\032\334\354?.\232\205qR.\367?\023T\374\347\033l\001\300?\245\014\324\311\214\374\277pyX9\270 \337\277.\007\214\013\242\241\345\277\212\345\362T\227\321\350?\255\266U\242\036G\367\277\030\007\332\356\337\236\375?\202T\201\333\255q\372\277J\031\r\356e6\266?\243\271\361.?N\377\277\205\035\235\351\274\343\367\277e\247\033\373\035\277\366\277{\235\007\'Z\201\250?.=\266\326\262\'\342\277W\2306\016_\215\323? \002\333^px\262?\212Y#\377T7\362?\371\333q\016\353\347\255\277hXB\3753<\357\277\304\313\335\311\347\231\341\277\224D\027?\252\336\252\277\210\222\263\325)x\202\277~\262\257\337\315\372\335?\361\304rv\334\346\357\277i\263\016\237\255\013\341?\235[\245\353\314\"\363\2775\356A\274\325\002\365\277h\360\014\257\027[\352?\236\256\341\231\230\353\363?\345\356\264\037\316\300\262?\271\206~Ap>\366?\266#\252\t\312-\322?\217\3606]\364u\317\277\361\253\265\363\242;\370?\026\272\002\273r\253\357\277\272Bj\204\252n\350?{\013\346\206c\263\374?R\373K\366\355;\002@\311O\332\242\361\237\326?\347\031\342\000\263\016\347\277&\336\330\276\327\364\356?\216\307\354K\366\"\337\277\3639\226\225G\007\307?^m \026C\'\327\277c\340\336\347\r\246\364?\034r4\375\376\215\336?\2350F1\210\026\347\277t\024\205u^&\375?\222f\034\243#\324\354\277\024]\351\201(\003\363?\251\324\206;\027w`\277\253\034\275\r\375\207\360?]?\336\3644Z\350\277f\331\315P\317z\372?O\366\326\333\027\217\270?>4\371n;l\351?7\316:y{\'\331\277\277\360DJY.\322?=9\235\257\027\354\304\277D\321\305\372\340\325\352\277$\371\356\305\0227\361\277\235JAj\215\356\361?\332\356[j\032 \334?\'\3444\"\257.\366\277\301f\343G\025\202u\277C5\t\332\343s\350?%,\252A\024$\323\277[g<\033\346\003\364?\231\274H\204;\274\355\277\177%<%M\n\351\277\325\335P\246\203C\356\277\210I,k}\312\300\277\341\324\245\227N\037\350?\322s\202\014\nG\353\2777\365\334\264\271\215\224\277;\000\363\306h\246\001@3c\207\344\313\250\342\277\375w\252\276r\227\317?=4<\242\224q\361?G\377\\[\302\t\371?\003\r\007\374\216$\315?l\2637\375v\253\253?\316\225&6\3357\341?\321]M_\352%\307?\005\002-\333Xo\362?\251{f\020\373\276\252?\234\207\350\255\215\262\371\277/\351\306@\276i\360\277\231No\n=\365\352?\034\255\320\240\272\273\355\277\347W\331*\010\362\365\277x\303\315\225\331\250\261\277 \027Gx0L\340\277\307\177\037-`\335\333\277C\365\305\n\301\310\342\277h\014\215\226\004v\341\277l\312O\315p\336\366\27792\225V\t\364\322\277Q\232`\353:\261\342?\177t\010\205\037\t\314\277Q\354\234\376\022N\352\277\262YlB\273_\367\277\364hU4\341(\000\300H\360Y\275y|\362\277=\214T=@\315\347\277\n-\307G\235u\346?S\353\340\361\202\323\324\277lx\270\236\362\305\374\277\253\003\337L@\327\361\277\247\333\330\302Lz\323?5\322DB\372\253\337?\247\250_U\005\356\327?Q\000@\352F\262\351\277\237\005\322\245J\311\327\277\354\332\031\246f|\331?\211\310\200\326o\275\237\277\206G\225\026\371\371\353\277\206rm>a\275\200\277\344S3\225\033\221\320?#\317\302\374\313\360\373\277b\236\003\365u\242\322\277\2362c3\007\264\326\277\367\367\317\"_\010\316?~`\000D{\212\352?C\247\210?\354x\353\277\215\232\206\027tN\002@\341~_\356V\276\263\2773~^\036\2667\274\2777\013\224\202[W\306\277@/#n\215\204\373?\315+\377A\326\357\357?\252\343\226-\225\005\355?=\016\224zBE\346?\373\356\244\232\001=\345?\t\310!\017:W\342?\325\214\315\016\316\201\316\277\204\010\323\373\337\222\312\277\330W\245\357ks\364\277\230\202\315&)J\366\277\337\266\326\263\302\343\324\2778\356D\010\267\230\334\277\236W\210VWK\261\2774~\370]n\220\352?c\372\371\033\326q\342\277^\003B\227@5\321?N\235\035\030\273g\360?\320\205\030\356\n-\374\277@31\032\237\003\321?!R\206\037\251\317\372\277?}\204ufo\303?.\265\032\203\206\240\364\277h&+\375a\354\364\277\347\260JF\310Z\352\277\354/\022\340\206s\317\277H\236\221\024\302\346\300\277\252\347\200U\002\031\372?\354\240\220<\367l\360\277\220{D\265Z3\342?4D3!b\220\327\277$\304Zo \010\345?h\325\341|\206V\354?1\321\376\220.\254\002\300\334-\276\300\366-\364?\217\354\233\247\037J\265\277\371\023\354\262\366\304\340?\307\216d\264n\237\321?\203\273\374g\266\357\360?\t+Z\326\344\337\003\300^\005\213\234;\301\361\277\317\340\256\333\"\266\312\277\244\354\022\323\016\375\332?6v\240\361XT\355\277\276{O\337y\233\226?\240\337\327?\227\342\356?Y \251k\254_\312?\342\327\223 \2572\345\277\006{\311\340\265O\346?\325&\037\241\347r\230?@Sp\341\232\276\344\277\362\335\365\235\031\225\271\277\242\361*\377\251\323\307\277\202\312\361\202\274\237\371\277\366*\274\315.H\004@\272\255\223|\250V\356\277n\202\313\236\022A\274?\301h\013\306\236\250\364\277\357)\273\322\241\340\326?\340\267Yf\221\014\263\277\3568\265K\037C\370?\216\317)<\214\370\363?e:\246\334h`\352?w\302P\203J\367\370?&\272Rw\271\310\322?\261$\230\342\343\311\340?4*\017E\212\220\272?Tf\3046I\263\353\277V\271BB\230\206\331\277\021\275\342\200\317\227\302?6\277\217*\024\311\230\277\204\335\254\237\357\003\362?\027\252\241\237\345>\346?\035\300\303\010Q\343\357\277\215\261`#\235y\224?\352F\216\363\035\273\264\277\324\2743\031\217m\373\277\341\0109=)n\364\277\001Cp\210\204z\361?\277\017y!\367\273\340?6C\256a\302m\344?!\303\227\324C[\361?m\264I\227\317\320\360?)\246JS4\337\310?uS\315i\376\035\340?\270\220\365\310\227]\360?#\335\225Y\302\r\347\277?\315\026\022G)\317?x\005\231-\332\034\332?\\\261E^\001h\326\277\263\246\343\036&s\340?\303\251\032P\232C\332?af\273sZ\264\363?lb\n\314n\300\343\277U\246\321\t\250\252\373\277\367\211#N\343&\321\277.\030\221\235\345\020\002@1d{\363L|\355?;\262\216\024\217\250\356\277\200Zt)~;\323?\367W\\\257\231\361\360\277\000X\342\001\310\271\353?\270\031\027=\323\256\372?\341:\362g\002\336\333\277\3062,\254\352H\364\277\361\320\251\312i\000\354?\256\2733,Z\335\346?\211\036N\315Y\207\330?\322T\013\316\234\323\326\277\216).\371\005\261\340?\022\016\017\366\214\314\345\277\257 \254CD\353\273\277\234\316\t\230\3704\276?a\237\302\034\327D\333\277\240\225\257\342k\212\362?]V\"\016\307:\377\277\335\322x_j/\362\277\002\322\260\'\253!\265?\301#_\257\261\304\266?\365\255\316\225\356C\365?\207Z\351\313\235\253\334\277\246\003Ro\273\240\342\277\364W\207 \272\250\347?r\346\247\215f9\311?W\342<\206\0245\365\277M\315\347\243\236?\355\277\306\\\345\30286\350\277\031V\255O\"\353\337\277O\212.\217S\250\326?Z\021+\301\234d\345\2771\360\257\316\211\373\301?\341\\n\266\334V\362\277\344\244Td\016\346\330\277+\240\373\246\364~\346?\362\301\362_\005\315\326?\353\3127\350G \316?\377\2548G\247\271\345\277\275k\nlas\367\277\272=\342\000\000]\352?\226\014\332n\376\312\324?f\237\024\205\304\245\307\277\211,\351#\003Q\342\277\n\370\254\266\363\247\302\277\244r\333a\324U\374?\215\305\242\253T\241\360\277\246-7\202\371\335\301\277\030\346\001m\206o\306?fX\t\013\221\225\343?\335\n\261\351\341\007\001\300\2018\374\035\212\342\365\277%\001\266\234\341\200\n@#3\204D=\013\362?\014\016e}\341\001\337\277\225\311\030\225\223\335\345?\t;mJ=Y\350\277z\205\256\322\372\177\340\277G\003j\306\rC\364?\277\240\256\231\225\250\265?\311\275\216\216\336\007\364?|\261\363\340)\356\341?;\177~\266\356\"\324\277\351\347F\020\310\327\335?%\207\225\301\263\367\271\277b\241[\022M\362\347\277\207\004?\370\200&\252?\355\345\311\232\217B\364?\366\237\237\3779B\376?Lq(\304\003\305\275?Y\227\306\335\036\237\352?\241\363\206`\216\000\336?\022\307G\023\034\253\362?\026\355(\303\267r\330\277\371\346\240K\341B\330?\366\t\210\200?\247\366\277\031\336&}7\014\360\277\246\002\326\213jz\353?\321\000\372\222\300a\347\277\2535%p\317\305\362\277]\207W2\016\203\375?\013\215W\200\217c\351\277\026\227\177\200!\313\310\277\215\022\204\037\371\237\365\277\205\2171\031~\275\352\277\005x\337\274\017\342\330?\203d\001\262\244!\333?T>\273\245\317\363\370?<\t\316c\007z\363\277\010\345\201>\204D\336?|\020oY\037\214\353\277\033\030\347\260\020\256\357?(\257D\336\216\263\340\277\033\232_\200\220\361\333?D\227\205\270\327\221\006@/\270\222\347\334u\356\277\"|\373\030\315g\355?mN4b\344\r\360?\026i\236[\016\327\317?\242\227B\361\0254\242?i\321\010\335\245\240\363\277=\220\352\277(\231\367\277K@\367S\315\024\363?@\023H3k\251\341\277g\246\237\322\347p\303\277\331MZPW\354\362\277x\225\274\0132*\343?L\035%EPo\312\277\227g\365\374\244\020\351\277\344\270q\347kM\374\277\250\327\237zzB\271\277F\260\355\271\311\372\343\277|\2546\221\346\327\353\277\025xI\327\342\242\361\277IK\006\177\rR\351?nf\373\274\2048\371?\232C\350\337\230\024\001\300T\270zG,L\360?\350\215x\220j}\312?r\023\350\303\241\235\257?\241\021\211M\'\277\361?o\026\005\031\351~\000\300\337\353\322\343\371\304\360?/\212\232>9\030\345\277\233^\344\312<\031\361?\243gp`\021\272\261\277\002\265C\031\270$\264\277\336\000\202)\227\364\375\277\204S3^\210K\357?\231\250]\3678\310\337\277\tc\247\214\353\270\354\277\256=\270\242kW\301\277o\347\022\373l\013\001\300\316I.+\3673\340?vt\227#TH\366\277\230BDe\002\253\335\277\t\030\026\000/Z\t\300u\336\013\346\375\214\351\277\377\234\307n*\326\344\277\262\271\302\0147b\305?\340\355\037\342\340\375\351?\177_\274\201\017\032\331?z)\332\004\"\327\324?\027(\256/A\007\350\277\326\377\266\231\366\003\275?\302\330-1\260\245\345\277\003PbM\320\326\364?|\242Vn#9\301?\3263\230v\302\365\327\277D\210\354\203\335\250\356\277\334\353\317\017\005\377\222\277\007\033\256\025\340~\004@K\356K\335\335\323\355\277\202}>O\317\276\313?]\335\354\334\334\231\373\277z\206\217i\350\347\351\277\342C3\211\315%\342?M\322\342`!\246\306?\206\350\211!\301B\373\277^\r\333n\026\357\000\300\264\304\201\023\301\234\352?\302\020\3019\006\260\324\277\277m\344!\321j\362?\2668\231\006\202)\001@\357\326EAZ5\343\277\031\033\256F\021\t\340\277\nJ\272\'\303D\360\277\263\270H\204o\364\242?U\200Y^}]\332\277\2750\306\260\254\267\365\277\216\234j\333\235\231\334\277\225\257j\234\376\365\000\300\260\344e\354\234\253\352\277\343\245\034\366\177\341\345\277^\356\275\334\377\311\333\277\353P\0216\2106\344\277\256\247}\312>$\354\277\210}.\000\264u\324?l\340\344\322\2114\366?d4[e\266\364\347?,\004/G\266\024\343\277\354\300\270\002\346\207\213?\372\343\3555\221\251\367\277\3170}O\"z\336\277\367\353Q\007<\\\306\277\354\310\263\264\221\303\205\277\261*\220\310\247\370\363\277\275\370%\352\324x\276\277O\374s\342\214&\361?\t\361\177\037\231+\330\277\367\021R3P\352\260\277\n\321\\\332<u\360\277\322\037C\362\210[\302\277\241\367\330L!\215\377?\277f\352\275\006\245\341\277\241B\214\277\307l\364?\211\274\343\205\236\336\306\277\300A\204%X\265\363\277\225\364\250\030\344\366\347?\223\315\0017v\025\321\277[\025\324\206S<\346\277\273~\226\227dp\362\2771&\013\305h\003\322\277\314\265\342K\3429\337\277\242\263\212\032\351\361\365\277\234+\351o\033V\354\277H\221\265\2148\336\361?\312@\264\231\303\374\350\277 \325\243\354z^\353\277\262-*k\027\224\332?c\200\036N\367\\\342?\257K\332\321\375D\364?\371\246\031`\202\266\371?`\014\306\340\232\226\365\277\241\212\016\210U\031\004@u\256\220\030t\035\302\277\257\300\323\331gY\350?\307\177\360\"\357\224\341?\336\277\t\365\334\307\327?\013\035F\372Z\371\377?\235\022Dr\272$\366?\226\305|\025[\253\316\277xI/\205R^\324?\331\205\017\315n\"\326?\335\337\363\242\317\344\307\277K\220\036\375\332\203\236?\244j\242u\256H\351\277\316\316\315jR^\321?S1?^+z\366?\367\250:\322\205\233\361?^\201\265\036\226<\367?\334IU@\216\204\344\277D\253\205*E4\320\277\372x\305)\266\251\272?.\243\306\260\272\251\361?\375\234\342\275\014+\337?\362\307\373\367\300\036\343\277\202\362\226\245:[\377?P\001\330\001\204?\337\277L\274!\241\253\300\320\277]\352h\224\030\335\362\277\371?\260S\267\303\300\277&O\275\316\0337\360\277\212\231\022H\252\316\334?\336\240\204\342hS\365\277\217;\310\216\035\301\331\2772X!\317\3261\362\277\001\213\326a\367\014\006@\266\215\303\t\371O\357?\237\'uP\3305\357?\301\362S\243A(\340\277\323u\243\347\017$\250?.\344\032\347V\254\323\277\245h\341\220OE\352?(\022\306\336z\351\371?O\032d\031\304\367\327?N\300\033/\327\331\371?\367\266\342\005\224d\361?\201\321\253^\326\370\331\277\365D\222\273\366\013\355\277\266p\304\261\227\312\363\277\311M\031\225\353&\336\277F\213Ws\307o\300\277*\362!\234\025\271\335\277\213\242\201\323j\202\360\277\317[*X<\271\333?\347\031aM\004g\224?\030L:\237\343\234\275\2771\n\201\235\220\340\363\277\010\331\230\333\371\376\340?9\232\362C\315\217\372?5\253\357\277*f\367?>5\024o\201\321\366\277)\006\261\225\262\350\322?I\202\013\352\001s\315?\352F\315\t\203W\345?\325\267\003\n\336j\350?C\\\274HTA\361?{\003\332\246O\335\332\277;\004\204\"\'*\326\277.\261v5\334\232\365?\267\265\322d\250\322\357?3k%\211B\027\367\277\235\271{(v\026\353\277\314\241\271\242\261|\264?\216\237\307\3169\237\355\277\3222\300\216Q\317\373?\311\2610\344\330E\305?\373\221\220\324h\217\360?\330yk?>\"\277?r/\r\261\267u\376?Gih\301`Z\366\277\001\376\036<\2164\333\277\346\277\250)q<\354?\377\355\216\333Q\352\360?:\236\374D\237?\327?\303\237\374\010\220C\353?\220\265N/Z\313\342\277\375L\352\221\250\002\353?wp\363\320\301\213\326\277\243O9\237YS\325\277\376z8\373\331\200\333?O?\262|%\231\000\300\266\007U\347\177!\360?\371U{\274\311\221\341?\212XRlg\243\006\300\262X\257\357\265t\344?\274\003*\343\020s\374\277\263\023S\227J\317\326?\036\014\350\026\022%\344?.r\226\031tC\300?\030\223\327\2140\205\321?\223\037z\020\311\257\217\277\256\036\3433\227\315\334?\354rY\023#\013\360\277eZ\006q\370\333\345?\376&\006\323\357\202\337?P\324\321n\001\026\357?\370T\334\330E\375\345?6\231\364\315\260\226\373?!\367@\'\216\217\340\277a\235 \331\276o\330\277\361\356\316\332\t\241\271\277A\307P/\237\214\336\277\027\2435:\350n\357?\325\034,\311\354\224\362?U\216\263\320\213\236\365\277`xDqNl\360?F\207;*\216\270\364?\262 M\257\004[\326?X\330\355\264)\266\343?o\331\270m\343F\357\277\200,&\030\277\330\363?\370\305\215j9\276\361\277\256\177\221\004\323\002\365?\203 \367\300b4\360\277\210\'\237^eN\347?\346X\344\363\2579\365?J\021\331\013j\033\373?+lpO\316\322\350\2773\324P\264\001l\340\277\357\207\222O|*\000\300\224~\244\266p\257\345\277\250b\000\304\217\372\343?Cco`\307\245\307?\355S\\2\301\231\361\277\267YY\215\021\014\370?_\340\3246\352\030\373\277\r\323\307J:\023\364?IZ\243{\026~\270?\370)E]\274]\340\277\351)\325J\t\375\367\277j\031>\221<\256\263\277Ui\"\266\252\342\320\277\272\357\231mu\244\330?\017\357\355-\211c\312?\250\364v\024\365\255\360\277l\355\265\262S\334\332\277\376Mqs>\016\004@\365\222}\356\316(\322\277\222\330{\371\274\325\272?\257\361$\252\002_\331\277\243\006\205[2K\326\277\310\036\355\232\t\214\300?\313\331\304\2568\313\266?\240VHD*\263\310\277\255\030\376\214\224\203\347\277\326\360j\264\257\366\307?Kf\030k_!\364\277\275\333\250\022N\347\370?\200\326\356\2740=\367?W\203\005I\247\330\352?\365jg\250\311\266\361?!\272\226\231\005W\363\277q\243\016\255\222\310\350\277\324\251V*\2672\376?\303\326\033\276\264\036\376?\006/\2052\213\367\352\277\317\336\267\224ia\371\277\343\263\217\310=p\342?\201\014\030\264\236\024\364\277\347\301\3536@\273\265?\201\277\211\032RU\336\277\372\376qM\n\031\334\277\\v\351\3541\352\000@\373\254\266\032\227\\\350\277$\315\324\275\331\236\355\277/I\231\026\312\023\310?\343\230\2735\013@\321?.\013\221\361\005\333\364?\260\232\262b\355\006\304\277\365\262\3053Z\t\300\277\201\001\264\275\256I\323?o\322\352O\252d\305\277t\003\024\336~\223\365\277\257\377\273\236f8\315?k@\215\213vE\342\277\333\260T\333\022\345\354\277\302`\214V\243\207\327?\347\0033*\027\356\365?\232\"+d_\250\362\277\0229\372\203\251@\335?\014X\237z\"9\360\277\021\346y\323\235\333\254\277\356v\245\355\022\340\354\277%\207\315X\033^\356?\223\376LM\010\r\325\277\017\2501\371\305\214\345\277J\317\251\312\345\362\346?\275\376\034m\270\022\361\277/Q[\243\275\352\347?\006:\363\341\335\220\326?\311\262z\221\211T\002@\376?g\315\247\264\356\277hdi\332)\272\341\277\347_T\206o9\271\277!\324sJ\221\365\006\300=A\036 \225C\313\277\"\322 \254\316\014\372?\313\277 \0060\200\362\277\177F\324\n\010?\371\277\225\312h\345\211\302\370\277\217\220c\273tl\265\277t_4W\316\360\377?\220^\024\340\"\265\365?\205\221\010\216\252\356\325?\247\0325\216\036\200\350\277W7\360\236\355\270\366?;\215|\375\312\300\353?y*\242Z\244\373\267?s\377m\373\377\253\340\277\030\262\"\003a\r\350\277\224\007\264\232\021\001\347\277\n\t\372Y\370@\336?\357Z\243\000:0\327\277\353j]u\241\213\354\277\227\013a:|\247\357\277\t\350\303\255e\300\354?]\256\377\373\236\227\334\277\255k\033\0013\205\302?\004\214\022\303I\372\324\277C\"\024nm2\343\277\240\014\304\1771U\303\277\020\'rQP\334\245\277q\362\226\0323\353\337\277\322\3152\314\204\201\331\277\271\342\206\010\3100\360?\311\270.\304E\037\007@\256\203R\002\323\027\366?\301}\372\334\371\351\357?ub\234D-\343\320\277\342\375\257\202O\323\341?\311\236W\251\206\246\360?,:J\212[\022\003@\025W\266H\253&\346\277\340\252F\004\255\264\334\277\264\322\227\014\365\364\363?%1\363\206y#\320?\314\306\236\324\335\250\341\277\261\310\213&\203\324\364?\230<$d(\333\367\277\374\310\220\'\017\220\374\277~0\340\005\225A\310?-\261\256\272\353J\340\277\2248B\333\215\237\372?\264\327\'\272\373D\342?\373\204\316\301\036\333\262?\020\204E!\2148\356?\263p\374\234=\206\350\277\231X)\314\005<\217\277qV\002\243\273\020\302?\003\2544\376\264T\363\277\343]\256k\302g\277\277\350o\310\235AE\220\277\2065\232\240\212\330\360?\020\036\245\260\276Y\307?\'x\270\341i\253\371\277\3576\365%1\314\342\277\343w\272\340\237O\232?\263qdN<\340\275?\317\266\261\235\'\023\370\277\300\276\277\246WG\306\277\345\005kf6\314\003@qU\322\212t\300\347?\2209\'\235\014c\366?\341\207$J\010\262\342?\177\200A\215\261\026\251\277\206O\355C\307u\277\277Dc\262b(]\016@\"\324\233\362eH\351?\313E;\367\241\245\227\277\nLZH\231V\004\300\375O\004\0332\023\365?P\341\017\316A\306\362?\255\205\'K\316)\317?\270q\016\231M\223\365\277e\322\253o\246+\303\277\037]\206O\346\355\353?7\326(\004@0\367\277\323;\217\270\030c\321?n!\334\307\372(\374?:C\350k\001\320\346\277 \021F\307nZ\361\277A)\027\225\022\022\327\277\216\020\206\360K}\336?\323\247\031\312\r\357\337?u\354+\0026K\345?r\254\212_]=\350\277\033\034O\237\201\017\376?:\245y\337\030t\336?\'\241\342A\3108\361\277\253<\007\263\314|\312\277O<\351Ua\212\257\277\021\260\222\240;A\366?\001BH\243x\330\267?CYh6_@\342?\210e\206\334<\320\335?RHp\005\271\346\246\277xw\367\311\203\013\004@\315Fb\364|q\353\277&\274E;,\226\360\277\346p6\023\252\320\351?\216\276Z\342\332\247\352\277\344\006h\027f\\\376\277\031\246\020\3316#\346\277`\254\277\306\240\274\370?\014)\266\212l\t\362?\215\nw\276\234\"\272?\300\225\013B\035{\356\277B41\005\372*\313?+\313\212\024u\200\273?_:P\373\037\201\366\277\312cE\036\312g\320\277\231K%\033e\010\352\277\276\247\337\036\007\033\000@\246\274P\3330\303\276\277\037T\270\263B\302\342?l\325\302\204\314N\365?uE\267\247>\322\351\277y\327\242\342\352\243\261\277\242\023(\376.\242\345\277\020\270$N\021\232\346?\260}p\351\n\225\322\277v\270\354Y\250\374\350\277\010%\353(\211N\336?\373M \321\241K\373\277\206\305g)\271\226\361?*\247\213\032\237x\360?h\003?\030\033A\364?\341\361\327\266F\317\361?u\225\005\321\304\216\365?\264cB\222S\026\351?\345\016\2663o\320\320\277\372\205$\033\333\004\335?\377\252\032\226\220&\362\277\261|\343\036C\026\335\277Duj=\274N\337\277\245\302\324k\210r\310?i\230_{mI\310\277\216\035\330\034L\316\363\277\225\331\353%3B\347\277)\022~py\262\311\277\317M\202XX\207\320?>72U\201\365\361\277\264kj\366\336E\343?\317\331\373P\363$\334?\227E\273\347\255\200\354?\324\330w\265Cg\375?\272*\257\207\177\264\356?\260GS\260\'^\251\277\303\"\231\353\0108\351?\036\352\314\227\021\004\370\277d-\347\275P[\322\277\252\027\034e\201\217\363\277\305\036\246<rK\302?\354&e\363\320\371\342\277c\031\212]\305\346\323\277:!\304\222O\000\344\277\244\022\371\365\330\244\337?\237y\271\274>\207\356\277\253dM\241\223\177\344\277\\\36067gJ\321\277\\.\335\337\201d\323?\002\031\265\243\361\026\342?\t4C&\233 \347?[f\306\253DC\364?,t\200l\245\374\311\2773\0014\207F\302\n@\224\017g\027\365\005\271\277\204\001\251\031\032:\324?q8F\224\014q\365\277(R\216;\237f\300?\313\225\2362\252\233\240?e\263\223\357\203\004\332\277\2356\357+\260p\366?\255\257\204\262\260\313\325?\261\335\256\246\266\010\342?j\350g\377\206o\361\277\376\2359\316\247\316\265\277q=\237K\277\261\323?Pw\364\260\254)\327?\276m\n\t\027~\270\277\274\201\324\311m;\341?4C\200 \342\211\301?\010\334va\274\275\377?\332\315\362\251\033\026\373?\220\224\340s\2675\336?\246\340(\022\322\321\313\277\266\301/\235\264\274\360?]\322\265\2413_\313?\327\263\242\240\277A\353\2770 X\200\001!\357\277\323\314\256\324b0\363?\0219&\344q\267\335?\375\001:\277\217|\305\277\347\0077@ \336\363\277\021B\023\276\366b\320\277\233\267&l\0373\366?%\010\222\310!5\270\277\341\211\215A\314{\333\277$\330\223\366\260\340\245\277\347\364\344m\324^\374\277n\222jl$\240\325?\260\244\035\302\240\232\325\277\337\306\236P\356\262\333\277\030\276\351\320\230\221\336\277w\016\204\377\034\207\335?)\206\3745\343T\003\300\360Z*^\210\037\341\277K\215#\261\242C\371\277\017\265\337\304-t\361\277kj\n\231\261\250\353?\301\346A\327\031\326\371?\005\320\366irJ\244?\200\255\021BW\364\345\277\253\326\216\025l\242\307\277a\350\247\350\037\\\345?\323EK\tN\274\350?\213\n\210??\311\327?\345|i\"\0058\354?fK\210\337\026\231\365\277\"\223\2330\027\022\305?\025j+I\230\033\340?\004\201jnbB\323\277\271(\267\337\327=\334?y\034\2008pf\002@5\017V\326G\335\370?D\357\274\233\200$\360\277d\333pe\207\340\366?-\213\325\006\322d\306\277\270\005m\023\tj\261\277|\264\371\256\002\004\002@\237\322Y~\000.\246?\215&\315i\207s\362?\337\266\350\207x\344\337?@1\203\032\357\272\343\277)\256\310\272@5\344?\226c\311\344~d\370\277\000\034o\335x\271\344?V\233\024\rg\007\363?-\346J\203@B\370?6h\3326*y\371?I\031\004\004\241\311\365\2778\274\216s^\035\342?\025\226x\275\253+\366?-\273\366\033\215\355\347?\351,2\217\273\027\364?/\374sx\345\031\367?k\322\347k\364k\327?\021-\003\035\r\250\365?\255\214\2616\351\034\360\277\320>\013=\220\246\372?g\253\241\267\277B\370?\336\375\2469Y?\264\277\272\023\276\234\360\375\347?@\r\205\025\327:\344\277q\276\255h\023\345\347\277iVd\323\333\353\362\277sMn\306\361\347\301\277|\377\020\304/\267\360?\tY\037\337\206.\000@\226\240\320\344,\027\307?\355o~\217\t\r\375?1G\371_\330\273\311?\206\270Db\262\331\334?d\306_\372\366\252\337?\205V\215o\310\276\366?F\326i\266\366\031\356?pg\002/}\244\361?\375_\377\355\361\032\230\277\317\272\3358g6\364\277-HP1\251\247\322\277\200\343&\346<\351\376\277?\0271\375i\266\004@\263b\350\315TX\355\277\233rC\361\312\020\361\277\225\023\255\201\t\320\273\277\254>`v+{\362?K1t\304\223\027\360\277\223\236\243\225]+\324?\365\222\277\267}\264\315?\\\036 \033\201\234\361?0\004l\240\355n\330?aw\223t\357\341\302?\270\033\371M\220\007\323\277\261\250\325\'A\"\377\277\0018X\244\314.\372\277\211C\341\357ea\366\277q&(\024\026\374\377\277\304\267V\213\273\177\245\277\273-\316\375\246 \357\277~\273e*jC\371\277\t\267\357gt!\354?\235W\342\013\345Z\337\277\215\230\023HJl\343?b[\032\362\345\030\345?\251\270\367\2553\317\354\277O\251\204W\303\n\356\277W\364\265\354\220\355\366?S\267\227\023 &\351\277(\3208\237\347J\361?K\316X\256;Q\346\2772\206\177\215\004~\377?\t\374\304d+u\346?`\317\241j\002\331\311\277MJ\356e\345\022\330\277y\325\302I&\216\305?\0338r\263\266\262\255\277\233\355\016{.\224\340?\337%\276h\323\316\337?\370\350m\273\237\220\317?\373$\334\322\3335\365?\204\303L2E\031\335?O5x\237Q\355\363?\020\351\266\315\332\267\347\277\361\276\222\321\254\016\353?\277\265\341zL\004\225?P\242\253\007\205[\375?\0347\344Y\3076\367\277\354\220&zh\313\326\277X\237V\2336\312\321\277%t\356\214j*\222?\224w\252\310-\313\353?%\307\256v\251\\\373\277B\272\366\340\226\302\340\277J\374L\330\305\202\346\277\310\025\\\n\242c\330\277\264\024\030\206\021N\351?\223\370\337y2x\331?g\014\371\006\263\364\310?\304a\224\305[\333\354\277\356C\002\327! \362?\337\265\247\267\306\350\002@0\221\304\032,\305\355\277\331x\0309\302\264\323\277\216\211\2505\030\002\324?\376\362\000\204\273\226\374\277\364\273f\"\037r\363?\226\014\266\033L\364\364?\374\235\245\331\357(\374\277Nlv\376\250\244\342\277\022$\02725)\253\277:\031\217\265\345\315\335\277H\n\021`\021p\321?~o\204\340S\311\365?p\326\252_)\t\324?\216\244\2735\013\336\002@\016\316,\2721\270\244?\350\227m\000\230\277\351\277\004\316\305+`\363\370\277\000\232\264\323\373\302\305?\265\314\316\303\271\305\347?\350Lf\336\316\202\364\277K\261[\356g\005\357?\346\325\272Kn\002\235?^\232\243\30503\332\277o\266%K\330c\265\277\022>fW\275R\361\277E\316\271\351\242\231\342\277c\r\016\010\n\274\331?\254ur|R\331\372\277_\346\246\013\200X\331?0}\'i\356$\371\277\2276\014^jZ\327\277\"\240\265\376\007H\364?\307\035\365\377Yl\365\2772\3033\212\301\365\343?5\317U\316\356w\326\277\212I\354\240m\237\361?\341\014\375\265\325\010\347\277|2\006\026\022\316\331\277\225\234\305\257\236\037\302?\265\223\274\307\301 \336\277\361\240w\332i\327\340?\351\026\337\257\261\265\351\277\'\263>\351\000\212\362?\212\240\t\304(\225\305?\005H\\C\356\264\360\277c\0009\207\211\266\364?e\252N\374\r\217\372?*\273oP\346\256\363?\332\013z7\352\270\356\277\224\253\265s\366q\331\277q\361#\277\337\377\237?|:0\375L\304\243\277\341\205\304B(w\347?\031H\355\023\375!\364?\266\254\335\312\266\227\322?\002\262Y\307\370\367\347?\244\363\rX\221\177\362?\010\036<\217M]\345\277H\343^\322\002`\371?\255\306\0046-\352\272?\363\261\375\315&\033\325\277\363[\023\362\347\374\364\277\354\255\026\177\237\253\361\277\330~\177\255>\353\373\277N\002f\322Md\372\277B+\342qa\356\357\277\035\026\227\302Z\032\361\277z\264y\023\261\200\363?`\245\327)\360\226\241\277\267h\252]\3557\340\277\313\355\r\357\004\270\323\277\374\317\275\230\303\306\342?\217\234\230\372\333>\361\277!\025\254;r(\002\300\334R\035H~W\377\277\253\021\275\274\024\350\303\277X\266\363Tr\316\352?Cf\224{\021|\001\300\223\336>\003\202\030\351?\337&\360#\004k\372\277\324\236\242Ha\202\303\2770r\026\262\314+\351\277V\345S\244\204\260\327\277\213\n~\022\272\244\351\277\276\3049v\247\312\346\277{q\375^Fg\362?\253\325^w\334,\354?\030{k~,\336\345\277W\\0\263\211\264\324\277\326\022B9\323\t\004\3000\204k\323\327\237\372?4[\337\037i5\360?\te\344;F*\001@\252\231\375\3353c\334?\020*fu\224\271\323\277-\304\203<\334\210\325?\264\355\312\214\244\272\367\277k6\340\260\303q\343?\215\273\027\252-Q\331\277\3308\340\322\204\370\365?\2254\207\242\002s\334?\237d\253\273I\037\272?14r_t\303\357\277/\235\326\004\343\267\367?\3069\205\037i\256\337?\255S\361\204#\202\362?\253\202\275\217N\345\001\300\373d\n\212\276\236\236\277*\335\"\317\332\365\346\277\263\006z\317\316\300\370\277>\371T\024\244B\353\277\244\234\301\341z\303\005@e\2225\354\224\365\337\277\031}\273H\332\303\356?\263l\334RF\313\324\277\320w\322i\000\243\335?/iV\371bp\333\277\204\237\332\311s\347\336?\264\236\314\370\201\201\373?\311Wo-\330\216\344\277\227\251U\305\241W\347?\336\241\364P\034 \345\277\207\316#\226 \022\372?La\257j\356\267\360\277\361\336\311u\210C\311?\224S\257O\252\337\275?\0016A7bJ\000\300\\|4\312x\332\327?\233)D\033\236H\360\277\025\332h8.\376\004\300\233|\332\226\214[\343?\201[m\353R\242\367?\373|\305\002#7\374\277\226\\|\323Bl\370?zt\334\300V\323\373\277Wv\221\215\010\213\361?\204}y\371\025\024\317\277\375\351R\366\340\022\322\277r\221\030\306\3300\306\277\304Sc\372\272\016\357?\013p3\302\256R\377?d\351+\037\rU\265\277\206\265\232f\364{\360\277\217\305T\027\222\266\310\277<\306S\260\376\010\312?\367L\241;\335\r\366\277\310yE8\3576\345?\250F\016;\026\220\271?\337\246\323\017\204\366\337\277\373\225\344\315\364\223\361?\241\t-\225\245\301\362?\305\2104\211D\234\361\277\364\323@\177\014\370\352?\316]\244{\006\227\355?c\254\256\221*\037\340\277\000\017\254\265v\270\323\277[Tp\330S1\343\277\237COOJ\333\316?\366\333Kc\330P\221?\253\n\025^b\320\347\277\310m,\244g\014\363\277L9\361)H\027\337\277}\023\205\364\373\230\362\277\006\312\345C\376\334\364\277\204\301\030\362\002\357\232?\031\217\347\250u\204\303\277\301n\320\332B\207\333?Iq\230a\270\025\340\277\25378N\361C\261?#]\200\342\256o\316?\275\327\331\r\274x\353?c\260Y\367\342\371\345\277\036\340\372=\306\260\364\277\200\260L~,\274\364\277k\004[ \245?\370\277\035\336\331=\321\364\346?\367k\232\274=w\325\277#\363\256\332Y\270\324\277=\211L\010\3376\323?[\023\230\223\346`\322\277\227M\355\231\360\244\210\277\257\302\356\325ls\371?]>-\200\352\345\320\277M\300C\026\025\372\375?\033\214\327\303\312$\301\277\345\243]\377\177o\312\277Y\222\3749t\376\361?;\213O\241\366\027\360?\332P_\307\225p\355\277\347X1shg\363\277\001\3149\000\0075\362?\314\255`\340\311\026\335?\213<=)\304\263\342?\233F\341\003a\374\345\277|\324\257\206\030r\366\277\353uT\216\255\231\361?\'\0236hD\316\006@\037<\324\344\001\267\344\277\247\004\253\326rL\353\277\263\260>\266\256W\372\277n\017L.\363x\330?W\005}\323\273\301\366?o\202\210\004\235S\354?\204\266\373\300#X\356\277\r\343\357v\010\335\360?\222\356R\264\033\216\303\277b\366<\325}\233\323\277\252\007{u  \003\300?\371)\213 \230\310\277\032\243\240\227\031\333\340?\034\265\317\312\324*\231?\374@|-\023\\\374\277o\247\262{}I\332?M\002\214\203\311\233\310?\263\266i\232A\214\365\277\025\327-\203\'\'\257?\212\224\271\0358\002\177?\213\367\246\335\200\301\372\277\217C\365\351\371a\362\277]\274\372u\255\340\327?\373\243\231\376\347\270\334?J\367\325\005\311\"\366\277\375\240T\n?\005\370\277\017\354T\247[D\324?UD\304\250\355\361\370?\236\025?/XX\366?\304\2059I\025\343\317?\375\262;2\021\222\002@\336(w\225\340\276\365?\265\211\013\\O\272\366?\201\367|r\275+\360?5*\036Y\201\230\355?\243J\\\201\007\215\323\277\027 J\273|\304\360?<\303{(\301M\362?\2168pX\333X\366?_\362:x\354\361\347\277\232\263\370\2568q\327?\005\212\261\3651\370\343\277\001Hz\321\260\260\374?\302o\350\305\034\242\371\277\030\257S\251\357D\300?\356^\243\030\375\006\360\277\224\366v\272L\n\375?\3538 \226I\360\336\277\314z\226\357\332\357\345\2779\330\222\240\036\r\336\277i\367,kd\347\344\277\275\366\326\326\375\353\355?\224\344\002\031\240\307\356?\177\267\212p\237/\303\277\255\204QM\233?\340\277\233\030\210\206\006q\264\277\263\320\267#\000\223\310\277\014\2100\243\n\346A?\215U\250\177\000\010\360?;\254<\230[\274\350\277R\002lM\007\323\351\277\311\204\212d*\315\335?\367\016\242\030\211\247\345\277\240\247\021\252\243\266\360?\3163\315e\322`\375\277\255.W\327\202\013\350?\370U\346\032\315>\330?\254\243?:x\303\324\277\213\236\023\202\303\244\374\277G+\032b\344t\345?\270\270\325\014_w\352?[\325\221\177\344\355\321?Y0in\231\n\367\277\226\205M#U\026\373?*Y\236K\003b\350\2777\221S\306*e\357\277\3546N\251r\027\332?0\232d4\2718\335\277x\270\202\244S\326\001@>\224|mR\023\351\277\301\353\200UPF\314\2774\024\250\340(\264\347\277M,\230L\032\254\340?\246\360\206`\210\374\373\277\243\033;\305\267\366\341?\'&\277O\337\314\360?\233\313\006>\341\365\331?\364\314\213\340\330\324\344\277eRF\247\256R\342\277\277\255$C\016\321\275\277\245\370\r\021G\211\376?\3352\267aR\356\302\277\217\202\033Z-\354\342?\200\177\377\245\236\020\333?\276\261!\274\300\231\344?m\333\260\303\2465\314?}\n\327\031\261J\340?\307^\222?\036\364\326?\305\242\032\216\353a\351\277\373\"\235Z\223#\347\277;\241g+\205S\312?\010\331\266\220\231j\326?=\307(\361\333\004\330\277\363\307\300\0103\211\367?\233Ik\251\300\200\365\277\020/\352\364\201}\360?\355\013\3142J\353\361?+_>\306\225l\320\277\265\001\260GB\214\002\300h\240\357\264\rt\336?\r\2323IL\250\335?.Gu\033\371\271\350\277\"\246\230\341\356\247\272?\225j\034\352Z^\345\277\305\302\3252\271`\307\277\363u]\t\271R$\277\354\370h\374\206\367\356\277\371\210DOG\245\345?\000\035\326\341]\017\327\277\221\021\025\177UH\375\277G\211<\216V\237\364\277}\333\000\237\221\266\000@v\250\251\321\n\230\360?Ps\364\204\365\371\342\277\233\352\240\363&H\213\2776\264\201\3203\325\313?}u\203g\231\310\357\277\231\"\363\354\231\023\365\277\256>\374\341\352\r\321?\331\365\321\330\r\321\354?Sm\252\375`\007\366\277\t\256\205\036+\270\334\277_\203O\230\364(\356\277\234>\256\331t8\316?\251\3238\254\203\275\365\277\030\024\375\242Y\222\325\277\037&)1bY\321\277\004w\306\204\177T\361?<>\2617\037\313\230?\256\206\324\014\021O\357?\231\342\247\214\250v\341\277\323\342\001\2017\366\324?]\355\273]S/\326\277o\003Y\326\341\275\343?C\205\021\3058 \353\277\270\214X\302R\353\304?\221g\266`\335\244\327\277\204p\213\342\311\321\371\277)\200\\\233\326\260\344?\350\263\244vj\340\344\277\231\253\372\230\026\002\345\277\2063\255\250\013\347\301?K\244\257\211\2643\326?\331\221\247\363!\265\250\277\226dLW\252\241\276?\230S\342\024\263p\347\277\0232\376\026{{\323?,X\036\371\022\360\342\277y#\022\212S\323\336?L9\311>\300-\373?bF[w\034d\360?T\200\035\204\251\274\362\277\267\203\347ch\342\361?\361\347\000`+\236\204\277\233\367\305\014\263r\355?}ja/\211\353\355\277z{\\\032\200\317\321\277\355#\221\244\257\251\323?\0162\032\343\242O\362\277\333\240\026d\021r\317\277\317<\251\310\330U\005\300\264\337\320S\036R\304\277\000\014\325\244>\222\357?{\352?\206FC\374?\030\352d\257\324\225\304?\326H6\314fg\361?\215\350\356\300\353\353\336?U\300\224\274o\224\362?\313<Z\303%=\344?\rk\225W\366\343\360?\374\334\016\253\031\226\333\277\244v\212\242(\027\343\277\315dM7\250\366\345?22xX\337\374\306?Y\006*9*j\341\277\205\340\303\373t\\\320?M;\323\246\002\314\341\277Zb\226\221s!\320?\224\014\353\004K\002\001@\327\260s{k1\353\277\313\007\273\337g\035\346?\232=_o~9\326\277Rh\226\273\322?\371\277#V\304\237\260-\356\277j&^\203s\374\362\277\267\000\357\364*\372\350?%V\371O\024_\336?\203\234\t\226\374\007\353?\335\350\027\002\207;\244?v\t\301\032\030\277\360\277\031\260U\244D\362\244\277\020XQ)&A\354?\037\333\301\032\212f\352\277\345\203\254yn\274\334\277\200\272\365\034dL\364\277\221&\247\261\210\215\372\277;cc%\266\326\340?)g2\243\226\326\001@\334s\333A$i\347?\206\236\273\3452d\343\277EH8\326\221i\371\2770\222\014},\271\371?\341\370\350fT\317\341?0\tFx\377\362\273?+\005\244\342\301+\361\277\2449\026\247\360\372\325\277\226\016\014\350\"f\332?\n\313T\\<\350\364?\327.T\372#J\342\277]\314\314\222\264\212\367\277\347t\356}\035\327\355\277\255\357J\216\363\351\343\277\315r)X\236\023\361?Z]\025z\220\320\342\277>\020\216\350#\236\347?\035\262\220\222SS\334?Pt\225\365\250\250\352?\362T\010!f\"\363?\373\340\243\375\264\032\356?\225\375\325\353\014\342\375?H\300tG\306\177\341\277w\214\256M\355(\366?=b\220\316>W\364?\227,\275J(\221\340?a{\252\237\226\263\367\277?\n\020\214\307p\305\277\337\373\216\262<@\312\277\002D\203\234Or\361?\332vMp\333\232\315\277\312\237\255\003\030\361\325?^D\367#\372\024\276?\360\361\367\n9\254\352?@\016\006\253(\327\361?\267\261\344\021g\331\006\300\322\242[\236\004\351\376?\304R\323>\206\363\367?\252U\257\277 \t\345?\300m\366\244\032\335\354\277\0239\257m\030\235\355\277J\356\376\223\306C\343\277 \010\360\247s\n\371\277\037$]\n]\313\365\277\307\035-(i\335\353?\272\304\261\353\344\377\374?E%+I\332U\332\277,\227\252\r\'k\004\3002g\351\342\217\250\361\277\004<$\372\270\347\251\277\212\210\315$+\347\366\277-c2\231\341\021\365\277c\001\246w\3615\343?\311\203\305}\230>\354\277\354\255\353.\275\337\346\277\350\365\177\336\337h\347\277a3\340\362\204\026\370\2771\001\005\326dt\300\277\344%\300X\254m\272\277s^K\005\001\374\355?T\266xhk\217\373\277\367\343\270UI\250\230?\316\274\264o\200\322\266?\316\027;\373\275\347\322?\316\037v\013\227\255\355\277p*\325?\242\003\340?u\025\274fb\031\365\277\003>\374\031M0\346\277\033\177\207o;S\360\277\307\347\002~\255\243\362\277T6\246\260\016\356\361?P\032\261n\353\304\323\277\235Cu&\034\341\361\277J\314\302\360\354h\300\277\267\177c\251\205\253p\277\240\240U]\177\240\326?\261m/\343!\035\352\277\201k\301\200\215&\354\277P\311E)\304J\001@R\237\010\354\020\340\343\277z\025\317\371\320\267\335?>\260[-*\310\365?\225D#$\277\224\232\277\021\305\233\034\t\022\003\300\224\204\360\025\2058\375\2778\230g\177\344\033\325?\303\356\314\263@\320\306\277\332N\362{\253J\360\277\371\330\330\000M\307\337?<\300Cr\0310\347\277)\334\016\222\206p\356\277pT\302>\026\"\321\277\331B\3625\032Z\344\277cC\002\370\356*\367?zC\272U\2747\315?\344\276\301\311n\023\276\277?\372\265\240\312B\324\277\237\305=*)\345\312?OgQ\322%\350\264?\001\0025\320\t\213\307\277\311v\273\010\360\322\366?\232n\376\3002\302\325?\276=\273\376[m\000@M\335[\264\\\032\302\277\317*\347\212G\274\363\277\206\367\035\212y\374\246?\3268\037E\014\353\325?\307<\376\302\302\220\340\277.u5h\377\321\345?\251HEi\004\252\300?^\330\247\323\030}\000@\266\270\370[Jx\366?\350\333UC8\256\362?\340\201\371\324u\311\352\277\365\350\365\017\275\225\303?\241=\004E\253\254\327\277\271\206\307z\010\246\337?+x\016\2738\201\327?{Y\264\032\205$\361?}g\223\347\274\327\345?d\021\027(\334\027\366\277\3031&\377\357<\310\277\334\304z\\\200J\353?\203\3142\325\216\251\322?\007>7\207\236\005\271\277.]\0209\371d\365\277\234\264\261\263E\340\262?z\274\373`\256;\350\277\342\260\274\207t}\335\277\344\256.\333\273\215\356?z\260V\336\356B\356?H\337%b\036\257\274\277\3243\206S\265\274\347\277\264\317i\024\320]\307\277\225\200\341\316t\234\354?c\376\204\212Ze\336\277Ak\366{\277\'\320\277\202\333\310f\342\254\344\277\266\205T\004\201-\360\277D\021\337n\226\257\367\277\355\315\303\005w\322\332\277n\335B9E\322\365\277r\270\000\360\030\354\244\277ft\022:\366\025\372\277vP\001\276\277b\342\277\214\332A\246%\323\310\277X\3064\nL+\340\277I=r\211\227#\376?\350\255\201\245\027\352\347\277|\245\353u\354\217\334\277\3043\372(\225\367\314?\334\264\233(\361l\356?\374\360\361\326\003W\346\277r\037L\"J\216\376?i_\342\334\371\n\362\277No\376\231L\030\371\277\027\021D2#\273\322?\272\234\357\3203\232\310?\263\305Y\3438\225\235?\200\001\261\273ux\312?\232\352\265\274\036u\261?\365^\3211\272\033\365\277\177\032\333l\025\227\274?\310\002\353OJ:\354?|\276d\211\347\260\354?v29\373\332\177\312?\330\036Wq\210\227\326?lF\364\341?\267\230\277\266\244\3468\005\026\360?\005\203\207\202\312m\342?]\336#\202\2152\362\277M\224\375L4\274\341?\2264\201\246w\373\330\277$\221\254\261\021\023\360\277\305\244D\211_\323\243\277\277V\213\333\302|\321\277,\374{[\010\036\355?1\330:{\017]\375?\353&\350[\361R\351\277\215\242\216\253I\n\342\277h\001\317$m\240\355?\247\301\035\352\277\020\350?>\023B\3047\230\306?\365\312\016\327u:\341\277F<\016D\353h\341\277m\013\373\241\253\203\331?\033\027\326\340\317\266\350?\303\223\310\007>\005\353\277\202\027\256\205\346\177\303?\020\035\224\243\215`\372\277\177\027\375a(\203\326?E\312\260Q\251\373\370\277\354-\277\334\\3\312?T\277\334t\\,\340?\317\244\020\363\017\033\353\277k\21398\312\022\342\277>\'\316\310\307\267\310\277\314-\253J\255v\201?={\316\357\370k\372\277\223\266\373z\260\331\376?\242S>\231\227\213\360?s\004\237:\305\243\371?\240N\316\037\000\302\320?\0345\213\321\334#\331\277RX]\343\344\271\370?A6\177\177`\217\327\277\334\301\260\326\236\350\330?\343o\260qf\347\262\277\217\335\236\nC\003\346?;\207\177\020\350{\354?AM\361{\345C\345?\303\360\276\263v\017\331?\021\257\371RNr\326\277j\246@F\317\316\350?\010\360q\032\305t\324\277\221\2338\344\266O\347?;\264P\323\302 \356\277\212\022\002\000$\360\360?\271\226\221\342\204\277\340\277\037&\264\216\306\033\245\277#\366M\274D\331\351\277-}\375\253I;\005\300U\373~\263\211\360\342?\341%6)\342Y\342\277{\300\217\223J\225\326?Y\030\312\311\2274\370?}\210t-%[\343\277\213\310\366\030\330\003\344\277g\371Q\340\250\331\341?;=]\037>\317\372\277O\245\312\304\321\314\340\277\017@\r\300\007\274\365\277\340V\202\220x\037\366?\301\304\346K\005\005\326\277\"\346\355\275\013\241\370\277\221\351\023\210\344\240\330\277\306\032\t\314\251\250\306?\317\320wB5\333\004\300\014\330\310&\0104\367?u\237\245\337\t\370\361?\312\224\360\321\271\370\360?\036kb\341\005\034\327\277\304\001\205`\317J\346\277\200\035\206m8+\346\277q%.f\262\037\346\277\324{\000y\336\367\276\277v\355\003\212E\267\365\277\035S+0l\372\342\277\373\354\005\303\364\211\355\277\377\020\315\335\234\306\301?\232\032\377\220,\377\372?\3321>a\351\322\345?k\344\0133\004t\323\277R;\035\360\250\024\000\300U\363\310\275>\224\372\277\305~VmN\t\357?\254\235\016\004\026\230\341\277\217\'\321\273\3324\361\277\003P\027\252\341w\351\277\233\272\351\317\007\220\006\300}~*`oy\354\277\241\305\355\317\024c\351\277\036+\270\352\021\302\360\277o\017P\231\206\032\246?\200\277M\343E&\315?\024\237Jg\360\005\315?\226O\\\242Y\320\355?\257\317\202\216&\017\314\277\213r\374\030d\332\260\277\316g\334\213\377T\362\277o$\214\022e\326\343\277C;\023\214\222\027\370?\345\236aDX\372\313?b\216$\000\\\232\001@\200\316\333\267L\310\322\277C\\\304)\321c\350\277=K\307\345\207\313\354\277\\\023\330\034\272\371\303?\000PQv\342\304\326?\212\350%\361\300\204\324?\206N=d\332&\336?U\361\340h\343\215\351?\3409d}\020\205\325?\006e\274)s\355\314\277\212\032\256\215\355(\342\277\351\227\212\250\203H\367?\034\335\210\313\376\372\353\277\324\371\270pK\361\327\277\2074\036\367\2418\251?\223u\340a\366\241\341?\0342g\325V\004\321\277\202\273\207T\375\314\341\277c*\326\267\242\200\366\277\340\014\344O@)\350\277\024\267\201!\245\320\354?\255&\214si\257\362?\247w\265\371\023\002\342\277E\223\022y\010T\312?\033\354\345\022)\367\372?\247\340\361\252S\251\353\277*d?\211\344\017\323\277\373\276\300\341\313\267\323\277\310q\372|\350m\362?\312\267 \240H\263\351\277\204\325\363\256ej\364?\275;\021\310-\371\276?GF\305\326}\372\357\277+\n:\226\243\001\355\277\244\225\277md\203\345\277/\022\234\232\005\014\360?\222.}n\312\014\340?\232\0347\036\310P\361\277\212\207[8\001\336\321?\316\371*\343!|\375?*\271C\376X.\340?\325\270Q7\220\354\330?\305\325t\226\250b\336\277\211\3154\\\004\273\345?\214%\242\334\263)\322?\233\020P\302\253<\220\277\216\302\205@\004J\274?dct\007wL\322\277\346x\003\266Cx\331\277\312\004\006!\322\313\361\277\303\262/\240\361\252\357\277\253xz\037\221\004\352\277\320s\374\243o\037\374\277\212\023V\245\r\227\333?|\320\324\377\376\373\350\277\024\210\214\374\204S\260?\323\305\3432\346\233\363\277+\304e\021\324\312\344\277\377g-L/\257\324\277\nZ@\266\250x\375?\271\001(\353AE\353\277\276\347\353\025\rd\326?\357*\220\225\230\227\300\277a\327\226\240\034\324\336\277\226\250\306\237\3155\362?_x\215x)\360\324?\230+D#\324\271\352\2772\256\025\222-\320\000\300\226\352\ry\'L\335\277\202r1\243Rl\332\277S\215O\340 \311\333\277\363\016zUGO\274\277#\315\221\325\204\220\370?\277>\336Pt\214\000\300\207/z\rbX\361\277\317\250\300\272T\300\330\277\314\261\354mW\343\300\277@\'\334\305\216\322\360\277\302\356{M\0226\364?Wmb\017\004\232\336\277m\t&\350\t\021\352?\016\'\204\032\271=\306?\332\336u\264\253\262\352?\2751\331,Sw\357?R\364|\304C \377?Ol\207v\\^\356?\231\270\017\213\372;\361?c\246\356\301\266\247\353?=\035\347\376I\203\260\277\211\370\005VPIw\277\005\023U\244!\t\243?\207U\005\267\213\203\245?\327\031\372s\221\215\330\277a\232\336O\371-\334?\307\341m\334\245!\352?\3114\231\244\034z\321?;\365\\\226\225\370\373?\227j\340Y\265\336\362?ch\342\033-\347\373?\323\373R\347A\276\355\277gE\230z`Z\351?pE\353\331\207$\344\277\n\334O\202\rx\001\300\350\313\331\216VD\343?\275\201\2573\003\302\007@!\321\260S\312\277\371\277\212st\352\365\000\364\277Bh3\006\341\253\330?\374u\257\345\334\246\343\277\375\303\002\247\251H\352?\232\243\254\245se\373?\334\035(\333\213\303\317\277\266#p\337\366\372\365\2778\226\357fj\025\362?Z\367\253\367\345\272\366?L\004\227&\371\025\337\277r0w\312\006b\312\277\301\216L\304_\207\370\277TN\004\263\274\200\340?\350Kzy\263U\001\300\230\354\251?\325\246\363\277\360P\354\177\032W\341\277\030\301N\256\314\336\350?\002\301(\2522n\355?\235\364Gd`]\354\277\312)[\354h\025\367\2778\354\315\205{\336\362\277\225\021rB\213\365\352\277\371\r\237]vv\265\277\252\240y#\361\261\346?9\260\244KY\311\323\277\310\273}\203{\314\364?\004\024\220z5\276\372\277\235e5\262Q\002\331?f\306\322\352\271z\253?\207\256\305\016|\270\375\277\2451\001\306\367\336\334\277\346-\033\235k\367\302?\271\217\213\377kP\335\277?k\345\347\026\r\330?\3253\001w\270\246\367?9(\362f~\203\242\277\244<\377x\026)\374\277\375\016\354\376\202\255\367?6h\211\220\246I\323?\320L\201a\376\030\327\277e\362Y\205\251s\356?\377\347\347\005\355*\371\277\263.\271B\223\251\357? \330V\031S<\364\277\241\204\217\217]\232\307?\216\250]\372e\303\304?\244/\307\254\305\027\343\277\260\0010J3<\332?\344\210\233\315\307\261\311?\2305\317\243\221T\357?\214\355\251T\3358\363\277\306\223L\311\212\320\326\277\025#JYW\270\311?V\313\221(\231\271\350?P\037R\244\240\244\n@J\266\276\036?z\334\277\202J\362`\r\356\312\277%f\350\270\251\324\313?z\344U\257\341W\347\277\256\264\220\023>L\354?\027\242\370\327\254]\275\277=\350H\311\341y\001@\351\232\253t\251\332\207?\366\212\t9\333\'\322?(p\213bdJ\331?\241{~\361R\263\365?\235\224\241e\347{\253\277m\370\345\035\316\260\307?\315\036Ie\271\230\364\277\271\006\347[\037\207\343\277AMl\231\321&\374\277^\223Z\ta]\330?\337i\321\260D\207\345?\222\237::\275L\363\277\356~5Q\246\322\345?$\225-j\031W\344\277\360l2\256\213\244\342\277\347P\366\"\214R\337\277\204\026\323~Qg\254?\312\3471x<\007\365\277\217\226\312\270\201\255\372\277\343\204kP\345\262\322?&]\307p\231\204\346?\215\273\221\236\267{\347?\363\273\265\340Zp\002\300\\\247\230\261d\345\367?\214=Z\311m\236\351\277\261\331P\267\272\033\333?\322\303\275\300h\255\327?E=a\314\271\203\003@\016J\304\372\361n\306?\207[(\271\225j\325\277\3251vb\342\332\360\277,kX\215v\231\360\277\320\344K\271\373\240\267?\223\324\237\022\245\255\362?v\245\206m$\352\344?R\240\203oj\220\330\277\271\3160[\252o\347?\345<*\313\333\236\350?\027(\314G\337t\210?\362\032\037&TA\362?\n$y\305+)\002\300\246~\363\275\257\301\251\277\335\021\356\215\243\010\367\277!\2310\335\371,\260?3;\256\237\276\203\205\277m\202O\206\266+\363\2771l.\346\342\327\340?v\303e\315\007\352\001@\226\274\030\351\307\002\364?+\037\224(\301\214\355\277\247a\010\244l\252\344\277\257\236r\301\273\342\327?7\006\216(\024\362\372?\333\357\3337c%\357\277g\364_P\212\235\362?\r\276N>\367\003\350\277\211\3425c\\:\001\300\217\222\3270L\370\307\277\243-\340\002\273\t\361\277&N.\000} \307\277Ms\r\030-\373\341?\317\014x\374e\211\341\277&\"\275\204\232P\003@\324\3547\205\"\347\357\277\276w\253\204d\"\367?g)3\262\225\010\361?r\246\232\334\261\373\353?,\335\263\016z\343\355\277\207c\214\255\263t\320\277\0350 b{\205\347\277\031\372eJ^3\363?\312\301c\2164\206\365?\211^\236\002\351\027\313?\266\t\2720~\246\370?\227.1n\345\226\340\277\312\360\323\246\211\034\360?\311C\331j\265R\322\277\261`\013i\032\016\340?\'\177v\261\342\310\361?\020\224T>\225\002\251\277\212\240\203\263\356\345\345\277\260V\243!\327\360\353\277\243\3701\025\344\314\330\277\363\267f?\237\005\225\277hB\364\237%\332\370?6:H\227H\246\364\277BHne\245K\342\277\373\356\037M\321\205\274?\304q\250\240\202\314\006\300q\267h5\034\370\343\277D\347w\363\204\322\351\277\230\210\251\350\351\016\337\277YR,L\365\257\374\277h\341\350\271\346n\243?f\237\n\233D\305\352?\262\3616\026\330P\227\277\377\352\260@E \355?\0251\303vu\305\232?\252\273lV\241\332\363?L\267\200\267b\355\360\277\313\327\3525\252N\353?\321\305\274\003\320\023\001@\237|B\375\214w\235?\030\323\270\314\214G\362?\273\356m\361\036e\347\277c@b\232$\346\341?\277I\321\210\3322\377?\0378h\0374\206\372\277\357G\353\027[\250\347\277\306\014\213Z\302\214\304?G\241\3572Az\362?\206\234\327\273LR\001@\237\367\232\271\225\034\333?\360\034= \361l\353?\372\277\031>+\177\345\277n\242\311?\'\301\353?\260\010\0140\236p\365?\356\240n\274#B\335?\360\241\267rl>\343?\334j\324\340\036\033\311?\322T\370\304\323\371\377?W%\202+\303}\344?\220\245UI\004\010\361\277:X\014\335DL\331?\375\237\321G\244k\275?U+\375T\210\261\342?\007\330\245\241&P\365?\177\311\3708s\036\333?4\2308\027\204\036\357?){n\305\355\367\354?\311\226\213fx\266\336\277\211\315\177J\273\374\347?JA\346=aL\361\277F\025\025mg\212\341\277\003\002\343\334ZC\004\300OI\016\33244\324\277\025\",\326\216\034\360?\215t\316\362\270\317\300\277\312\321\037+\273\256\350\2773I\3219\014\346\006\300R\356\031\203\373\300\342?\376u\215\n~~\362?\221\374[\220\242\215\247\2772\351\363G\241M\263\277N[\366\321\331\260\354\277\235\006\277\261\177\003\303\2773I>\235\021>\261\277\304h\177+\332\207\356?\240P\031Tc\326\333?(\204\350\373\350n\340\277\337\343\r2\350m\275?\236\201\000\365\213\206\372?{\217\372J\316P\367?\204\025C\237{\212\323?O5e\020\325Z\230\277i\277\215\030\316+\361\277R\003\367\253%\313\364\277\350\373\265n\002r\363\277B\235\306+\341_\325?\3451)B\371b\353\277\240\216\202\010a6\345?\377\244\212So\265\326\277\360\233\276kzm\262\277\033\020\224\361\260\026\345?f\322\363\303\347\333\327?\2164\235\213J\351\311?\216B\306\233%\251\346\277\371~\326\036\032\335\247\277\206\323\306\356YS\327\277\035-\035\363P\031\007@\010\250&\236\024}\363\277\207(\207\260\260;\006\300\357Iw\006A.\371?S\353\014\260H\204\257?g\200\231\336*\357\340?\317\013|u\036\016\250\2778I*\254*Y\365\277\262\355\237y`\221\306?\274\260\332H8\242x\277!\342\037\270K\216\365\277\234f\375M@|\341?.\267\333\021\245?\234\277a3\312\316kU\327?qj|v\0222\350\277\375\371\222\364\347&\341?\335=\234\336Cf\345?\251\311\252\277\346w\316?\345l\344\3335!\323\277\r\202\263\025\326\036\333\277\002\300\305\312\220:\000\300\365\200\304I\243\177\352\277\263Fj=f\322\342?\246\000\032\365\245\307\367?sh\230\247\367\312\373\2776\303\330\2214\257\363\277\236\035\014\215S\242\334?~\272\316\305\177\214\365\277Q\234\r\362\207\350\360?E\342\213\354\257\375\326\277\227r\343l\340-\352\277\333\\\260\267\211$\370?\031+\204\206\322\341\310?\360\004\220\240\252U\232\277\000:*\303\210A\361\277\002{\375wL\031\262?\241\177\374\267\240\212\341?\316%\241\2416-\344\277\235T\2739\027V\272?d\233\025\364\211d\321\277\032\320*\316=c\370?Os\221\032\r$\351?\303o\251\215\343\264\340\277@\271\360\234\347\352\330?W\271\333D\227s\362?L\034\303\224\362I\372?\362\207\340S\1774\371\277\257A\265\376\374\272\341?\332\031\177]i\204\361\277\227\216\333q\217/\266?\025:i{\020\373\311?\262\026\303\323`\026\261\277\356\305+D\201\377\355\277\022\307\024\244%\212\304\2776\240\0266%d\343?`\316\245\321Sx\364?\230\242\325\240\341\212\354\277\370\276E\322i\244\000@H\021\266\236]\220\002\300\324M-\326\000\277\357\277g\315n\022\212\013\312?\0305\310e\"y\307\277\377\270\230\267\321\305\331?\022\026\\\"\327n\301?\'\267\256\343p\235\001@\345\316\233t\332\331\340?\0161K\351&{\354?\363\263\231\324&\022\324\277\022\036\357\374\357*\300\277=\365\206~H$\315?,\017G\027\032J\314?9\216\026\263;\321\323\277=\267\270\260b\333\346?\211\351R\262O\317\360?\243Tz\233\217\332\372\277\177\252\372V\272<\304\277\364\003#>\264\313\371\2776\266\254Rm\365\335?\3143,\367\211\256\320\277\016\211\302o\357s\272\277\324\023\243\004\2421\004\3008T\370^:\317\357\277\020\264\322\3454\177\377?\303s\231\356\3457\325?:\270\342\255|\347\326\277d-\376|\225\234\324\277q\212\033\366\263\245\244?\371|\372Z\331\372\251\2777Dbb\322\013\367?\273aC\230\302\'\373?}\226\340\216\030\264\365\277\013\363\2104\354\n\366\277\200MH\2013\315\342\277a&\256\342i\247\373?\340.\340\362-\350\302?\352\247\362i\313k\275?k\264Z\340\273\225\305?\313\352\273Ll\276\350\277\250\307\226\346|\304\376\277\027\336\264C\272\276\301\277\004\201\372\342)N\004@t0\247\204o&\350\277\257\205\335\025\272\361\361\277xSN\214\326y\340\277\203G\2234l$\345\277\002\307\360y\3210\213\277\340hu\322DY\370\2770\305\0372\020\035\323?\343k\003\304#\270\331\277\323\335\363\236\227{\351\277\273w\361\311\344{\367?\304L_\367f]\345?\356gj$\n\027\362\277\274.\315\3316H\363?\345\304\033\0218Z\365?\223\313^m\266\232\336?M\262u\211xm\376\277s\016\353\t;\233\370?h\310\302G6A\345\277?\207\237\007\355u\361\277v\302\317p/\006\360?\231\035n\210\214I\324?\375\217\254\260\320`\334\277\327 q\236\017\007\365\277\357bx\270\252\364\357?\217\007\304\223{\275\363?\\Qk\246k\244\330?\377\353\t\377s\340\364\277\376\035\337\265`/\363\277_\334\351\312%\372\362?\004g\223\351\211\356\300?\374\206Q\001;\216\222?B\320\356Tz\374\221\277\257\364\2465\213U\377\277\373\204\262\344\020L\375\277\267\237|\223\030Y\333\277\351!\371\233\354?\346?\235\261hB\350\271\364\277\216H6\323E\022\320?\272\264\006A\236\270\352\277\002\277\224\260\'b\364\277\305{m7\r\332\272\277\316\302\230O&s\346\277\\]\213\226oc\343\277(\346\305\334\243\235\337?\000\001\365(-\356\350?\236q\311v\242O\376?,F\002XZ&\351\277v\254^\364d|\365\277\010\356\275\024p\375\335?+\237\362\371 \205\234\277y\025,y\235\262\267\277l\372O\261ik\330?\302\211\326\320mj\334\277h\270h\345\377\014\342\277a\364\345\3524\225\360?\352\201r\022\353\262\330?\033.\'3\252\033\331\277\321\271\007\341\354,\350\277]\325\344\231\347\273\343\277\256\353\021\251\260:\330\277\3503zET\214\362?\030(\304+\337\017\325\277W\207\203\3159\251\341?J\210\322M\301\354\350?\230.\275\037\360\207\343\277\362\265\022pO>\343\277\263\035\t\271ft\003\300S\237\034\035\223.\352\277g-\310\317\377:\312?=\332\377\334p\356\345?\213\343\207&,y\363?mE\263:$\271\263?CI\230\035\005\230\363?\242G\203S%*\341?}\233\005\334O\361\360\277P~9\267\310\000\302?a\372<\273\365\n\340?</G\366\374P\272?\362u\311\3119l\372\277P\350e\014\224\216\003@v\371\006\324\013b\360\277\354,