node {
  name: "input_0"
  op: "Placeholder"
  attr {
    key: "dtype"
    value {
      type: DT_FLOAT
    }
  }
  attr {
    key: "shape"
    value {
      shape {
        dim {
          size: 4
        }
        dim {
          size: 2
        }
        dim {
          size: 28
        }
        dim {
          size: 28
        }
        dim {
          size: 3
        }
      }
    }
  }
}
node {
  name: "filterW0"
  op: "Const"
  attr {
    key: "dtype"
    value {
      type: DT_FLOAT
    }
  }
  attr {
    key: "value"
    value {
      tensor {
        dtype: DT_FLOAT
        tensor_shape {
          dim {
            size: 2
          }
          dim {
            size: 5
          }
          dim {
            size: 5
          }
          dim {
            size: 3
          }
          dim {
            size: 4
          }
        }
        tensor_content: "\323~s?\220#\r?\304q\200?\344FS\300LR\361=\205\306\263?\\\340\215?\300\027\207\277\375\261\357?s\2617\276\247\277\215?\313\337]?\362r\277?\230r\210\277\353=\214?\202{u\277\241\345\017\277\0139\303\275\342xc\277\206tS>gy.\277\t\310\217?\223\246g\277\016\302\025>\036\305\036\276\264\272\207>\2179\235>$T\260\276_S\t@;W\316\277\241\006\275\277z\3151?\035jU\277\224\303\261>\036\345+\277\241N.\277\307\354I\277B<y\276\010\020\315?\347\177\016?\200\000\n\277\375\261\002\277(\330\257?5|+\276K\336\324\277\3207\325>\263\002;\277\2532\353?v\003u?;\212\344\276\026\014\324\276\207\306U\277\005\336\377?d\356\373=-4\n\276\355\212\363\276\006\340\264?\215\334\205\276\307e`?\266\377\360\277\363a7\277\212j\277\277\323\203\243\277\330\231\361\276l3@?~O\264\275\244C\265=B\246+?)\027\203\276\271\334\365>\"\037\341\276\362L\230\276z\304B?\346R\014@\347%u\277\324\347\320?\022\222\030\277\312\362o\277\200\331A?\355}0\277\346\315\301\277\'\t\010\276l>\221?\317B\'\277\032`\307?\216\225_\277\000t\202>\210\002\272\277p&\203\277\325Y&\277$\001;?\240X\000\3006\304\254>\\~\340>\246]\345\276\"/2@\031\314\215\276\002S/?(\313)?:P6\276\206\371m>\233k\212\277\225\232\300?\320\335\237=\311\222\001>E\323F\277\304\326\341=\336\340\302>y\350\222?\325l5\276\335\327\244=\364<y\276s\315^?J\375\267\277\206~\034\277\327\342\312\277%8%?\375g\017?|ML\277\003\2325\277m\320S?\373\332\033?\267\254z=\274i\234\277`F\021\2771\020\200>\000\212\203?\331\275\265\2763\243W\275\355\006\035\277\375\035\362=\355\250\020\276+\274\322\276\341\260W?\002\316\340\276\203\372\227?\204\346\360?\n\'&?\326O\253?\261;k\277hb\232?\r\372\024\277\354c\336?\025\377p?\377\306\"\277\256G\335>}\004\234\276R\034}?\344vd\277\363\343\010\277\345\025\204\2773\311\315>\375\317W?Y?\213>E\301f\277\242>[??\272\001\277\343\036\261>\334g\365\275\310\007\246\2778\253\273<\344,L?\361\322\210?\020\030e\277\272\366\220?p\274F\277\335Y\026?\265\263O>\314\331\226=H\377\365>%k\311>\325?~\277\021\030>?\036d9?Xm\212\276\306\230\213>P\022\214\277\025\353\254\277c\236\003@\224\322\306?\366\272\313?\252\254\203\277\2235L\277o|\n\2776\277\270\276\350\336\233=q\232\235?\323\233}\273\336\310\016\276\244\207\347<\204-\376=Y\240\214?\026\327\347>\373\006\340\277\260\355|?\355\373\312?\251G\307\277\301\302\253?\372\024\261\276\376\022\005?\007\027\224\277\355\203V?\034\306\361;\310\200-?q:0\277\357\304n?\253/\344?3\266?>,\355t\277Rr\213\276m\334\336\275\227\n\343?\204\324n\277\357\032\303>e\217\031?Y\370\035\277}V=\277\237\334\001\277\004\210\310\277_\340\236\276E(\250\277l\211\r\276\222\316=?f\377\265\274\005\246\202\277\204\371\364>\243\372D?\332\353\377>\220x\013\300\014\301\317?\212\275\021\277\365\256c?c\205\362?6.\007?\253\022\326\276\330P\254?\020BY\277\255u\225\277a\335\332?\335\312\224\277S`\231?jH\r\2772\312\016\277y\342\313\275\377\344T>\010\233\225\276\013\255\217\276\354\316\200>\241\333\310\277\217o\314\276\217j\203?Vr7\275\300\023\017>M6\336\277\374\264\017@n&.\276(s\227\276[\326~\276Kh\334>p/\312>I\326\245\2750\362\006\277\226H\266>\301\3474?\326\374\210\277\366\264\323>\265\321\367\275.\225\257>WeF>\327\237\214\277\3373\016\277R\266\277?p\2365\276\'0\335=-\227\360\275I\302\343\275\213\261\347\275X\310\304?dV{\277P\253X\277\3553\207>g\305\032\277\213.\013@\026e\215>\366\331\264?$\271\356\276\262\037\225\275s\313\312\277\311\261N\276p3~?Y\202\260\276:aT\277_\205\212=5\034:?uh\344\275\343\205\016@\314wz>\003\215\214?C\034\277\2768\224T?\254ln\276\013%\332>3K\037=\210)\276?w\212\275\277\276I\023\277\3257\350\277\247\rb?2\357\013>\326\241\220\276\252\333+>\374\237\230\276\267v\037\277-\233\201>R\240\017\276^ZD\277\211\344??\221\200\232>\312\244\303\275\311g<\277\265\010\007?\367\332\237<lt\365>\226`\321?&\312\310>~\324s\277\231\260\365?K\232\000\277\321)\020?}\267L?I\315$\277@\315\244\277\276\242\025?[\261\222\277\250}\343>;\201\377\276I(\333\274\317w\251\276\r9P\277\005\317`\277\256/\021?-\316&\277\367\252\'\300\2217\233?\014:*@\004J\372\276\021R\362\276?\377\374>}\326\371\277^\243\\?_\330\272=4\301\004@\347\266\373\276\210u>\276M\335\351\277!\016\335\274\307\026\306?\326e8\276;\257\241?.\226\235?\315&\321\277?\335\037?\357Y\234>\027\255\010>=\275\206=\024\276\354\276\'\270\206\277\341\340\306\277v\362o??c\002?\273\264B?\032\032\002@\036\340\037?\017\340\025@ \262\301\276\247\217D>\"\244\344\277\020hI\277\217GE\277\032A\020\276\300\340\272>\030\327\333?\035\034Y?g\003v\275\034[\226\277d\323\n?!b\335\277K\221\325?8M\324\277\005\344*?H\372\313>9\222\226=\346\226\240\277\337|\301>\237d\356>tN\035\300r`\311=\333\353\302?\360\324\002?\246\017\267>\322\330\317\277\244\026\326\276\263\366\362=\226\377\311\276\026\300v\276\347\340\340?l\303E?;\206\307\277\255\321.>y\2549=\266\3022\277%\273\005\277z\232\006?\260\215\324\276\'\177\\\277v\2152\277\006\267M?\214i\227?)I~\276\304\2436\277r\340\350\276\343\312$?@\336\216\276\000\026\216\277.^\213?H\364\000\277\330{\226?N\201\033\277z:\252?h\262:?\331\207+\276G\257#?\036\264&?\004\031\314\275\013\007\222\277qY\256\277#\311\010?[c\206\277g\371\214>\325\021C\276\270GA\277\0037\271\276\020\360/\275\366}\336\277\036 n? \314\357?\310Vb\277\002\007\017?\237\031n>\366Z\311?\002\312\226\277\243/\352<\\hu\276\233\332\255?\333\357\017\277F\303\211\276\272\214\004\3000;\246\276<Zv?\000\216\304?\235\033\206?\002>`?\276\324\240?\003\266\274>.%\240?.\300\235\276\271N\204?\244{\213\277\207\235q\277\245\r\371\276-0\017?\257X\036\276\266\311\244\277\323%\032?V\n\'\276\264i\211\276!\363\212\277stX\275\026\362\213?\347\031b\277zg\311?-\0229?\224\201P\277\352\244Z\277\3014g>\2522\200>\234\223\206\276*u<?\304:\247?\215\222}\276\342&\030\300\3457\017\274\247\235\301?\332T]\277z\277\n\275\022f!@m\315\"\277:\247(?\203Yc?\212\3424>\033\303\016@l&\260>\220\362\000\276\3679\210\277\304_\211<\002\346]\277\250\367\030\276k3\344?\033\215|\277\202\323 ?\365i\354>\233\251^\277\177@\212?\332k\203>=\213B?\277\375\206\276\242\026\202>\315\354\243>\007;\250>\373\351\310\277,\322v\277\330P\225\277%f\200?,\367\202>g*\315\277\021\371J?\013i\217>\223\"-?\251\303a?\325V\005?_\006:\277\240\217\213>\227*<>pN\231\277\275\223\253\275)t\034\276\324\265\253?\177&l\276\001\351\230?b\017E\277q\'\n\300\262t\033@\317\222\006>\002\177M\275\273g\274\275\211\266\347\275\201I\267?1\356\335\277\016\025\246>6\025\204\277k:\023\277\242\361\325\277\337\3056\300G~\016?\331\307\014?\\\216\255\276\250N0=m\374\204?\236Y\374\276\006Y\025\275LQ\246=#\325\226\276c\002\325>Ff\036>\250\310\312?\225\356z\276\247oq?\3638\022\2771u\213\277\200\270\257>C\345\345\277s\006O\276\236\332\310\275\322y\254\276\236\177\201\276(:\211\277F\232\264?\344\356d\277$\024\244\277\"c\233\274\007q\266>+H\355\276\255o\025\276\353\301\273\277\320\006{\277\273\023L\277\232\2740\277\241\273\032?\331\316\363\277\342\363\202\276\023<\310?\315y\317\275\354]/\277Q\376\330?k\217\001?\364L\201\276\334\244e\277\271\273G?v\276\263\277\323E\214?"
      }
    }
  }
}
node {
  name: "filterW0/read"
  op: "Identity"
  input: "filterW0"
  attr {
    key: "T"
    value {
      type: DT_FLOAT
    }
  }
  attr {
    key: "_class"
    value {
      list {
        s: "loc:@filterW0"
      }
    }
  }
}
node {
  name: "conv3d1"
  op: "Conv3D"
  input: "input_0"
  input: "filterW0/read"
  attr {
    key: "T"
    value {
      type: DT_FLOAT
    }
  }
  attr {
    key: "data_format"
    value {
      s: "NDHWC"
    }
  }
  attr {
    key: "padding"
    value {
      s: "SAME"
    }
  }
  attr {
    key: "strides"
    value {
      list {
        i: 1
        i: 5
        i: 4
        i: 3
        i: 1
      }
    }
  }
}
node {
  name: "Reshape/shape"
  op: "Const"
  attr {
    key: "dtype"
    value {
      type: DT_INT32
    }
  }
  attr {
    key: "value"
    value {
      tensor {
        dtype: DT_INT32
        tensor_shape {
          dim {
            size: 2
          }
        }
        tensor_content: "\004\000\000\000\030\001\000\000"
      }
    }
  }
}
node {
  name: "Reshape"
  op: "Reshape"
  input: "conv3d1"
  input: "Reshape/shape"
  attr {
    key: "T"
    value {
      type: DT_FLOAT
    }
  }
  attr {
    key: "Tshape"
    value {
      type: DT_INT32
    }
  }
}
node {
  name: "Variable"
  op: "Const"
  attr {
    key: "dtype"
    value {
      type: DT_FLOAT
    }
  }
  attr {
    key: "value"
    value {
      tensor {
        dtype: DT_FLOAT
        tensor_shape {
          dim {
            size: 280
          }
          dim {
            size: 3
          }
        }
        tensor_content: "\206s3?\344\351\366>\202\332q?\0301\212>|\212r?@\340h>x\0375>zO%?\314J\314>P9\016?\316\020-?\000\270\335=\320\371\035?<\317i?\000\230!;\204\346\361>\314\212Y?xt\352>l\254x?\030\302\251>T7\262>>\354s?\344-\027?zll?\210\006\020>\016\377K?\002\204#?\000H\321>pj\017>\230iA>\270\241\030>\000v\320>\224\377\220>P\035\272=r\347V?b\221\020?\010LP?\330\013e>p8\204>\300\372\353>\206\305m?>\223)?\260\255\326=\3540\n?$\222\003?\304@\017?\252z\031?\010x\224>\2328W?\\\366\203>\356m/?\014\232\261>\244C\257>\200\305\014?\300\244.>\026\321a?\0040\330>`\252\360>\376\013e?<\353\311>\300\324t>\032\006J?P\270\301=\244r\334>4f1?\246\nD?\344\023\272>\234oi?\354\242k?L1\303>\014\254\203>\372ZE?\270\270D?\200\277Q>D\"D?\322\213\026?\310\335\023>\352\205C?\2101s>\360\225\020?\2004\314< \355,?\240`D?x\241e>jTR?\270\252I?L\264\377>fq#?h@8?\204\247\253>N<$?\016].?@\032\002>\234Wt?~\002\027?\360\341\335=|\256\372>(8\021?\200$\t=\320\221\265>\014\230\227>\214\\+?|\262\316>\310\027%>t\275\356>B\250\006?x\373\260>\200\210\375=FD|?@G\316<0 \341>\000\2258>\354\024\240>\314\272Q?4\311\267>\204\031I?\254\363~?\334k\366>\354x\256>\024y\236>\020\312;?\200B\n>\334\r\257>\230?->\260Id?\230t\275>\222\375\000?\340e\250=\000Z\213>H\021\324>8\364\243>x\020R?\370\266%?\260\336\224=&\254t?@\325\036?\340\t\200>\316a2?zQ\016?\306j\030?\330!E?\000\225\010<\314\2712?L\277\341>\310=y>\312\023T?\264|f?f\340^?\0365[?$\346\242>J\270p?\210w\277>P\206\301=~\347q?\032\313O?8\322&>P\367x?:\332!?\270\205\352>\350Q\214>\324\227\232>`KX=p\005t>\320\207\265=\376M\023?\376\376-?\n ,?,\022\272>\230\327(?\310\240B>\252\276G?\304Z9?\340\3169>0\177!>\274p\225>\364\267\031?\312\353W?@.\247>D\344\305>(\000\003?\256^S?0/*?\310b\032?\314\254P?\270=y?\200R\312=\236\032_?\262\323!?\334\002\330>`\360o>\210\255n?\334fL?\224\336\236>\270?\035>\034\205r?\206\316*?^\256\034?rBg?\216\357(?\250]_? \234\236>H\014z>\200\0144>\036\177R?\266}\026?\340&L?D\001K?\2340)?\300\036t>j\212>?2\356X?R\373\023?\300\026#=\240\222\273>x9\025>\234d3?`\240\300>\200\3325<\216\262\021?\204G[?\276\211\'?\004\233\233>\360i\361>\370\333T?@\240\332=\262\t7? \r ?|\262\367>VGm?\310/D?\246\242&?\320\254Q?\2242o?<\361\317>>1u?l\367)?\370j\346>\354\037F?xOg?\226\252]?\332\232b?\332g1?\212\267v?h\271U?x\242A?\236\356W?\260\272r>\220^\375>p\256\364=B?a?\310\350\357>P\224\\?R\241\023?\240\377\354=\316\311\036?\226\352H?\222\245_?\030\253L?0\201\023?\230j`>\016\267M?\000\345\013<\000\250\014?\344\321\001?$\236*? \332w?\376\271>?\210\313{>\340\207\r?n\037\\?@\246\016>\344/S?H\320+>\214 \022?\274\353\321>\000p2<(\200J?.\245\022?\306\250 ?\0204L>0\225\211>\264\017\215>\\\255\000?\364\266l?\240+\300=|\270\030?\320\257\005>\3005\324<\300PA>\240$\211>\020\'U?\340\035\301>\344;V?<AX? \320\226=`RK>\032\260}?\214\n\014?h~\226>\356cw?\372\031B?\330\301\003>\240\352E=0)\374=\206\272\024?\332\313/?`\247Z=\302\003O?\350\020\221>P\334\306= \350\\?T\2470?2\211]?\304\0141?\340Y\023?\342zx?h;3>\000\212&?\300\214\">\354\317Y?f-|?\350]%?~\266I?\3302P?\200\304k>\346\033R?4\337\177?,\016\263>\010\321[?\004\332\242>\206\320.?\026\320m?Lgk?*\360\027?@\336Z>\004_\254>*m\037?j\221;?\310\311I>\310b\017?\232Q??0K\233=\026|$?H\3006?\260\023\210=\2107\022?\314\320\\?\324N/?\224v2?\036\2521?\026\302H?\274AD?,\241\243>`\354\337>t\263\266>\200l\243=nNJ?@\211!=\370TW>\000\353\003>8\204S?\260\337_?\354zY?\264\357!?\260\276\333=\220K\031?\022$e?Z\333}?\256{}?&\200C?V_/?`\032=>|\227\313>\264\306\373>\000\334\'?\214\245A?\000$\305<\350\255~>\020[\365>`u9?\242\304)?R\266e?\202\207\r?\262\204X?\272q2?Zk<?0\231\023?h\030n? \004\177>\204\202>?4\257.?\330\353\372>p\317\317=\020\211:?F\2130?Lx\360>\020\216\316>|\0073?\340J\245>&\320C?\250\313\314>\010\320b?>v\003?P*m?\270\311d>\010\222.>\256\363\030?4w1?\374a\350>`\212B?hTc>|00?P\357\226=\322\200\017?8-A>\374\332\354>$\255\343>@\326L?\374\311\223>V\241r?\034S#?\000\2208:\210\237\335>\346\354\007?\340b\207>\242\377,?\340\004\021=\030\217\251>HW\020?\274\220\203>\\\260\373>^ `?\250h\\?J\232@?\010C\333>4\233\317>\200\200C<x>\201>\002\261\'?\244\364\210>\300\361>=\300\367C?\206\304J?\024J\366>\3104\321>\240\n>>\374\354\247>\000\250W;0\230\315=r\257=?HP*?T\177\260>\000\301\303=^ze?\302(p?\260\343\311>\000{}>\260\034\252=*`8?\304\366\031?\004\343$?\312\204>?\260\2301?\000\252\213>\304?2?\000\"\013<\234\350{?b\233!?\360H\307>\000?.<v\'a?(\226o>00\252=\"\177\t?Vh.?\020\255\371>\210\001\035?\0008\221=8\037\034?:l\032?\300\032\361>l\367\201>8S>><\3537?,\377P?\346\311\031?\202>^?\356\371\033?\260\007\257>H\276E>\2509??\200\207z<<`\246>P\277V>\250n6?\224\006\352>\034\250>?\360M\233=b${?\210\344\220>\000\313\341< \236\215>\254\202c?\322\215\023?\000\tq<,\252\205>TyX?\320\250\334>\260\373\322=\360\303U>\240\363;?\254\262\264>\304\231\232>\000\302B;\026\310\026?\210\266n?\264K\224>LR\224>.\267C?\000r\006?\220Y\323>$]\334>\010\t\310>\330\377F>\330\331\216>\224-\304>\370?\003?<T\341>\304h\204>2\216+?\304Y\223>\244\247\n?\200\014\024=P\221\362=\014K\263>\304Rs?\204\223C?\020Tm>|\r3?\340\003\230>4\317\374>\010\242D?\200\262\340<p\365\341= 5\271>8.\325>\376\230h?`\220!?R\377i?\222_\"?@\\%?\270/\202>\000v+<0:\230=\014\342\362>j\270\000?rmI?\010\244\264>\000\370-< |S?\254\030T?$z\202>\274!o?\242\260\033?L\016\212>\340\366\341=\314;\211>\000\327\262<\300\304O=`\355\233=6\217C?t\231\216>`\211\036?t\236<?|\264g?T\217\315>\214\276\265>\210\236z?:\2052?\234?@?\366\257^?\302dK?\232\201??\340\313\276=\226\314B?L\035g?\254\360\312>XIv?n\236[?,#\023?rLg?8\220\r>h\304%?\240\255\224=\224\312\267>\020\232\221>@\240\330>2\264\003?h\020\261>\210\377\227>\020\341\331=d,\312>\020:]?v\274U?\374X|?\334>z?\350\t\016>\014\342$?\332\302=?@\014p?\334\3252?\320\307\310=\010\001K?\236\274\004?\030\337\r>\246\226r?\200\341\016<\326]S?BF\017?\360@Y?\274\346\334>\354H1?\226U2?@\362\217<\000\273\340;\240\335I>xi\371>\222U1?@\344\377>\240\206B>\nr\027?\2304;>0\353\351=\266\350c?\224G&?\314\322\001?H\304e?\244\367z?\004\2447?\274\332\364>\334ww?`\213&=\320\351c>\310\361\202>\010\317\232>\214&\313>Rpn?\020\3572>\324\256\025?j\354Q?@\246=?(eq>\204\265f?\000 \3529@\214\253<\354\3045?\244lK?\000\253\220>X\2757>\"\270f?Nss?\200\246q>(+0>\010q_>\242\244c?@(T=\220&\013?\006\310 ?0\002\032>X#8?V\204N? \256\334>&\324b?\276X3?\370\311\221>`\321\333=\346T??`\355~>\376\354\017?\210\236\225>\010\262\344>Z&p?\\\252\220>\020\243\341>\310`\353>\366u\025?\030\323Y>\000?\004?\320\353l?\270\321\022? \227\030=\254\355\\?~=Z?h\344\375>\334N\304>\240x:?\014\"4?X\302\001?\224#s?\240\215\\=d\326E?\320\226X>|\2175?@\362\234=\360\223d>\200\034c<\310yA>\210\317*>B\215??$/\231>$(&?<\265#?\254\204\217><\234\312>h^Z?\304\222\303>P\316~?X\217U>\n\367k?\200)\004>\354\304q?(\360m?\226\037\001?\360\202\314=\200e6=\034R\177?\000\347\241<\030\257 >@J\374=\000Na=|\345|?\340\254\010=d\013\307>\260G$>\240\362\241>`\270\022?\374L\236>\360\274t>rK\002?0B\212>\370\305\242>\200Kg<z\300<?\270DH?T\315$?\250F\005?\312\300\004?\216i~?\360\023\227>\330\211\017?N\322Y?\204C\313>F\372_?0\370\310=P\n\236>@\377\362<\342\315)?0\341\335>l]H?\340:;?\004\215|?\360$6?\362\200N?\246\347-?\030s\223> \277Y>0D^?\254\336N?\000&d>\370\030\316>\312(;?\220\016\371>N\247t?\310\362r?\250\316\006?Z\303/?&\263H?\344\022:?\350j/>\006\364\007? \312b?\020:\021?\216S\n?\366\300M?(\2422?`q^>\002\226v?6\264y?J\266\022?\2745.?P\211n>\000\253[>p\305\005> \3641>@\200\033=\030\236*?\334%\007?\200\247\363>,\202%?\302\273O?\320\025C>\034@\320>\034\307\251>\030`y?\274\001y?X|\215>L,\345>\234N\350>\374q8?*\017\000?>j\000?\032Jv?\362:P?|\006\026?\2148\227>xpW?\306 `?\260oI?\000\014\374>duh?\240/r=\346tf?\3104\220>\276>#?\024\314\306>\256P/?\240\223u=\330\230=?\274h3?\236\213J?\202\207P?\ny\014?\340\273X?\000[^>\270\327\362>8\004d?\324#\333><\334s?R4.?\306\020/?"
      }
    }
  }
}
node {
  name: "Variable/read"
  op: "Identity"
  input: "Variable"
  attr {
    key: "T"
    value {
      type: DT_FLOAT
    }
  }
  attr {
    key: "_class"
    value {
      list {
        s: "loc:@Variable"
      }
    }
  }
}
node {
  name: "output"
  op: "MatMul"
  input: "Reshape"
  input: "Variable/read"
  attr {
    key: "T"
    value {
      type: DT_FLOAT
    }
  }
  attr {
    key: "transpose_a"
    value {
      b: false
    }
  }
  attr {
    key: "transpose_b"
    value {
      b: false
    }
  }
}
library {
}
