node {
  name: "image"
  op: "Placeholder"
  attr {
    key: "dtype"
    value {
      type: DT_FLOAT
    }
  }
  attr {
    key: "shape"
    value {
      shape {
        dim {
          size: -1
        }
        dim {
          size: 2
        }
        dim {
          size: 28
        }
        dim {
          size: 28
        }
        dim {
          size: 3
        }
      }
    }
  }
}
node {
  name: "filterW0"
  op: "Const"
  attr {
    key: "dtype"
    value {
      type: DT_FLOAT
    }
  }
  attr {
    key: "value"
    value {
      tensor {
        dtype: DT_FLOAT
        tensor_shape {
          dim {
            size: 2
          }
          dim {
            size: 5
          }
          dim {
            size: 5
          }
          dim {
            size: 3
          }
          dim {
            size: 4
          }
        }
        tensor_content: "\215\306\206?e\274d\277\013\334\236>\331m\235?\235\027!\277<\266\021?\026\022\316\277\325\003\215?\226\365N\277\350\014\232=9y\224\277\013\232B?\223\026\315\276\313\230\225\277\253\361i\277\377\347\273\276Ku\351?\330K\227\277\364 \004?)\277l\277p\236\276\275\371\034\r\277 \037\236?)=\216\277\216\020n\275E}.?\'\3660?(rE\277\207\264\336\275d\\]?dw\250\277N\306\252>,\327\333\277\260\0320>o\023\205\277\340\207\215?\316w\230\277\034\214\206?\242);>QJ\213?^\3178\277\021D\341\275\350X\310?\263k\265\276X\032\217\277\347\242\260>\202e&?Ee\322\277T\tm?C\004\364\276=f\373>]\341\037\276f\310\274?=\035\337>&\201\014@\357\356U\277\317\366\233\277{\323M?d\274\222?\247\354\201\277\222\263\036\277d\224\362\276\025s]?\237\376\212>\217\320\275>JML\276\032\253J?\370\375\255\276\237\312>>\t\t\306\277-\242\314>!_s?\327\002\220?\377\343]\277\227<\215\277\3425\025@R\013\216?Z\3156?kk\332?\277@\347?a;\030?D\006\313\276\371$\'\300\2377\223\277\217{\231\277m\356\325>e\301h\276d\345\240>\307\353\025\277\231~\317\275\301\270Y\277Eb&\300\273@\234?\304\243\005\300\177HF\276\ni\243\2772w\335\274\354\331\212?X\262\'\277\301\272\353>\342q\014\276X\334?\277e\2500\277\035\351\245\277\006w\"\2762\335\261?,\364f?\325\352\247\277?J\032\276\335\204!\277\373{q\275[\351\207>$/\226>\261g\333>Q^9?\336\341\003>\371\026\267?\347\274/?=\224\014@\321\316\004?ld\032\275\236]\007?$\216^\276\300\214\221?\274\014\027\277z\353\305?\255d&\277w%\204\277 \320I>\374\303/?\234\3425?y\270\306\277Vt\261\277\276\320\245>\267\360O?]\263D>i\214k\276]\345\"\277\256\260\202?[\177\'?\35220\276W%\214?c\336\203?G\247t\277\241\215\233\275V7\276\277\210\227$@\003x\340\277\237\207\220?\256tx?%0\222\276\216\253\020?\323\261K\277l\335\232=p\253\202\277\tc\207?\206\352\240\277vG\327>\353\272$\300I/x?\036\255\206?[\377\'?\024%\245\277\373=$?Ah\317\276\262N\'\277C\323\330>n\250\253\277\032\363r=r\032\013\277\311`t?\352\355\313?c\177\343\276\302\242\254\276\217\260K?\333I\000?\266\310c\276\030p\342?\232\356e\277\2438\352?\231\3654>!\245N?\213\217\251?\255\321\311>\025\347r\276x\314w?\244\001\203\277^\274]\277\357d\312\277\362\260\300\276\343m\024<\277\026\232<\351\374\340?W\313$\277=\327\273>\302Y\">3\016-\277w\212\t?\205\315\231\277\365\212\344\277\304\372v?\214])\277\333h\325\276\343\264y\277z\376\026@\261\201\244>m\320\210?\'\225\261?u\270<\277q\260\345=\356;\010@\2310\302\276Pd\016?S\360\214\277\243{\246\274]\207\227>\032/\313?\277\270\236?\023\340*\277\217\252N?\277\227\330\275\262\020\204\277\363]\347?\346\265\335=\3729\r@\351\014\253?\262J\262?i{\347>F\205\240\275\256P\005@\237W\221\276\202/5\277\334]\337>\027\033\t?\245\007~=\210\261\027\277p\307\362\275Zj\006@C\265\300>G\321\017\277\233 \201\276B`\236\277bg\246\277Y\210\257>\032,\234>\300\321\213\277F\351\217?B\322\005?\370`/\277\220\3722\277Zhb?\002\004E\277V\024\211?\357/\262\276`\263\266>@\303B\277\037\313\366\277\242QX?\250\026\262?\027\201\345>\245\374\260>8d\344>6C\201\277\007\031\000\277+\221\271\275\361\234#\300\032m\020?\376\240T\277\363\310(\277\023\213<\277\002 \031?\241\013^\277;\336\244\276\330\363\243\277\250\247D\277QU^?\337\235|\277\035q\247\277\037jO\276\334\371\207>\367.\237\276\361M\273\277\342\270 \277\033!\027?*\324\320?\362\2065\276\355\262\300\276\024\010\243?m\215C>\366F\231\276\334\304\376\277c^\014?^\033\372>\253\242#\300\233\232!\277\340\313\233?\221<\235?\316\225,\277*\313\357<\036\337\273\276\227\315!?\377\200\014>\351)\223>\210_G>`\255??`\356\274\277m\326\\?\'\000s\276&\362\177\277\212\322\225\277\022.\263\276\207\020\267?\007E\206>\301]\033?\246\001@\277\024YL\277~\276\257\277\264LL\276;\331\370\275x\262@\277Y@s>\267\032\240>\211+\325?\013A\205\277w\237K?>Y\n\277&\240\n\277\265\236\340>Ypw>\327\017{\276\021k)\277\374\270\220\277\243!X\277\265z\020?\r$\272=\356\006T\2776JQ?\310\327\336\277\365*\347\277\376\003\034\277y3\256?\346\"\275\277\240\"#>\350 \207?\365*\274>(\022\205=\374\234\n>\355(\311\277^Ni>\002\027x\277\373\030\237\277.Y\274\277\317!\206\277\216s%?\3033\245\276\260\207\016\277U\304t\277N\223k\276V\226@\277\016\357\371<\275\307\334\277$\340\003\300\347\261K>\260=\013\276j\334&?b\274\212>\253\332\267=\245]\023?\010S\335\276\234h\303=t\315j\273^$(?\310\033$=\371T\022?\366]\340>\004\010\373?\232\037\332>t\020\274\276\313\010,?\340\021\021\277\017[\341>\034\300\216=2\r\254\277\245\006\221\277\2159\265\275OY\266>\257\237\203\275IfP\277\267\343p?\255\254\013\277:\245(\277\255\362\245\277\221\307\220\277\177(\322\277\235$\010\300\207\035\356?\230\364\234?Y\237\205>.\265e\275F\202X>qX_\277\363HK?\311\023\237?n\016\024>\254\271\202>\003\300\236\277\371\016\033@_\346\204;\r\'\200\277\240j\231?\325\335\257\277@\217*\276_\352\357>\353m\336\273\234\377\262\276\017#*>:\231\032@C\357\t\2773\213j?i\222\342\277\326\201\250>O\265\232>\216\004\354<Q\355F?\224\216\212>\203c\230\275\363\356\221\277\214}\240?\377\006\313\277\202[\205?\357\t\033>^na\277\336l\255\276\335\274\331\276-\035\013@\256\016\226>\227\202\017\300\365\014\204\277\302\270\275\275d\337\244=\362\334?\277\rY%\277B,\221\277\217_&\277\372\373(>=8\255\276\327\315i>\003\321\253\2758h\217\276\0175\254?\347UC\276%\212\271>#?V?E\334\205>a\2226=0\223#\300|\022\224\274\370w\327?\224cm\275\225FZ\276\025\222\353\277;b\205=\306\367\342\277\250\201\215\276\204LQ>E\363,?C\224E\277yQ7\276o-4?\222\323\316\276\231\005w\277\313dW?#\025\034@k]\245\276\2461\337\277Y\223\323\275@\216\211\277\301\326\354?\321n\027\277\314%\177?LJ\021\277\212\346\022?\256\001\364\277T\032\237?\266ri>R\377\233>\316\274\226\275\360\301\322?\255k\022?57\004=-\026\216?\357\223h:.\251\230?\337\374\034?U\330\014>-X\031?\005!B\277\227\270\216?\265Z\177?\016C\257\277M\000\242?\315UM<\210\254\265>\263\310\371?\347\272\001\300\372\372\260\277\351\364\304\274\334\310\001@\362^@\277\260\236\025\277\317\310\205>\201^\033?\275]\354\277\006\242(?\324>\025\277\370M\251>Q\'\301\275\254\336\335>NY\303\277\272\354\204\276\311\311\323\277\224\300:\277f)f\277I\002M\277\3773\251\277\263\320\256\2774X\267\276\214J\272>r.\241>PH\267\276]4\205\277\222C\243=F\330X\276\347\375C\277\032\003\324\275Y\300\225>\003\n\340\277\235\244.?\027\330\017?\001Z\216\277\245\'\205=\006\013\222\275;\367\235?|\023\226>\200\240\202\277\231{\263?LF\201\277\343]\024?6\326g>\320\237??+\344\323\274\260&\253\276\217\377\331?&\270\010\277p\345h?\013\323\355\276\013\322K>\3528\222>\373<m>\311\3160\277-\343/\276\204\006\226\276\331\322Z\277\035\004/\2731\022\222\276\370Z$\2775t\204?\330\336\204?\367+U?\243\237\300\275\352d @7\305\036?\016\211\240>.\014\302\277\300a\333>\270\242)?I\033??\343\261\220\277\301\336\026\277<\363\263\276\317\347~=t\262\217>\002B*?\220}->/\302n\276\231\363_\277j&\234?` \276?\370\362K\277UTA\277\336z\264?z&\333\276\236bO\276\252\211\234>\353\313n\276\256;\343?\\M\347\277\323\305-@\355\314,\277_@\373="
      }
    }
  }
}
node {
  name: "filterW0/read"
  op: "Identity"
  input: "filterW0"
  attr {
    key: "T"
    value {
      type: DT_FLOAT
    }
  }
  attr {
    key: "_class"
    value {
      list {
        s: "loc:@filterW0"
      }
    }
  }
}
node {
  name: "conv3d1"
  op: "Conv3D"
  input: "image"
  input: "filterW0/read"
  attr {
    key: "T"
    value {
      type: DT_FLOAT
    }
  }
  attr {
    key: "data_format"
    value {
      s: "NDHWC"
    }
  }
  attr {
    key: "padding"
    value {
      s: "SAME"
    }
  }
  attr {
    key: "strides"
    value {
      list {
        i: 1
        i: 5
        i: 4
        i: 3
        i: 1
      }
    }
  }
}
node {
  name: "Reshape/shape"
  op: "Const"
  attr {
    key: "dtype"
    value {
      type: DT_INT32
    }
  }
  attr {
    key: "value"
    value {
      tensor {
        dtype: DT_INT32
        tensor_shape {
          dim {
            size: 2
          }
        }
        tensor_content: "\377\377\377\377\030\001\000\000"
      }
    }
  }
}
node {
  name: "Reshape"
  op: "Reshape"
  input: "conv3d1"
  input: "Reshape/shape"
  attr {
    key: "T"
    value {
      type: DT_FLOAT
    }
  }
  attr {
    key: "Tshape"
    value {
      type: DT_INT32
    }
  }
}
node {
  name: "Variable"
  op: "Const"
  attr {
    key: "dtype"
    value {
      type: DT_FLOAT
    }
  }
  attr {
    key: "value"
    value {
      tensor {
        dtype: DT_FLOAT
        tensor_shape {
          dim {
            size: 280
          }
          dim {
            size: 3
          }
        }
        tensor_content: "8 \212>\026\377%?\364\360/?h\251e>\242 c?\244F\'?\220\235\260=\242\352r?\\\221\333>\016\205R?\240\210.>f\266*?\240\336\001=@\022\265<T\013\'?:\253\030?\270\375\032?hK\241>\200h1=\"\355\014?`\213\251=\340\025`?\024\367/?r\3374?\310\361\273>\352?^?\376\335\n?>\250$?\\_T?(.-?\256\273\020?\232M0?:\017z?\370\217\026>\240\225\031?\224\272\"?\216B\001?j\275\020?|\306\220>\340-\372>:\335z?\032_\014?\000\373\"=\206\232e?\320\250\366>\300}\202>\270\253h>LD~?\354E\022?\202\270P?\304\237\247>\272\013C?h\206z>\350\304*?\322\340<?\270\372#?|\334X?\306cr?\200\3145=0\355s?|\310A?hok?8\324]><N\321>\004_r?L\272|?\320\3347>\000\307\310<\370C\312>\220\214\276>Pch>l|9?B\207-?\000\376C?\210\3040?|yO?\026\360Y?\334\326Q?\260\262.?\300;\233<\246Q#?\3069o?h\t{?(\004\313>X\032u?\310\240{?6\356>?D\222.?N\330s?DL\251>\2208\000>\006\013y?\234\240\250>\250\t@><5\275>h\270\230>\334\370M?$\177\277>\234\017P?t\375y?Dj\035?\3201\244=\034\002\270>`\224;>\374\000L?\266A\\?\214\232r?8t\227>\314\363\026?\016\206J?\024\377\356>\222&\027?R1*?\230\234\345>@\212^=T\3750?,\301Q?\214 \221>\300T\340>\034\342Z?\260ZI?\350\337\301>6C#?\026\232.?0\355\032>\274\234[?\310\024\242>\000\240\257;l\363K?R$u?\352\315x?\364B\216>\330\036\316>\230\216\251>\220\305B?\020\313_>F\310\t?(A%>\3509 ?tm7?z\3454?\024\327\317>L\307\247>\230\263E>\254\260\273>\000\'\022>\254\354/?\356\3132?\324\336E?\234;N?\036\2650?\320C\251>\330Jh>\270\213\272>\000\313o>\220Ee?\304D\242>\000[\000<\340\023\n=8n\352>\000\023\230=\374\353`?\360\370s?@\306\035?\300b\201<8\261\305>z\324\010?\302\002*?\270MD?Px\314=\326:C?p\302\314=\320\374;>\230\2727?`\322\027>d\213\371>\030Fh>&\203\013?\320!\210=\250!i?\374\236\\?\226\"\r?\374\220\t?6L\034?\024\235J?\\m\202>\2064d?\354\353\006?\214F\374>\276\010A?`\326\221>\\\315 ?\300U\320=\250\024\026>@X\305<P\330\345>\234 G?\260W\226>\370K\t>\030\304\251>x\241\334>xk0>H\365m?\240\317^>0z\352=\372q\\?tL\331>\362,\000?\304\312&?\214\n\200>\220\365P?\202<;?@\377l=P\215\223>p$\257=\224N\004?\200%*?\370\334q>\020\270\377=\200\250\256=p\324\333>\210\355Q?\240\321\337=\310\037B?TT6?\300\371\374>@A\010=\356\"H?\302bH?\3323 ?\\z\220>\362\307F?\300\366O=\034\303\033?`09?\240;\371=\3142\222>\240\031!?x\262g><>\253>f\002\033?\312WP?\004\305r?\370\027x>\210+\366>\204\376\234>\2143\347>\230E,>\300T\231<:\3217?\200\307]?\3007\330<\254\266&?\360\355\010>\016\3746?@\310H?\224hK?x\3053>\240\352\265>\270\201\232>\214&\303>\330\275w?\244N{?@\374\336<\3243k?\314\003\216>\334\371\361>$\0226?H\316\035?\324\257\367>\024s\373>\3540\262>\216\321;?\020B\353=\350t\341>\332\250.?T*3?\000j\022><\327k?\200\272)=\300%\031=\"\372\000?\244\036-?\340\330\325=Z\006u?\340t\213>,|\277>jE ?>\346\n?\000\013a<\210\314\372>\374\257\365>bmJ?p\244\340=\016Mm?\306\225S?\320\371\374>h\020,?\270\036\313>\326\240]?\214\213-?\n\366Y?\300\000/?f\002@? \177l>h#\210>\316\345O?\326\252\001?P\024~>\250W\314>\300\036F=$\340\345>\n8%?\014\213\266>\204\2563?j\373T?\244Q\370>0\253\277>\200\034\000<\274\375J?`F_?\266Ch?\210\276\007>\316r{?\350\347\345>\232\367\005?\312<9?\024\007\347>p\325\237=\272\371 ?\3369E?\260\026\014>\354\010\254>\250\241\t>\000\246Z>|e\000?\300\327\312<\322\257(?\312c\\?t\367\246>^St?D\3278?.\212\027?\324\222\201>\030\202\326>\350O\212>\200\177\022?L \313>\346r|?\320\306\343=\\\322\235>B\267\177?\376\276\032?L\037\020?\360\247F>\324\177-?`\372k?\240x\313=`\255\302>\226\375 ?\246\277G?^\254\'?\220\326J>\364\360\'?\306\307{?\264\037\312>(\203&>\214\257\215>2\351g?`\372\031=`\n\243>jQ#?\206\356C?\024D\"?\340\014\016?T\036\266>0\366\350>h\271\025>\374\303,?p\'G?f4\177?x\212\030>J\343b?B\n\001?\310I\024?\244&\201>\014\247\000?\032\007{?\356\200\006?\364b\201>\320\361]?\304\267\345>l1\340>p\024\301>vmD?\210\013Q?\246R|?\010\215j>\354\3662?l\242\203>*\331\002?\204\317t?\\\215P?\272\346D?\252\n\r?Jo_? \034\244=\\\376\020?\\\323\207>f\227Z?d\351\300>\336\322\006?.\036\\?T\034\010?\024\3634?\200\305\r<h\341\261>Xj??\262}\034?@\241\260<Bf\000?0\372\353=\0366A?\336\264I?\352\237g?\346\003\016?\332\306`?\254\3457?\274Y\331>\314\323\300>\222\240\004?\000kV<\0000X=l8\004?\360\014c?@\334\316<\262\224L?\232\347/?l\006,?<\234\345>\210u\323>\310\030\335>\300_\031>\3303C?\220\233\036>t(\207>F\366Z?x\255c?25c?\000\230\272:`4\360=0\260\023?l6\300>h\206\277>\230\320->\232ao?\020\305\361>\300a\000?\200\235\355=\000d\207:\370\361\300>\234*{? \362!?\320\210\036?\350\177\357>\010\244C>$\377\230>D\205\274>\334\034\202>\376|\024?x\254\254>\3763\033?0t\'>\230\033%?\270%T>$\301\022?x\300\341>|G\364>\220T.?N\000W?\010\031!>\0148\034?z\0370?P\037f?\374k\231>D)\352>\0206\345>\000\312L;\026\336\021?LE\247>\234;\231>\230\330\300>\2426\006?\270\307,?\376LK?\224\004:?\224\235\201>2:Y?vNa?H\255\340>\010NP?\220x\267>\236\2017?\300\3629=\370\313\014?`U\177=f\010C? \357G>\344\337\337>\220\363a>\"\014!?\010\212\003>\334\002~?\014\272E?\000\375\222>\000<\313:>:C?|\3554?0\336\266>\372\246p?T<3?\342\000T?~G&? b\344=ls\341>\020\252\215>\034\352q?$5\003?x\241Z>&\336A?0\351G>\216\034\014?J\343}?b\263E?|\211\001?\260-S>\354\201\035?\360#\233>\242xc?\346\224\024?8\267\247>\206n0?\360\356+>\344\307\215>\266\345n?\03014>X\346\271>&\356%?\224x\333>\000L\276>\234]\177?J\316/?<\334\256>\004Fq?\000\t\030?2\2070?\020\207G?\236W\\?\242rv?@u&?\320O\021?\252\032A?\030\212\344>\030\270(?B\244\014?\276n2?\356a*?D8\377>(\272E>\036|\034?\372\2371?\276\231\033?\270\342\361>h\021\345>\214\203\273>\340\241??\220\216\210=x\217O?\354\021\354>\244\250!?\364\212T?0\017\366=\"\252V?|P??$\321\023?\260_\362=h2J>\020?/?0\272X>\300\250\344<\242\n/?D\213\234>\254\210\376>\010\024s?\352\030)?>\"_?\220\317\004>\220s\221=`\352\213=\000\255\345=\224\266\203>\250_u>\332\263d?\000\036 =(\241\025?\024g\313>\350e\036? \214\322=\240Q;=\300Y\271=ff1?\276C\035?\200\354\221=\3342\031?@\027>>\200\320\261>\300OH>\034.\016?\220)K>t^\320>\300l|=XY\010?\240\332#=8\326.>\030\024\345>(\241\232>\374\346\025?\030\311\352>D9\323>\000\205\317=@\326\301=8Z2?,\370\260>\300\0367?\036zE?\270\030w?\034\262X?\014\'\263>\004k\t?\364\260\247>\256:*?\206\377\037?X\325\315>L\321A?\000H\336:\250\214\013>\020\215\275>\220\351}?\214\377\263>t9\336>\006\034~?\250\013\337>Z\003\004?\200W0?\312\211n?\216\327O?N\257F?\336\034`?\204OG?\300-c?\344\027X?\310d_?\254\216\223>6\210u?\242\277\001?D\232\003?\006lP?R\264[?0\371\023>\366\371\177?\200\024\373<F+8?\204\237\177?\016O%?\304A:?\0209\004>@?\215<\200[\013<B@j?\020\t4>r$\003?jqJ?\\\341\024?jV&?\210(->\200@\360>,\304\327>\200\260\326=\220\303\255>:\232\'?.\3114?\250\373\274>\234\352\222>h\361\351>\014l\356>@\322\273<8\334|?P\036G?\200\257G?\022\306\"?\274\351\245>Zc8?\240!j?`Sg=\244\271\237>\260X\032>J\315J?`N\373=\360\200t>(VY>\024\205d?\206\320 ?\200:\330=\274u\361>\344\253^?\020s\364>\344\317\356>\000\033\221<0\016\307=\020o\262>\376]\021?0\343U?p\341\327>\374\021\320>L\363 ?\304s\373>\354A\262>\202\360\025?\236Y~?\000\307R?P\336\t?6k}?\030\270c>8\313t>\350<R>L\270\264>\220\221\232=\000\376\224>@<\260>@L\002>\276:Z?\020>V?T\214\205><\330\253>\310\356S?\310\277\356>\250\211n?\270\3524>N\212M?\220.\374>\242\262@?\250\257\352>*\242Z?\210\264*>\254\001A?\340\323o>8\310O>Hg\021?\030\306\036?\364\362\300>P\360\211>\352\326t?\030c\352>\330\252\336>4\\\322>\340\014\304>X)\303>D\365:?\240`??\274\247G?H\006\311>P\323\032>`n\317>*\226\005?\306\250z?\030\363\260>fCU?\204*d?Dy\034?\204\204j?\366\323^?\320\227Z? \'\214>\270I\t>^\304T?\200h\313>\020\364W>P\027J>Ha=?\034\3265?T\257\221>\260;]?\310\261{? \337\331>|.N?\256\265\t?(\312u>\030\204\005>\304p,?<G\010?V\332\025?l\242\231>\000\343P?\000{\324>\330x\'?\300<5=V\216I?`-\200>\032\315\\?`@2?L\237\025?NCu?\000@\202;\270\331\331>r\270S?\000hj>\030Mj>\254\265\216>\374\337\010?\214vg? \000%=HR\324>\240\303\010>\020\356\341=\214\315q?\000\300V;\3748P?\3022t?\222\001;?\306\027\021?\264\220\003?\320P\004>L\326\312>\026\210]?\326\027.?\210zL?\300_\341<h\242\023?\026\274C?L\320\002?"
      }
    }
  }
}
node {
  name: "Variable/read"
  op: "Identity"
  input: "Variable"
  attr {
    key: "T"
    value {
      type: DT_FLOAT
    }
  }
  attr {
    key: "_class"
    value {
      list {
        s: "loc:@Variable"
      }
    }
  }
}
node {
  name: "output"
  op: "MatMul"
  input: "Reshape"
  input: "Variable/read"
  attr {
    key: "T"
    value {
      type: DT_FLOAT
    }
  }
  attr {
    key: "transpose_a"
    value {
      b: false
    }
  }
  attr {
    key: "transpose_b"
    value {
      b: false
    }
  }
}
library {
}
