node {
  name: "input"
  op: "Placeholder"
  attr {
    key: "dtype"
    value {
      type: DT_FLOAT
    }
  }
  attr {
    key: "shape"
    value {
      shape {
        dim {
          size: -1
        }
        dim {
          size: 28
        }
        dim {
          size: 28
        }
      }
    }
  }
}
node {
  name: "Variable"
  op: "Const"
  attr {
    key: "dtype"
    value {
      type: DT_FLOAT
    }
  }
  attr {
    key: "value"
    value {
      tensor {
        dtype: DT_FLOAT
        tensor_shape {
          dim {
            size: 128
          }
          dim {
            size: 10
          }
        }
        tensor_content: "\315\346\303?\"`n\277\312sV?\326\240\036\300\276\345\300?9\201\252?\333\365\201>7\371W\277\302\361\224?%1\312\2767\331\276>Jq\n\277\217\301\004?QC\344>Q\365x>\033\240\004>s\254e?Z\307\302>\305\000\344>\rl/\277\025\352>?U9\014\277\225#\200\277\337\372l?\306\366\317\2765\021\027>6\343\323\277\032\350\374>\206G\242\276\331F\226\277\220U\227>;\035\034\277\026\016\333\275 \323\345>a\035\251>vG\206\277\310z\322\277u~\241?\323\325\201\277\tg\362?>\344\260\2779\313h?\343\020V\277\201A\r@\263\374\t\277\217\211\024\276H\031\017\300\224\334\216\277\030\221Y\276\006\216H?\253n!?\205\034\002>\256e\002\300\227\326\220?\020\364B@\007|_\276\\\263\243\276\370s\204\277\312\326\213?\244\227.\277r\340{\2763\010\213\276\352\200e?\\\322\367?\033\321\201\277\232\033\311\277bB@\277\262\341\230\277\276\322\234\276\236\277\021\277\330P\t\275\212\335\265\277%\245\343\277\n\300\203\276;\024\006@\363\017\004\274\357\215\241?<\346J?u\232\210>\370 \262\276\377\257a\277\347b1\276FT}\277,9}>\201\207S\277\335\245U\277p\371\317\276\255\321\350\277\005\225@\277\033|\355\2776\005\177\276@r\271?=\023]\276\372\356\234\277\370u,\276NAs\276\363E\313?\327\036\t?\314\177\200\277P\354\337>\333\\\013?\352\205p?\334\305\341?\376\340:?\010\202\213\276\373sz<\230\257\205\276*\322\333\276OC\226?\246\311\212?oI\n?\205\030\277\276/\344)@\375\003#\276\243\024\302?\026\025\325?\262\035f>\356\\\271>;\364\316\277hGi=&U/\277\223\023o>uH\226>\022\332<\277\373\0325\276\020f\300?\310\371\260=?\366\246?B\257P?\235\336\253\276oGv>\356`\006\300\374\245V?[\365\210\275?\340\261\277\342\315\240?3\251Q>\266\353\306\276\347\222\204\276:h\031?\262\201\227?$\r:\277u~\210\277\033:+\277\\\306\025\277C\027\374\277e\237\335>$:\321>\013^A>e\353\302>\252\302\004@\301$#@\216\324R?\316\027g\277\312\226\007\300\332\316(\277}\003>>x\262]?\376\236\251\275\230f\372\277\222\3129\277?\304\013>\336w\257>\0002\231>\222\207\001\276/\353\275\277\215\033a\277\033f\010>\355OJ?n\300\355>V9\223?Z\304J\276\005\374\346\276\242\tB\277\001\344N?J}+?\313\254Y\277\264\365\233\277\016D!\277\203\347C\277[=\002\300J\364\003?\205\247\266\275\203h*=\210ZD>3@??\300\324\217\277\000[\371\277c0\330\274Z :\277`\177u?K\227\004\300yo\377\276\031+Q\277c\r\221\277\256%\326=\343\375\256>I\347\031?\251\332\312\276X\216\251\277\223J\216?\357_\250?\026\014y?\276\347\021\276@\232\323>\210\363>>\246a\002?8\277\246\277\365\374K=\273\360(\300Ke\222\276E\306h?\375\224\216>M\232\213\276k=\021\277\200\332o?\246&:\277\301\371>?\001F\361>\272Bu\276;`N>C\325\232>\000\260\\\277\354\302f\277O^\003?x)\252\277\014\377\024\277\264\202\210\276\001\231\302\276\221\354\235\277\014\026\216?Z+\327\275(\276\014\277\200\352\316>\316Lk\277\211$\237?\330\2573?\030\3471\277\347{\222\276y\003/\276\314\227\244=\235\320M\275i1\332?\\-\254?\255\266\347\276\t^\340\276\201\240\331\277\0300\373\273M\360\214>#3Z?\315*\275\277n]\344\277\244\357\265?\006\'\037\277\360\026K\277\263\036~\277\331G6\277\200\227\273\272\216\225\036\277\224\321G\277j\230f\274\266\255\304>+.w\277\262\005;?-\017+?nB\211?P\262\220?`h4?\302\212\332\276\321\370\264?\322oD\277Kg,?\031\244\374>Lp\303\277\315q\325?\016y\364\277\216 (\300\347zR\277w\377\237>\004\3738?\305\300\001?\252\200\201\275\\\242)?\276\034\210\276^\243\022?\330\'\305\277H\217\336\277\240\001\307\276\314\266\253\276\212\302\257>\221\377r\274u\327_\2774\203;\2770:R\277\t\362\323>O\317]?\246\022{?\021\027{?gs\024?X\3412>s\342\005?\355\203\322\276[\211\037\277\034\344\320\277\241\030\240\275\244\226,=\204\031\236>5\336}\276\371\025\355>\270\256%>\226\235n\277\023\344\204?\324n3\276d9\330\276Vu\017\276\356\037\377\277\257\303\262>\344\351\024\277\347W{\276\254\025\001\300\301\023\240\276\307X\340\276+c\003\300\223q\254>\375\324\240?\250MI?]\240`>\3009;\277\215\253\276\276\224\273`>\221\342\277\277\207d6\277\277\\\200>\311%\234\2766\302\205\276I\314\347=\350@\014?G\355\370=\005\362|\276 \006*\276\201\247v\2775\224\377?\242\003x?\230\215\315?#\307\361?\342\327\"\276W\0272?\314\363S?\253\370\230\277\370\203\337>o51\277\r\211A?\356\031H?\370I\003\277r\315\020>\014:9\277\260\316\'\275}y\222\276\221\035\245>\\\374\274?\"\256C\276\035\322j?\t\236\277\277w\343\211\277\034\312\326>\257\356\201?\356\t\351>$\202\037>\225\'\206\277\205G\251\277\302\177r?\345\010#\300Z\271\274\277Au\240>\031N9?\277\344\317\276 \237\024?\242c\013@\305\375\021\276[\016Y?\0020O>\363.\260;y\253T>\013\374\325?>I\335>\317\202Q?`[\026@\250\277\254\277\204v\027\276\204\r]?\347O\314?\026Q@?CX\257\277\"\036\315>\034N\265=[`!\277\003\341\320\277n\350\004?\237\337\342?\257\333\245?=\362\214\277t4\306\275\030\256\206\277\245\355\253\277\344\014\003\277\370\271&\2779\240w\277d\211\027?\375\233\001\277\206\346\270?\350\324\350?\327\326\001\276\017\374\253?\310\301\r\300\305\030\240?i\3102\277VW-\277(\220\315>\202\266K?7\010\254\276S\267\207?^9\247?\r\227\303>+\321\337\276\216\270\277=\005\326\222\277\034ML\300da\033\300\006;\334\276f(\343?\342\367f?\321V=\277R\222\352>z\310\036>\243\201r\275\272\225\321\276\t\211\031?\242\022\300?\006;\207\277\224\334\256\276\034\376\344<IX\244\277\244\302\226\277\020_\303\277+d\001\300\r\222\t\277\2456\202\277\357%\n\277\365\220\033\277\213`\276?\010-\255\277L1\031?\261Ms?\372\213\000?\213\311\323?\270\213 @\277!+?\324\304`?\031\275\203\276l\027\370=\027e\t\277\336\317\340\276\3535\035\277\223\254\361\277b\237\262?B\236\225?uPR\276D\2445?\021\365b?F\360\004?\"h\313>\271\310\240\275\260\221\264\276\002\204\277\276f\376~\277>n\006?%\211a?\032y\006\300}C\235\277#\377\220?\322:\013\277\367A`\277\020\206\236?Hp\267\277\352\344\316<\357\266\225?+|\233?\223\003\'@\207\tV\277\372\022I\277e\326\323\276\250\307\377>\256\020\247>@\275\027?\313\203\031?\351N\212?\361S\357>\022\243I\277&\001\024=\336\301\035\277J\317\316\276O\006\275\277\241l\024?5B\206\277B\205\222\277$[\227>\260\323\224>\326\365\207\277\226Y@> WE?n\243\373>{\3052?fU|\277]V\311>\035\241)=U\367\375\277\327\327^?\361%\224\276]\267\221\277\370Z\260>\025\351\t\277\000\017\263?\3301\274=\037\316:\276\362w\315?\025\024\211\277\004\244\r\300\236\247B\277\227K\037@)\003\275\277BQJ?\311].\277\267\244Q\276\201;\017?\035\024+\300I\3111@\274)B\277\246\223\304\2776\355\314\276\273fw?a\252\310>2\237J?\220\2138\277\203\200g\277\211\235@\300\263\005\013?\201\203o?h\321\312\277\353o\332\277W\345\232?\255\022\004\300Xv\005?GV\252\276\304Gk\277Syz=\325\025\345?\353O<?\364h\017\277\177<%?\260\003H?{\357v>K\326\225\275\322rE?k\226\202?X\213\207\277\021\036\222>\345\214\207?\232\347\002\300\321\267\004\277x\244\250?N\240!\300t\267\n=\244\251E\277\220mH>\016B-\277Ar_\276\347\356\214=\334*\206?\357\242\034@\343\354x>\274\2622\275I\335u\277=\r\270\277\277\301\030?6\027\303\277^\263\266\276=V\212?R\032K\277\2539\004@\301$\024?\351b\212\277\035\000\001\277C\302/@\2673(?\314\343\024>A.#\277\035\034\375\275a]\327>\255\247\224?\215K\262?\322\245^\277\346\312\210\2767\001\036\277\312{\322\276*\303\234\277\332yg?\024N\314\277U\315\360\277m\301)>dJ\021=G\331&?\330f\277\276\304x\324?\302\266\202?c\242W?\272\200\003\276\337`K\277\265\"\216?\362m+\276j\254\035?R[c\276\274\352\233?\310\016\247?\332DI?j\315U?\020\034\221=`\231\017?\250\344E\277!\025\207?\341\261\353?\365i\321\2760\337^?\212\366\212>\243`\313\276\333\216F?cn\360?\314\323\311=\020\202\027@\252W\223\277tM0\276\236 \031\277\031\275\341>\020\354\260\277\\[\270\277\264\357\253>%l\356\277t9}\277\321\372\336\277` @?\354\210O?\353R8?\342\230\355>\216\2751?\026\322\203?\351\254\266\276\005\212\213\277\031\\\210\277a\363\260?\253\317\214\277\234U\035@\016\202\001?n\301\231\276cxH?\355\3217?\024._?F\340\250\276\231AQ\277\372\253\021\300\336\005\\\277\373O\256?\305E&\277\265\000\325\277\240\023\241>@\327\367?yf\360\276\234\241w?\357\360\215\276N\306\001?\334\204\356?Y\334\316\277>\014\033\2765\330O\274?]\010?%:*>\014\363\311=\267Qn\275\324I\310\275\211H\"\275\265z\'>;\274\215>\2723\233>\352\315,<p\332x\277\034A.\277\312\332\240?\325`\010?y\344\022\277|\237\245\276\233\025\306\277\3305\316?\227\027\314\276\253I\"\277;~G?i\353\031?\030\233\010>\233:k\276\372\212\201>*d\202?\201\357\216\277)\000\216?\370&\n?\353\016m?\022\207\002@gA\265\277\272Gc\275\270\025t\277\007\252\"\277\361\253i>\033Lm?\030\005(\276\027\316\262?O\243\252>\371\230\347?\324\310\230=-b`>\253\030\254=0F\342?alO\277{\236\003?VY\033?q\250\262\276\220}\244?\264l\037?\002\367\034\276\241\231\366\276\210a\242>(/[\276\rU\204>BY\313\277\317\346\021\277\306\320\261\276\316\333r>\371\212\215;\322jh>M\254\270\276V\343R\276\241\373\353>S\213\002?Xc\304?\332ga\274\037\233\n\300\211\030\253?\353~\032@c\240L\277\031)l\277\364\036\303>v\303\266\277\343\247\270?Q\007\324\276\027\017C?\336\371\375=6{\017@p\331\276?X\213\021\300\253\361\2338\2020\254\276\312\322\000\300\254D\202\275\\p\273\277\362\357\314=9Y\272>\316\013\003?R\342\231\277\217\234\256?\277\033\264\275H\377|?\245\366 \277\307\315z?\313\202\221\276\302\t\345\277QcT\277\375\226\">,7\020?fR\213\273W\227w\277\203\212\177\277\017}\316>\326\344\255\276\177\353\332?Z\210\205\277\014\340\273\276\270\331\224\275\350=\236?\034\004\242\277pi\331?{\277\002\300\213\210%\276 \231\\?\027\367\'>\026\276\205\275\350$H?<&\247?h\336w>\252\344\030\300\021\203\213\277t@\032@@\256_?M\3540\277J\230\370>G\366(\277\335CL>l\247\263?K\256\243?\365DA?O\264\001\277\204\263\302\276!g2\276\022\023\334>\0178*\300?\324E\2764\017=\277\365\032O?\265vQ\277\335v\277?&I\211\277v\004\266?\234J\004?\202\205\233>\n\312\361=p<\331?ZR#@-\377u\277\023\373\365\277\005\270\035\277\246;H\277\321=\005\277\025\335R?\217g.\274\032| >\275\243\207\276=\372\372\277iR\264\277\'0#\277\026\204{??/\315\276\357n\315\277\347\025y?\310\222\022?\222!\006?\362,\035\275\265q\205\276\t\226\252\277\305\265\213?\206\210\264>\231F\224=Q?c>\200\212\373?\346+\224>\322\212\325=t\362\247\276L\374\252\277P*,\300\274\266\264>\301\374A\276\035\336/\300\215\261\377\274x\317\022?\232\026\006@\376\353\023>\311\342\267\276\263\'\221\277\307\004\377?\357$\227?\'\334\264\2777ow\277\037\324\322\276\303m0?u\376\340>lgo?\t\327\306>\346\t\316?Z\257\314\277\022o\026\276=e\034?\177]\'\277\272Q`\277;\202\367>\241\220\253\277\264\027\331\277\252\366w\277\351\351\205\277I\240\205>\003g\223?M!\317\2769\330\222\277a\216\344\276\354\235\001?\346\200\032\277\234\250<\277\353\265\374\276\236=\337?\313f-\277\215g\307\276\240\255\251?\265dh>6\363\303>\224\315\200\277\\5\007>\2771\035\277\375Pk?d\350\241\277\371s\337>(\231\274>\316\247\260?\251\213\344\276\037\356p\277\335`\363\276\314\262\367?I|\002@dB\r\274\3136\334\277\264~\322\277\004H\002?\225=-\277ct\030\276i\343\204\276J,\215?\007\344\275?\234F\021\277Y\305\342=\203\255\324\276\033dL\276\313\255\n\277\216\333S?\331\357\245\274+T\227>,~\305?\360\325\216\277\235\025\234?wC\023\277P%\267?\222=\312>H\337K\277KY\340=\334\3223\277(\346\261\2770\266e\276!\007\323?\331\206\237\2755\314C\277\314\322\207\276\327\020\237?\363\247\326\276$\205\242?\234\224\232?\340\363\016>\200V\333?H\016\223>&)\201>\354J\360=<YT<\365cp?\033.\320\277\245D\211\277\"Ro\277\272\347\035@\364\251V?\035\237\222?,\245\r\300R:v?BOH?W\267,?,r\356>\263\351\226>f\374\244>\322\306\362\276\266\325\003\2771\206\254?\260\030B>\330;\267\277I@K>\226\250:\300\034\334m\276\334\371-\277\225Wd?\021\372\372>3G9\276\306\022\003@2`\334\277\327\233j\276-\243A=\025l\217>\030\302\304\277\302\320 ?H\372\034\300\376\262\302?\313&\r>\326X\366\276\364R\024>d~\310=\270\242`\277^11?\336\240<\300\231\277]\277\037\374\311\275\237M\243\277ZJ\263>\325\246\200\276`F\224?\357\177\366\276Q\355\352>r\202\000?\232x\267\276\241\240\n?8\253\260\275\330\237\004\277B7\202\276\357\375\226\2773U\321\277\224\331\010>\250\022j?\215\366\331\275\342\037\202?\342\241\306\276Z\205\221?o\255\311\277\341\253\244\277\031YG\277>\005F>\213\343\005\276\217\320[?b\340\253\275\023\351~?@v\036\276\375\213x\277\r\253\206\276P\325\273\276r\253\004?\263\\\277>\0235\350\276\230\315\232\276j\023\366\277\024\376\027>N\255\226>\256\302,\277\335d\210?\234\353\326\277\306\035!\277v\306\233>\372\263\010;\262\205\335\277\201{\306=\320\036\212\277\337vt?\257\226i\277\304B\255>\210q\250?w\211\302\276\306\256\026\277\030p\260>k\267\220\275%^0?\021\277Z=\006=\375<\030\026:\276\032\203_>*\204\245\277*Q\301\277\345\3218\277\226\200\033?\014\201,>\323\320\035\277\223\374\222>\214\261\277\277\376\364\344?\330\227\340?\251.,?\216\035v\277\274YY\277Bl#\275M5$?&\376\310>\341\250\376\277\240w\216\277P\330.\276\"\036\210?\227\365s\2776H\246?5\307\013\277\316\343.\276_\036#\2770\254\005\300\352\2602\273G\007\013?\024]\315>\245\030\205\277\360W\207?\365\302\320?3JI\277\206\'\342\277*\270\203\277\262\357/?\313Qy\277e\327\035?\225S\332>\237s\201\277\3664\020\277\310P\216>~AL\276\207b\267\275%t\362>\224\315E\276\351\266\260?\302\307\347\277\022<\262\276j\017\375\277\034+k?;\245\265\276\232\nb=U\276\273\276\226\3231?\334\212\262\277\301\377\005\276\375\232B?\266}\210>N\235\221\277\001n\234\277\026~D\277m\206,\276\002X\223\2776\250W\277\343\242\242\276\036\315\031\277^\356\352>!\220\213?\356\037\262\276Isy>\"}i\277<}\027\275\255\372\020?\354\021\267>\207G\235>\001\331\r> G\374\276A\212Q=\276v\211\277\217M\210?\361\374\322\277\027E,?\353\310m?\022\243\270>\252Y\037?3.\315>2B\216?\307\030\023\300\2604\031\276\373*\033@\326\207\000?\335Z\333=\244P\027?\257C\212?o\262\361?u\242%\277eT\264\277d\334v\276\315\016\227\277\264i!\300\247\361\314\276=\270\234\274pM\220>$\036|\277P\236{\276\032\032\203\277Pm2?\037e\177>b\271\245\276\214\033(\277u\305\336=\377\3725?G\242\344\275\253\306\203>\030x\362?P\2421\277\320\340G>K^h\277\311\323\216?\342\342\215\277\274\331:\277\r\233\260?G\035\031\277o\034\310?\367\232\244\277\034\346,?\346s\315?~\366\352>\373\346i>\377\331\267\275D\3136\300\032C\004@:\276\361\277)\037\366\2753\333\331?\251%\331?\264\354\t?\333R\232\276\017&:\277\t[u=LH4\277\"\026\255\276\006\375\261\277\250\274\240\277\023\3720\277*\000c>q\265$?\010z/;\205L\306\277\330B\010\275o{\316\2766\222-?\256]\222\276\331\022\361=\256\221k?\245\326\272?\007\347\010?!\273i>\3129\000\300G\352\252\277%\371\252\276\005\200\361>W{\003@\364y3\276\370\324H\275\220P\225?N\347\323>T\230\273\277\376L\230\277\322\243\223>\n\354\022@\307\221\313?&\215\342\274\342\210\245?j\000j?\275UV>P5\245?\202\231\315?\247k\300?\325\316\246?\006\242}\276\223\330\212\276\256e\231?\017`{?\023\232f\277}\336\311?/\336G?\177\020\264?X:\334>\360e\207?\355b\273\277\355\317\265>\266rM\277x\247\032?\243\367\352?\247\376\223?\272H#\2763\233\242\277\260\213\305\276v\234&\277\213-a?7Z\313>\227\360\006\276\260\247;\277\220\366\267?\262\362\377\276~.d\274N\271\215\277\ru\372>Mo\215>\247\271\271\276\375s\201\277\250\034\250>"
      }
    }
  }
}
node {
  name: "Variable/read"
  op: "Identity"
  input: "Variable"
  attr {
    key: "T"
    value {
      type: DT_FLOAT
    }
  }
  attr {
    key: "_class"
    value {
      list {
        s: "loc:@Variable"
      }
    }
  }
}
node {
  name: "Variable_1"
  op: "Const"
  attr {
    key: "dtype"
    value {
      type: DT_FLOAT
    }
  }
  attr {
    key: "value"
    value {
      tensor {
        dtype: DT_FLOAT
        tensor_shape {
          dim {
            size: 10
          }
        }
        tensor_content: "\025y\213\276\n<\313?\0360\373\276\254\371\004\277\024l\212>\360\036\034\277\322%\257\277S\242\207\277\312\2549?\341]\276\277"
      }
    }
  }
}
node {
  name: "Variable_1/read"
  op: "Identity"
  input: "Variable_1"
  attr {
    key: "T"
    value {
      type: DT_FLOAT
    }
  }
  attr {
    key: "_class"
    value {
      list {
        s: "loc:@Variable_1"
      }
    }
  }
}
node {
  name: "unstack"
  op: "Unpack"
  input: "input"
  attr {
    key: "T"
    value {
      type: DT_FLOAT
    }
  }
  attr {
    key: "axis"
    value {
      i: 1
    }
  }
  attr {
    key: "num"
    value {
      i: 28
    }
  }
}
node {
  name: "rnn/Shape"
  op: "Shape"
  input: "unstack"
  attr {
    key: "T"
    value {
      type: DT_FLOAT
    }
  }
  attr {
    key: "out_type"
    value {
      type: DT_INT32
    }
  }
}
node {
  name: "rnn/strided_slice/stack"
  op: "Const"
  attr {
    key: "dtype"
    value {
      type: DT_INT32
    }
  }
  attr {
    key: "value"
    value {
      tensor {
        dtype: DT_INT32
        tensor_shape {
          dim {
            size: 1
          }
        }
        int_val: 0
      }
    }
  }
}
node {
  name: "rnn/strided_slice/stack_1"
  op: "Const"
  attr {
    key: "dtype"
    value {
      type: DT_INT32
    }
  }
  attr {
    key: "value"
    value {
      tensor {
        dtype: DT_INT32
        tensor_shape {
          dim {
            size: 1
          }
        }
        int_val: 1
      }
    }
  }
}
node {
  name: "rnn/strided_slice/stack_2"
  op: "Const"
  attr {
    key: "dtype"
    value {
      type: DT_INT32
    }
  }
  attr {
    key: "value"
    value {
      tensor {
        dtype: DT_INT32
        tensor_shape {
          dim {
            size: 1
          }
        }
        int_val: 1
      }
    }
  }
}
node {
  name: "rnn/strided_slice"
  op: "StridedSlice"
  input: "rnn/Shape"
  input: "rnn/strided_slice/stack"
  input: "rnn/strided_slice/stack_1"
  input: "rnn/strided_slice/stack_2"
  attr {
    key: "Index"
    value {
      type: DT_INT32
    }
  }
  attr {
    key: "T"
    value {
      type: DT_INT32
    }
  }
  attr {
    key: "begin_mask"
    value {
      i: 0
    }
  }
  attr {
    key: "ellipsis_mask"
    value {
      i: 0
    }
  }
  attr {
    key: "end_mask"
    value {
      i: 0
    }
  }
  attr {
    key: "new_axis_mask"
    value {
      i: 0
    }
  }
  attr {
    key: "shrink_axis_mask"
    value {
      i: 1
    }
  }
}
node {
  name: "rnn/BasicLSTMCellZeroState/ExpandDims/dim"
  op: "Const"
  attr {
    key: "dtype"
    value {
      type: DT_INT32
    }
  }
  attr {
    key: "value"
    value {
      tensor {
        dtype: DT_INT32
        tensor_shape {
        }
        int_val: 0
      }
    }
  }
}
node {
  name: "rnn/BasicLSTMCellZeroState/ExpandDims"
  op: "ExpandDims"
  input: "rnn/strided_slice"
  input: "rnn/BasicLSTMCellZeroState/ExpandDims/dim"
  attr {
    key: "T"
    value {
      type: DT_INT32
    }
  }
  attr {
    key: "Tdim"
    value {
      type: DT_INT32
    }
  }
}
node {
  name: "rnn/BasicLSTMCellZeroState/Const"
  op: "Const"
  attr {
    key: "dtype"
    value {
      type: DT_INT32
    }
  }
  attr {
    key: "value"
    value {
      tensor {
        dtype: DT_INT32
        tensor_shape {
          dim {
            size: 1
          }
        }
        int_val: 128
      }
    }
  }
}
node {
  name: "rnn/BasicLSTMCellZeroState/concat/axis"
  op: "Const"
  attr {
    key: "dtype"
    value {
      type: DT_INT32
    }
  }
  attr {
    key: "value"
    value {
      tensor {
        dtype: DT_INT32
        tensor_shape {
        }
        int_val: 0
      }
    }
  }
}
node {
  name: "rnn/BasicLSTMCellZeroState/concat"
  op: "ConcatV2"
  input: "rnn/BasicLSTMCellZeroState/ExpandDims"
  input: "rnn/BasicLSTMCellZeroState/Const"
  input: "rnn/BasicLSTMCellZeroState/concat/axis"
  attr {
    key: "N"
    value {
      i: 2
    }
  }
  attr {
    key: "T"
    value {
      type: DT_INT32
    }
  }
  attr {
    key: "Tidx"
    value {
      type: DT_INT32
    }
  }
}
node {
  name: "rnn/BasicLSTMCellZeroState/zeros/Const"
  op: "Const"
  attr {
    key: "dtype"
    value {
      type: DT_FLOAT
    }
  }
  attr {
    key: "value"
    value {
      tensor {
        dtype: DT_FLOAT
        tensor_shape {
        }
        float_val: 0.0
      }
    }
  }
}
node {
  name: "rnn/BasicLSTMCellZeroState/zeros"
  op: "Fill"
  input: "rnn/BasicLSTMCellZeroState/concat"
  input: "rnn/BasicLSTMCellZeroState/zeros/Const"
  attr {
    key: "T"
    value {
      type: DT_FLOAT
    }
  }
}
node {
  name: "rnn/BasicLSTMCellZeroState/ExpandDims_2/dim"
  op: "Const"
  attr {
    key: "dtype"
    value {
      type: DT_INT32
    }
  }
  attr {
    key: "value"
    value {
      tensor {
        dtype: DT_INT32
        tensor_shape {
        }
        int_val: 0
      }
    }
  }
}
node {
  name: "rnn/BasicLSTMCellZeroState/ExpandDims_2"
  op: "ExpandDims"
  input: "rnn/strided_slice"
  input: "rnn/BasicLSTMCellZeroState/ExpandDims_2/dim"
  attr {
    key: "T"
    value {
      type: DT_INT32
    }
  }
  attr {
    key: "Tdim"
    value {
      type: DT_INT32
    }
  }
}
node {
  name: "rnn/BasicLSTMCellZeroState/Const_2"
  op: "Const"
  attr {
    key: "dtype"
    value {
      type: DT_INT32
    }
  }
  attr {
    key: "value"
    value {
      tensor {
        dtype: DT_INT32
        tensor_shape {
          dim {
            size: 1
          }
        }
        int_val: 128
      }
    }
  }
}
node {
  name: "rnn/BasicLSTMCellZeroState/concat_1/axis"
  op: "Const"
  attr {
    key: "dtype"
    value {
      type: DT_INT32
    }
  }
  attr {
    key: "value"
    value {
      tensor {
        dtype: DT_INT32
        tensor_shape {
        }
        int_val: 0
      }
    }
  }
}
node {
  name: "rnn/BasicLSTMCellZeroState/concat_1"
  op: "ConcatV2"
  input: "rnn/BasicLSTMCellZeroState/ExpandDims_2"
  input: "rnn/BasicLSTMCellZeroState/Const_2"
  input: "rnn/BasicLSTMCellZeroState/concat_1/axis"
  attr {
    key: "N"
    value {
      i: 2
    }
  }
  attr {
    key: "T"
    value {
      type: DT_INT32
    }
  }
  attr {
    key: "Tidx"
    value {
      type: DT_INT32
    }
  }
}
node {
  name: "rnn/BasicLSTMCellZeroState/zeros_1/Const"
  op: "Const"
  attr {
    key: "dtype"
    value {
      type: DT_FLOAT
    }
  }
  attr {
    key: "value"
    value {
      tensor {
        dtype: DT_FLOAT
        tensor_shape {
        }
        float_val: 0.0
      }
    }
  }
}
node {
  name: "rnn/BasicLSTMCellZeroState/zeros_1"
  op: "Fill"
  input: "rnn/BasicLSTMCellZeroState/concat_1"
  input: "rnn/BasicLSTMCellZeroState/zeros_1/Const"
  attr {
    key: "T"
    value {
      type: DT_FLOAT
    }
  }
}
node {
  name: "rnn/basic_lstm_cell/kernel"
  op: "Const"
  attr {
    key: "dtype"
    value {
      type: DT_FLOAT
    }
  }
  attr {
    key: "value"
    value {
      tensor {
        dtype: DT_FLOAT
        tensor_shape {
          dim {
            size: 156
          }
          dim {
            size: 512
          }
        }
        tensor_content: "\210w\247=\351\205\246<!\'6=\213x\226\275\257\324\206\275\375\330\317\274,!\335\273\207]P\275`E\210=X=\277;\275\237\024\272h\246\223=@\344&=\024\370\260=\332;*\275\224\003S=1\352\017=\221V\205\275\201\2166\275\303\022Y\275\324\314,\275\004\031\347<\023y\201=\013\206o=3\374\022\275\010\236\267<\363K\205\274!\rU<\260k%\275k3\376<\022D\217\274~5\257=\327\200\212=\226\230\001\275\334,I=\334\331\364\273\n\230\224\275\260\263P\274\370\036G=7\2613=\331\"\200=J\243#<;\300\021=\367\312-=G\030\373;&\317\232\275\216\364w\274\346~\204\275HE\231<\325M\251;\276\025\030\275\\3i\275i\373\r\275\217\265\027<,L\215=\374\222\227\275\263\3064;\020vN=>\323\265=}\037\224=\022c\313\273\237\365\301\275K.\031:\3069\246\275\354\245\231<Z9j\275\205\244\231<\355`=\275\274\026\222=D\337o\274Z:\005=\365\242\261<\n\307\261\275`A\272=v\267\223<\340\357o\275\243L!\274\336M\210=\377\352\n\275=0_\270\227u\233<\006\367\223\275\010q\n:\006c\246\273+{J\275\207\301E\275\200z\234=\027T\227<\215\245`\275\335\342\277=x\'\203=\364\245\216=\025\342\375\274X\014\252\275\236\223\020;\376\n/=w\333~=\355\034\265<c\023\004\275\3446\214\270\370\352n\275\371C\200\275\033o\215=\231\310\032;\331$n\275\033\362p\275B\316\230<!\220\272=W\253$\275\343\003\257\275k\216d=\002\360\202\273\005\356=\275-\336F<W\250\301=\222&\254\275\330\220\301\275_o\023\274\177P\230\275D\271\376<\262\263\237\275\020\236\005=\357Xf\2756\367\033\275c\376\243\275\362\365\237\274\007\332\224=V\022?\274\253^\322\273e\232\317<\373>R\275\346\247\251\275~\305\231=\364j\202\274\016\202\260\275 \232\227\275T5\207\274\354\303\312<X5\341\274\377\234 \2759\233F=\307\005\241\275V\223\255=\030y\302<\366\251\253\275uT\260<a\346\200\274\376\377\004\275\364o\234=\007H\217=\377\276\232=\230@\314\2742\207\276=\177c\253\275_\256\202=\202\373\001=\352\226u\275\017\252]=\362G\246<\216\035\275=\231xp=\251\342K=\274?\334\273\034I\200=\313A\253<\"\347\242=\230\017\263\275N\277v\275\315;\330\274\261\361\010=\310\036\224=\r7h\275\376\241~\275\301\212\301\275\215\225\276=\327\306\347<\177\356\300\275\334\205,\275\260l\220=\233\251@=\317,d\275/\300t\275\327\361]\275\312\247\242\274\2547r\275\260\335\322<\364\324\343;\215\244\260=p\"\251\275K\314\222\275\316;\242=W\261\263=I\211\250\273F\233\014;\363\313O;\n\372Z=\265\221:\275\030g\251\275\n\232O\275\014Z\242=\t\367I\273\376\010|<\207\371\211=i\261\245\275\247\271\037=w\320\352<\201!Z=E\307\252=|\201P\275Z\007\200<KB\254\275\200B\024=,:\260\275\203\267s<\254A\262\275\20209\2752\264\342<3v#<\223\301\237\275\312&\020\275*\344_\275WC\226<\000\257v\275\375Hx\275+y\263\275\262L\356<\305\177\364\274\014\333\000\273\267(j\275\340\267k\275H\265\020=\006\202\251=W\001?<\257\3459\275\377d(=.^\265<\366\014\021=\014\t\245\275\217d\324\271\216\007\254=\221vy<\232\271/=\017\330\252\275\033\333q=V\005j\275\303<7=\035\007b<?\357><^4\013\275\362\'\233=\017\337\264\275\200\007\274\275e\341~<\266\\p=\225\323\000=q\344\221\275\023J\217=\264\265p:2\222\224<\371\350y\275?\355\025=\300_\202\275@\263_\275\216?\216\275\230eX=\014\031\207=\357\307==\221\233\235\275\344\243z=\254\316\250\274\240\345G=\204?U=\262\237\230\275]\\\252=\257\021\213\274\362?\016\275^\215\n=x\361g=8\267\220=l\2440=\365M\201=Kt\222<\242\177\234\2752\320\024;\007\353\206=\367\317\237\275\370{\206=\223j\265\275\321\216\255\274\036AR=\265~\250=\205\315\211=\013\252c=\200\231\327\2735\250\t\2755\266\341\274\352\327_\275QN\270\275W\226w\274x=\267\2756\013=\275\356\267\270\274\263\r\352\274\312\257:\275\0069\375<\337\335-\274\275\017\374\274F`\236\275\303\3430\274\323\265\n=\252\353\366<\205\266(=\225m\232\270\022\352\252\274\332\0176=E@\312<\362\263\261\275Ioi\275\267\226\302\274\010\243\205=\\\265\206=\275P@=H29\275\344\233\257=\206\250\267\2755\320\247=v\364\222\275\252\016\205\275\223t\240=\014\314\226<\004qT=\255\325:\275\013R\310\274\355\014\205\275H^\371<-\241i\275\267\350\271\275\214z\223\275p$\350\274G\330\213\275\030\364\371<\207\020/\275\255\240\'=\017\334\001=\'\r>=\001\360?\275\357\037G=h1\201\275\307\214j=R\340s=\"\250\314\274\027}\245\275\324&\000\274\233&P\275\274\330\215\275\t7T=Q\235h<A5\023\275p\212G\275\020\276N\274#k\265\274\305\300\301\274\255\337\250=\036\371\320\274\"y\200\275J\266\227=\033\246\030\275D\021\272\275\003\211]\274\304\345\212=IR \275ck\227\274\316\340\301\275\356\242\232\274\235\303\315\274\006\317j\274\030\316\257=6q\022\275\270\227\035=\364u\027<\271F\275=\273\271\321\274\373J\205=\371\004\346\274\211=l\274\036hP=\241\374\263=\0347\202\275\340VS\275\230\3442=,\300\361<\340+\215\275\231a\264=H\266\275\275\006<\270\275\002\341\256=l\243\202\275\026\311\231=xc\017=\324.\215\272j@\'=\221\361\354<s\307\267;\0378\001=\256\201\304\274\370\256\242=\037\303L=\033\363&=z()\275\273_m=\245\237K<\024\355\233\275VVC\275\222\352\000=;\214\007<\250\354\223<[H\031=\365\267\206={\256f\275$\366\021\275F=\277\275\2536r\275\304\346\265\275\230\003t\275NG\031\275\220j\\\275\245\351\205\275\356\212\373<<\260\270\274\225k\307\274\004^\274\275\244\211\277\275\301\325\235=\321H\337;\037\321\244=\\\273%=\310\010\246\273Z\\\330\274\244\271u\275\366L!\275\364Zo\272p\311v<x\252y\275\273\017\251\275\312[0\275|\025`\275\272\010\224\274m\377\231=E\321@;\325i\231\274\022\366\235\274-A\213\275\222\306\310<!5\304\274Se\302<\n\233\037=\256\337\243\275\210\222d=\010\030\211<Fo\301;?-\257=\n&\t=2\374\315\274?\214X=VK\217;\250k!=\267\020?=\213^H\274t\t\236\275\363S\276<\250* =&\014\200=\204\272\212\275\252\365\203\275E\341]=\377\373\226\275\024Y\210\275\374\255\224\275\232\267\370\274)D=<<\307\251\275\320\201\024\274\224\300l=r\331\217\275M\325\263=C\323W\275\260V3\2752o\254\275l\037M<\035\215|=\0100\263=\010\336\260=\263H\201=ki\006\275\3138\264\275\332G\203=vB\020=\231\350\232;\350\243e=\2076.\275\357\361\273\275P\207\245=\352\326 \275\252\023`\275\246\244\272=x\254\244\275De?\275\372\362/=\026\267\301\275\325\217\263\275\306[I\275\313\341\232=\351\026\027\275\373\030/<I\035\217\275\326\217e<\037\'\227\275o\225\020\275x\370\002=\240\234k\275q\236<=\020ka\274\000\214u;\014z\320<\213y\013=\204.\234\275\340@\202\275%\226\021\275\246\206\277\275\271X\271=p\227\210\275\267\210\226<bf-=\232_1<x\037\207=\373\341\003\275\240\210+=\243\n\033\275\033\026\270\275\013\343\335;/\322l=g>\306\274\226Q\007=\271F\211\275}\232\261\275J)\240\275\276\315\271\275\243H+\275\253i\274\275!L\276\274\301:\267\275\276\377\313<\235\021\205=!\263\226\275\"\201\207=\007\245\235\275\251Y\021\275\272\327\230=\"\330\224<\363\236\217\275\031\275\006\274\347\024\276=\3130\354<\272\256\254<\006K\007\273\023\010\002\274\t\273\005\275\320\035 \2746;-<`\002\201;\310\"\244\273\024\337%\275M\356\317;g\375f:\276\276\215=5U\304<\326\217{<\225\356%=i\347\372<\210\241\370<Pq\276\275-\233\327\274\253\200\203\275\355\216\252=\263\343K\275\200\274p<\215\204W=\221\305)=\242\233\300=\025\177\"=t]B\2756\034^=\254Q\233\275[|>\274\220\231\343\274\213i\243\275OI_\275\373\262\201\275\203\305a\275W\r =S\322\260=\'\210*=\321U\240=\025Y\207\275\340\013\340<\013\335\270\275*\240\225=\027\207\352\274\351\n\222=t\030\275\275\277\364H\275\n\006\"=PJ\223=\305T\037\274\362\241\330\274\212C\240=\333)w\275\364\252\217\275\260\367\274<\261\370\246\275\005\207K\275\260\274\224\275\377]F\275\262:\027=*\352\010\275\350(\241\275\234\263 =8\022\271=v\231H=?wi:\0317\217\275\022\203\260\2754\032\205\274\350\217\277\275\027\302\002=\202\323r\275\340\017r=\3149\371;\nq\021\2755N\216\274\234\231h\275\216\350\261=\027\270\232\275\257\2151=b\274\206\275\316\333\257;=\013\213=G\277\263\275\207\363\236=\3245\274=\363\'\272\274\225\332\000\274\273N\206=\245\310\223=\335f\321;\221\332\215=Z\376\250=\327(\277=\254@\253\274\253\327\230\275K\020\022<\335\030\307<\307$\252=A\3457;K7\267\2758{\306;\025%\213\275c\330\233\274+\352\343\274M\221(=\022\246\223=\022\356h=qU7\275\020|U=\366\214Y=\243Df\274\341\027\217\275\330K\204=\373\215-=\321\026\t\275\315uM\275L\024k<\177\355}\275\353g\342<x\350_8U^\215\275\230q\024=\222\223\241\275\233\303\245\275D\270\373<o\346\212<a \025=ZB\n<\237^a=Q\244,=5\030A\275\347P\243;pF\177\275\006\353\014=6tD=\250^$=\351\n}=w8\215<\212m\343\274\267\r|<\027(\215\275\274\354\261\275\202\200Z\275\335d\007\274\3277\r<\200\262\237=\220*\r\275\275\'\317\274a\005;\274Tw\230\275O\0255\275\000\ng=\253\234\264=g\260\032<\357\r\220\275\030\025\216=\247\367f\275o\316\027\274\355\004k\275\234=\300=5\026\231\274\017\001\216=\261\r\225=8\317\231=y,\207\275 \224\t\275\234\340\274\2757\371_=+\344\010\275\033E^=o\345\t\275\320\271\253\274s1\211\275u6\035\274j\013&\275\215\273\233=I\205\262\274\231\227\244=\341w\255<>Wl=T<\022=w\002\353<:\r\273\275w\034\367\274u\013\243=h\341\240\275\217\377\306\274\033\225\210=\265.\211\275G\205\256=T\2407=\317\362\236\275\324{\003\275\373\307\"=\025\374\220\275\261\251R=\364\374\255\273\302\371\220\275w*\277<\037\211\210<=\345l\275\235+\271=!Nl\274:\323\240=\362\002\231=`?\321<q\r\220<\316\367\254=#\201P\275},n=\375\351\256=n\312\2379W\250\270=\321O\217\275jD\003\275 B}=pu\014=B\244\274\2755\342\270=\003\023\367<\274?Y\275<\t\314\274\303\231\032\2731\243\t=\321\252\257\272{\335\231\274\370sV=\001u\214\274\n\204h\275(\334P=wG\214\275j\316\203=\027c\202=\262\224\002=T\344\202\275\201D8=\336Dx\273\260\177F\275\221\312\264\275\226\307\225\275\365*\213\275\332\177\030<A\246C<\006X\200\275\'5\214\275\322\267v\275\201a/=\3135\257\275\224E =\333\327a\275\203\264\273\275\n\337\350\274\023\022\277=\021\"\264=\211n\273\275\032\240\210=U*x:\340\275\207\275W#\221\274*\206\035\2756\311n=\277jY\273\246#C\275\373@\016=\354\373\n<4~\204\275%\013\345\274\346\276\263=\272\303\222=7_]\274\247\201\245\275Xe\\= \203\372<N\203\r\274:\340\252=\376\326g\275#\3011\275d\306!=\325\231Z=B#\263\275=\252E=\2646\251=\203\350\274<\210 .\275\204\363\271\274\236\243f=\236.K</\230\204\275\010.\017\275%\374\220\274\244=\222=\3423\264\275\271M\206\273\014\334*=\353\341\331\274#\226\240\275)\237\254=\321\260\257\274\030y\023\272\257\372:\275\207K2<\220\020\'=)\315~=LAF<\3238\317<\345\257\344<%\236\277=\255j\335\274\272\313\263\275\326S\260<\305x\202=\032\205u=\270&\002\275\214\334S=T\252\203\275\372\271\233=5\243t\275M\217\277\274:o\225=\342\372\273\274E\334|\275\032\224\324\273,\222\202=\321\221\221==3\007<\261\267\301\275\364\231\261\275\345\373\263:;h\254\273\037\006\245\275`K\217\274G\300X=\3747\241\274Q0\263=;\303\021\275\r*+=\320\010\005\275[\341\254=%\222\324<\210V\330\274\221\032!=\215\307N\274\366\271\251\275i@x<b\266D\275:=\240\274\233]\234\275-u =\tv\243\275*\331\210\275\307h]\275\033|\373\274\026(\261<.i\204<\240\tX\275\254\341\223<\000\247\267\2745\332\264=\371F\271\275\312\247\227\274\354\371N<\330R%=\021\337\205\274\206,\224<\375\371\013=\244\024$=.\275\260\275\220\245\365;$\226\204\273._\377<2\376\246=4\306\256\275\025\353\035\274\236F\265=|\216\375\274\252\207\225\275\326\210\263<\262\212\177;\n\317\241=}\rs=\274\030/=\r\005\241\275|H\235\275!\027\224=\006\000\224;1W\274\275\020\264\271;\250N!=9\245\243=\327\007i\274\303]\252\274sh\232=W\252\224=\271\230\217\275\317\232\271=\0148\003<\322~\310<\213\020\300=\010\255\212<f0\232\275\002\245\252=\257\337\035\275\215\342\214\274\207Xf\274\2231?\275\321\324>=\304\204\223\275\244\"&\275\\U\037\275Q\213\235\275Q=\202\275\242.\260=\306\372s=\264X\245<\273`\367<\270\307\255=Sj\201<\016K\030=\3101?=\010d\252=\333#\226=\276\034\243=\237\205\333\274\223\256n\275\'\301\225<\022w\215;B{\227\274\003q\367\274<\314\233=\377\332v\275\201\\d\275\264\367D\2758\332g=\255\325\036=\314\345M=\342\356\275\275dGL=\001\021+=\210\317\200=.\256\234\275\261\'V\275\205f\357\274\035\272\212=_\301\275=\2123\236=\375\3305<\215q\374\2746\013)\275\177\341*\275\037\257\022\275\324\314^;Ra)=8+\300\275q@|\275\013\243\242=|\303\273=\353\004>\275\357X\300=\310O\274\275E\314\224=^\324\256\275b\356\007\275\351\025\017:r\237\323\274\014\350\233=\202M\251=\026\321`\275\372\345\267\275Ky\371\274\222e\271=\256/C\275\216\300\016<\2551o=\231\372W=\373EI=\252.\232\275lM\243\274\205\206\273<k\302\231=\304\313\264=\21015\275\341\225\013=S\337\210\275\352#/\275\315 \237;\222\254\313<\331P0;\331\304\030;\345\204\333<\353\\\323\274\273l(\273\374u\207\274\034\332\316<1\210\347\273\335\177$\275\273\254\204\275(\301\345\274\"\264b=\323\342N\275\005\013$\274\037\271i=\"\333\261\275<\006\\=\203R3\275\325\333\030\275I\235\207\275\267\0061\275)\335<<\246\270\215=`u\212<\243\351w=\203\245\013\274N\323\243\275\345\326z\275\304\'\250\275M\325\302\274\\\025U<T\226<\275M\r\374\274\223%\032=\345\274\205=S\232p\275\016\227c\275\252}Z\274\350C\241;\242\034m\275\222\000\353<Ri6<!v\352\2741\374\024=\241d\006=I\021\"\275%+\276\275\365\366\300\275usg\275\252\357.\275\201\352\210\275\244\357\253=\3425\205=c\311d=\025\206@=\253>\317\274\301\377\"=\245\2322=\356OC\2752h\251\275Ju\204\274\265:\202<\240Z\230\275)\202\031;\207\237\032\275.h}\275\213\223V=\271)a\274\026;\250\275\0030^<S|V=\274\000o\275{\243&\275\025\365\214\275E^\275=a\224\210=\023\342S=9\313\343<\034\315\214;\310\004\244\2735be=\206|\237=Y\322\375;\213\317U\275\023\\\346<*\n\232=p\006\273=\352\035\024=*\311\210=\315\352\260=1\262\232=\340\267G;\353]\201=jG\013\275\207\372\204\274\024\330\213=\366\210B\274\3505\243\275\243\354+<\362\265\205=\027\252\036\275\323\024\343<\322\306@=]{\344\274\274S\341<@w\242<h\357\\\275\263\260\"\273\300W;=\334Xl=\301\313\267=\253\216\200\275\003\013G\274\017e\033\275\r\207\225\275K\211\214\275\225]\344\273\255\036T\275\232b\304=\357I\373\274\377\025\031=\254:j\275\240\251\247\275\365\277{<n\256\257\274$\223\373<\3746\265<;\374q=\226\324\301\273\236\\\233;\033\214\235=\253\366f\273\3578\212<}\265\031\275\241\267\232\275\224\255i\275e\311C\275\221\226\324\274\240\022\202\275\3378\272=\214l\202\275\007/\235=\305\312\341\274(P\240=\361\256\247\275\371;r=<%\201\275\227\324\244=\212\300\377<\321\335u\275\373\027\212\275\033w!\274\273\241\240\275!\372A\274\036\002\373\274\342\320J\2753U\221=\210\323-\275\337\310!=\265\010\226;\017\336\250<\3361\230=\246\0101\274\217\346)=\206\260\275=\340\267\200=l\212i\275\205\236\233\275\263B{\274a>\300\275\214\251\237\275\267@\217\275\276\275G\275\030\214\272\274^d<=\244\237\206\275\215\202H\275\003\221\310\274\302Nt=\247~\237=\325\322\207\275\331\365A\275i)\276=]\306\241<\2661I\274\233+\013\274\224\361\024=\233\320\257\275W\301D=S\353u=0\302{\274\253 $\275\222>\025=\312N\267=]qi=~\370T\275{\276\211\275{N\233\275Q1\261\275i(\200<7\256X\273<\2238\275\262\020Q\275Dt\210\275)v\033\275\037\347\310\274E{_\275\234\365\346\274\302\000Y\2752\275\014<e\334j\273\323\240P\275\230\222\010=c\030\247\275\004\266)\274]\203\231\273\003\025\017\275\3017\302\272\376\273\252\274B\035\333\274tg\226;W\030\261=\216\222\214\275M?)=\341\237T\274\227\222u\275\251+\204=\017\035\336<$\262\274<e\205#<\330^\250\275\033\324\357<\370\371h\273;\337\213=dp-\275W\032\377\274\236|\026\274.\262\242=XQ$\275\036\323><L(\223\275,\226\251<g1\230=N*6=klY\275\030\215\230=\307\307\221\275\353\217\234=\243\2351=\306u\252\275\254D \275b\245\213<\200\314\207\274\376\267\216\275\272\246\224\275\321V\273\274=[J\275\202\036k=\260\254]\275w\332\025;\320\371y=\374\3264=\224\277/\273O\031\234\275\362n\270\275\315\372\023=:\340\241<\031\007\255=\351\342R<\3665\000=\306\301\252\275\217U\357\274\365P|<\216\270\211\275\376<\217\274\342\263\205=:\243\241=\003\007\264=\252{\266=\r[\251\274\203i\263\275i\211Z=\2108t<T\223\313<c$\264\275\354+$=\224\254\213\275W@_\274\"^\233<\213\240C=\313N\230=\211\331\013\275P\357\277=\355w\240<T\273f<\337\313\324<\334[P\275\274\350\254=}\370E\275\343^\220<~`g\275\204\316\250\275?\342\267\275\367`\200=\036c\234<\242O\275\275\215\341\225=\202hJ\275\305\303\254\275\204\313R\275S\r\204=>Z\275=\005\244\257\275\337\203>\273\235\267?\275\212\313Z\275I\371\036\275\030\204\270= \240W\274\330\010\234=\234\375,=`\307\345<\224\177\242=\276\355\261\275\370\377\224=\2740\273=\311\331]=\013\3504\275\344Xg\275g\006\212\275O\255\222=\364\240|\274\245\202\360<d\351\231<\331\203\224<\303=\300\275\211\0131\275\241\303A\274(\2360<b\347\250=\017/u=\273\202@\275\220\360=\275\325\366\310<n\027\237\275r\203\262\275\315\027\n\275dZ\245\275\000\'\242\275U\020;\274\355\251\006=3\362\274\275)\336\363<P\257Y=]\334\001\275!\236\311;\024:i<\247~3=\307\326\340\273\357d\356<\360E\024=\037\257*\275x>\216=Z\272\241\274^\314*9\035!\273\275\365d\242=X]\242==\253W\275\336\203\256=V`V<\261\\t=s\214E=\266vm=\344O\366\274\266\251.\275\260\031\255\275\271\244>\275\227\004=\275\220\271\211\275\031\233\025\2752)V\275@\304R\275\006#\037\275g\366i<\355\207\261=\363\327\272=\357$\201\275n9\227<A\304O;\014\264)\275\3253+\275Z\n\301\275\334o\203=]ge\275\302W\212<\177\305\223=$u\313<&\023\213\275\346\320\210<.\314\201=\271o!;h4%<*\260\215\275t\226w\275N\310\221=m\241n<R^\271\274\216\221\264\274\217\014\217=I\222\215=\020 \333;9\t\325\274\252\376\r=\365;\023\275\030\314\252\275%\321a\275\231\212,=hF\320;\370\352=\275m\225G\275\213J\'\275\354k%<\\\236\250=u\305\236=\325\203Q=\250\242_;\034\t\240\274]x\251\275\rli\275\243\300&\275N\014\356\274\216\014\357<\2215\226\275\312~\245\275\346\014\227\275Ry\206=)\205\224\275\231c8;7\210\241\275\334\223\003=X\273\216=0\365O\275\007\245\327\274\\\305\233=}}7\275\302\027\226=\247\344:;\026\205\014=\333h\330\274\361/)\275\222t\277=xt \275B\014\246=\257$\021=\274&\215<z\316\023=\224Sb\275\211\2152=\327\023\314<\266\234\244<\022\242Z\275u\213\245=\2611\242\274\020\340b<_\222b\275\024\342\246=gD\004=\3136f=X\301\274=\017\024\016\275Q\0015\274\246\265\212\274P\016\345\273\001\025\202=eP\252\274\372\3139\275\034t\216=\026\257\214\275;\036\244\274a\335\\=\016r\206\275\370b\223=[\034b=\037\307Y=\222Q\274\275\005\"\247<)U\345\273\222~\320\274\304B\276\275\364\213j=/V\255=\200P\267\275\225PS=\305\005\366<M8]\275X\266\202\275\032\236\177=\246\364\252<m\364J=\236\n\203\275-\271\021=\020#\253;\252\002\206\273\344kw=B2O\275n\2726\275\274\226\034<;7\345<\373\232\225=\001\300b\274\203\032\001\267\014\273\024=\006\376\006=\351\357\203=\006F\276\275\334B\223=\224\373\210\275Z\354T\275\000\300\215\275\223\200\272\275\264\365=\275\3109\251=\226\242|=\006\305q=d\273M=\025\210\231\275\013VD=\274\'\306\274\256}\307<\037EJ=\361\366\233\275\305\216\224<\245\245\225\274\215\335b\275\354\240Y=\343\230\235\275le\254\275\227\265,\275#\323\246\275\207\'-\275\375\203\230\274:\rb=\302-\213<-\377\256\275\024\235E;\2074o=\225\324\202=\036\026\343\274\353\345\204=[V$=\2048\213=\375f\323\274\375g>=\325\276\004<\336\372\210=?\310\243=\311N\257\275U\211\343<<X\210\275\256I\003\275u5\032=\316=+=\314\335\274;\037\237V=\307q\277=f\3066<\200\373\313\274\"~\217=e1\177\275\254\323,=\031\227y\275\311m\323\273;1\264\275\025\241\237=\375\200b\275:\362\027\275G\017\354\274`o\251=\325!\217\275\314\353\251;\257\360\257=f6Q=\254\206\246={\311\266=\302\376c=*\206\366\274j2\306\272\0013%=\313\241]=\2717o\275\361\t\335;\006m\363<\275\033\001\274!H\262\275\300\261\213\275}\177c\275\370=\244\275g\375\253=I\351\212<Zt(\275x\344`=\031\223<\275\000\215\250\275\014\\\266\2738<\250\273\327h\264\275j6\265=?\004\230\275`\276\201\275\362q\205=#\002\233=\300~7\275a~\247=<3\200<\r\254\242=\2058\000=\275\246\227=\367\305\204\274\334\377\205\273\237\275h\272\370N\237\275\016\206\351;\007I\266\275\222\250\250<\260\'~<ZX\254=n\373\235\273l\212\251\274\273\001\242\274r{\025\274LF\001<\277\033\"\275\260W\233\275@\274\241=\303\243\003=\340\244\254\274nN\014\273FN\260=\004^x\275\367\372\206=\373\267\035\275_\331b<\017*\327<s\264\221\275A\251\014=\204q\020\275MV\253=\207\022\216=\'\343\033\275\266U9=C\276\227\274s\341}=\030\177\216\275\030\321\213=h\235\251\275>\234\226=\227w\014\275\302j\024=\325l\261\275\303\014K\275X\371\227\275\311p\205\275\373\220V\275\\5.=D\360,=\257/\021\273u\036\224\275Gl\304\275_\025\363;\340\005\241\275\023\347.<\251J\222=Q\"\021\275\220xm=\377\177\021\275$\213\225\275>\321\237=C\352\024\275\217\024M\275.p\271\275Z\325\241\274\3419Q\275;\305P\274Z\324h=&\301\337<\366\017\024<\301\214\271<\271\221`\275\301y\234=\35018\275\304\0068\2750\224\3029\313:\352<X\242\232\275\363\031\324<zm\271=#\266\254<f\201\302=+\253\224=\357\344\177\275e\343\235\275\365\n\340;\344/\177=\306G`\275\227Q\033\273\"\215\223\273\024\317\301\275m,\010\275\210\337T\272.4\312<{\354\241\275\035\347\273<\362\223\305=\253rw=\374^\031\275\267d\210=P\322\023=nm<=\027\343\232=\243~\001=\207\342\247<\tX\"=T\351\247=\013\221\246;\271H\266\272\356\331X\275\347&X\275\341\347\251=P\324`\275p\336d\275\321Os<>g\000=\323X\253<*\034\273=c\267\357<\3343\t<\335\330\363<z\321y<M;\230\274\247+G\275\177\302)\275\210\306\200\275Ho\006\273~\273\255<\267\233t=w\247\227=\321Z\207\275Ow\215=\250K\244\275u\372X=-\243\207\275;\212\227=2\311\213=\372\220\367\274\315tW=\2451A=;\256u\275^\2627=\323.\246=\206\203\253\275<%\273\275S\211\260=\301\245\265=&\206\215=\315\312\010=(?\207<5#\224\274\033W\333<\277O\215\275O\245\226<,\333\362\274\352\374V<\351g\274\275\311\243\231\275G\347\266=\210XB<\023\205\315\267\000A\247=-\3509\272y\251%<P\276\253=\204+\205\275\255\324\310<\246\373J\275MU\203=\177jY\275\365\316%;\004\017Y\274\207\216\202;<\'%\274\353\371\030\274_\251\200\275\260\264\023\275\037j\206:\327\272\177=Lp\331<\271L\002\275\177e\227\275_\273&=;\335I\273\0011z=\nN\270=#*\333\274\252\251\350<\300\241\240\275E\224\366\272\236\345\354\274\211\317\233\275\340\257\222\275\365\332\200<\2658\262=\376\3318=S\377\000<\377|I=\033f\314<\307\355 <\030\221\256\275\230\221<\275\252>\233=\222\2476; _\221=Z\232\264=\340G\263=\324v\245\275+EJ\275\320-\252=\025\210\214=\032\311\327\274\370\226+<5\325\257\274z\265\333\273\355 \216\274CV\215=xB\217=\272\336w<\347\213$=\372\347\032=CgJ\275$\377\375\274\034\216\301<\3354\233=g\271\254=R\034\002=\304\000\\\275\002\231\264\274.\212\232\275\345{\371;\000.\306:\370\257\245\275\307T\253=\006\261S\275-\r\032<\002\223\036=\232\t\005<is\204\274\332d\027\274\241\027\316;\030\224\260\275(\223\203\275\243\330\355<\024L+\275t\264\246\275L<u=\312\347i=9Le=\0246(\274v\276$=\237\n\351<K(\227\275N\312a\275\007\341\223\275\366\247\256\275E\334\200\275P\026\363<\274M\223=eat\272\014\263\233=\373\306\221\275`\300W=\373J\216\273\001F\217=#\365T\275\323>\020=\206\234U=\266iX=?\234\213\275\261\263~\273W\013\201\275\204M\277\275\350\226\027\274\205(\023=a\274@\275f2\262\275\033Uf=\003$t\275\016]\224\275Ix\272<n\240\257\275 \303\205=\030\024f=\233\325;=\374\0072=\'s\272=\270\224\271<%\336\220=(t\033<\205\346\207\275\007\325\313<w\224\201\275\330\254:\275c`\376<\273\315\242\275P\303\240<\376\245\177=\320o\317\274vGn=g\013)\275\010p\206\275\333\000\212\275\270\014\273=m\316\224\274\311\262\212\275D\332\277;\334R\027\275\325\310Y\274\310\364N=\365h\177\275\351T\315\274\232\007\234=\356|\262\275\tE\263\275\023\257\275=\021{8=\204:\222=\371G\033\275v\337\262=\250lB=\201:\020=\317+\242\274\247\363\264=N\022\216\275L?\r\275pQ\261\275I\260\215;\225\t$=\001\371\260\2756\036\240\273j`\363<\253J\261=\310\327b<8\020W\274P\374\347\274B\022_\275\213\217\265<Z%\325\273\332\344\251\274!\034d\275A\005\025<i\207\310\274\260U\211=\250\013\205\275(B\016\275\023\2372=\025\025\224=\010\327\266\275s\265\341\274\366\357\270=\224\tG=\220\324R\275\030\252\324<M\326\217=\333\216\036<\013\t\222;\337lY<\\\276\002\275\225A\n\275($}:\362\377g\275\0103\213\275qlJ\275\207\230\357<\233\346Q=\225H\036\275\350p\344\274\274\251\202\275N\006\237<\004H\204\275L\256\367<\004]\376\274\003\020\200\275p\021\207=\245~l=M\242\006\275\363\026\362<$`\267=H\333\035=\272\245\275\275\204L\367;\366\t6=\177(\346\274@\276\271\2753\023\216=MF\217\275\027\200\251=\245\325p\275\265\237G\275\243\\:\274U\016E\275\321d\272\275\322\005\227=\302\370\020\275\201\277\213\275\213\256\267\275\010\360\021\275\211\250[\275m3p=I(2\275\"\022\247\275\232\035$\275\372_\272\275\277\243\300=\327LN\275\021E\271=Y\\\002<{\354r;\350\203\265=\334Gi<^\241D\275\233\331\006=\312s]=W\n#\274\361\360\275\275\233\346p\275\2774\240\275\333\270\226=\\k^=\231\360\272\275\256=\272=\333\253\001\275\364\377\241\275\353\211Z=g\\-=K\004#<\020\235Q\275E\n\t;\202\013\365\274\357\375\211\273\344q\313<\235YQ\275\301-0\274\3227$\275\301\231\002=\\\224\300=4B\216\274K$&=w\324d=T\246\356;?\223\253=d\334\232<S\335\215=T\363p\275\010\037\211\275K3\215\275\236\271\373<[$\t\274\2032\304<Iw\205\275\301(\010\275\345M\237=\376\030\350\274\360\247\031=\345b\206=\000\312\237;>\321\234;\244\277\266=\177q\264\274)G\207=\377%\264\275\035h\241=\363\263K=)\363\224<\2166\271\275?\370\241=\334R\266\274\244\035\302\275\2069\216=\330v\244\275\250\304\273<\355\375\255=\017\232\253=4i\247\275 ,\317<y\327\201\275\346\201(=\320\200\207\275^\366\214<\313{#=r\tl;\313F\275\274\222m\005\275\344\213\031=\025\3750=\351\353\014:\221\343I<3\227\271<\2251\323\274\343=\334<\357s\377\274\250\315\257\275\033\0041\275\261\244\253\275\2043\000<\223\r\202=l\206\222\275\251}\213;\276\037#=\351Ur=\236#R\274=\271\245\274*s\2279Z@Q<\365}\r\274M-\276=\005\324N\275Z\324f\275T`\002=\322\321q<\326\214\220;P}\301\274\271\0028\275\320\365\217;\343\337\244=\355\035\314=\007j\225=827=\301\305\236\275<\361W\275\225\017d=\223k\205\275E\364<\274\223\244\315\274F\026@\275\027\037\002\274\027@\204\274\2258\224=o\227\377;\277S8\274\301\217o=\003\216\321=&\210=\275.N\251=\372\225\373\273\203\355\367<\266\237\236\2744\351\001\276\371\247\241\275\300/Q=*Z\276;\"\2369\275\257\005\251=W\242\224\275a\352\324\275T t\275\300\017E\2741\241c\275\365\036L=oZ^=.\343t=\245\264\315\274\202\273\201\275\241\321p= |l=\273\313\035\275wgi9\333Oy=\0342\212=7\017\215<kn\254=\276\006_\274\035U\214\275j)%=\2722T=E\270\036\275\221\216\223<\337\344\230=\3740V=H{I\2756\325i=\326\325\230=\310\036\206=\231\376_\275\272\213\277\275\323k\202=\027n\317\275HM\204\275\351]\216\274po8;\\\372G=\204\331\210<o7S=\347Nr=v\005\037\275^0\031\275\371\352\245\274\325\371\323\275\354\032;=\001=8=\350C\211=t\255\207\275\242<\222<S\374\031\275\2453\255<\260\244,\275JK\022=\251\233\252=\213{\322\274\313\025\217=\330\335\316=(\215\202=\320-\300<\014\223\007\275\345\375~=\244\201b\274\362\024\334\274\357\345\255:?+\223\275\217@y:\036\010r\275B\234\272\275\370!\t\275\3626J=\242\204k=\274\017/=\017%O<\010\331\331\275\3301\317\274W\375\251\275$\314\226=\204\202>\275S\366c\275\246v\250\275]\214\251=\242\027A;\3373\220\275\262\217\201;\331\257\023\274(@\317\27314\310\274\212{-\275\326\363T\2754>\273=\232\213\214=\004\344\034=\311\2111\275-\225\304\274\0024\272=@A\013=\246Z\270\274\373Z\231\275j\362o<\255\364\007\275\336\353\222=w\'\220\275a?<\275k3\230\275\376$n=\264\003^=U\255\342<\341\270\220\275\252\007\252\275\013Y\225=\234\002\033\275\214j\006\275\020\370-\275\320\330:=M\322|\275&i\026\275\316\034\036=u\336\337;sn\321<\335\003\177\275\240(\257\274\341I\236\275a\023\225\275\267\314+=x\372\332\274>h\207\273W\026\205<\211\220\210\275K\236\245=i\341\276=\334\215\016<\312\224\203<\021#\r\275\346G\251\275\014\231x=>\374D\275A\314:\275+\034L=\204O\037\275(Xb\273\255`\247\272T>$\275#\250\271\275p\021&\275\312j\310<p#R=\2067]=\031W1\275\311\303\213<\246\262\270\275^\354\257\275\213\242\214=\223,c=\222>\301=?\010\214=\2240x<\205\300\223=n=\220=\344W\221<s\267\224\275\241\255m\274p-(\275,\352\205\2759/,\275?E\222\273|\374\222=\240+\225\275\261\013\006\275iC\261=|\235+=54\221\274[\377b\2752 \227<\",\001\275\224\2315=\001\'\244\271i\245\253==\205\245<\312v\006\275z\322\257=\342\302\007\275\037\211\271\275(;\335<\206\324\230\274\224\205\213=\017\001H\275\273[\260=X\364\226\275\023\310\210=\024c\263\275\264\314\255=\032\214\214=\350\341\257=;\377\n\274\205\261\230=\025\224\017\275\275$\325\274~\271r=\204wu\275\275\325\363\274\302\322\240=js\300\275/\352a=\r[\216\273\242\306\303\2747M\240\275\356\276\261\275b\003`\275/@b\275I\262\227;\342\365o<\374\355\214\275\260\371F=w?\257\273\355\326\203\275=?\220\275\223K\270\275\353\246\241<\036\233{<\250\247\250=\234\206\266\275j\334X\275+\002\177=\341\t\251\274\314k\202=\376J*\275H\323\266\274M\355\t\275\373w\236\275\277\362\237\275\277\013\214=e,\t\275\254\341y<\214d\033=\320\240\255\275\264\234\226<+\370\303=C\001b=J\033\274=\363\014\261\275R\250\271\275\276R\023=0\364<=\254\261\325\274\334\006m=\337P\272\274\267\206\262\275@(\263=\377\261F=\227P\275<\363\231K\275\320\236\250=(\364\343<t\262\317\2749\261Z=\3779\221\275\364\262\367<y\r\023=-\263\227=\374q\234\2750.\350<\202F\022\275\016\007\222\274\212\223X\275\225HF\275\253M\223\275\223\350y=\3115+\275\221\251L\274\267\026\260\274\260|\240=\300eB\271.\263\213\275-\225\251\275D\247\022\275K\346\243\275M\320\005=\360\323\222\274\224\265H\271\301\016\235:\351{\303\274\236\300\242;+OG\275\360&\202\275\331\030{=\223/2=\222\351\'=\213\312\237\274\202\016\253\273\264[\"\275\037\020\254=\366,z\274\316\265L\275\351\347\300\275c\033D=\350y\255<\311\312g=\2065[=\206\240,=7~Y=\377\242{\275\342]\267=\362\321{\275\224\301\024=\336O/=\034\226H;\310\022\304<%\343\n\275\346\340/=S\3315\274\033\224\311<8=v\275\225~\260\275h\371R\274J\237\257\274\033^\275\275\346\370\'\275\217E\270\275`\202\r\275)\354\230<\313\343K\275\223\033X=K\340e\275p2\240\275~\214z\275\204\\\031=\373\250\220\275\003E\265\275L\225\302<\371X\n\274\342\037s\275\366W\347<X o=\320\264\262<\376\373b=\275\353\211<9\304\203\274[\373Q<\373n\210<\341<=\273\036\343\007\275yG|=\201\016\255=yvl\275\206\312Z\275\303\235V=\272\025\206=Dp\205\274\257\377\276\275d\t\276=,C{\275yd)\275\202\220#\274(09=\351\304K<\020a\0248\277\330\205<Z\225\276\275\005\211\001\275\354i =\253\274\261=\337\375\272=\021n\203\275\372c\210=\324\027\220\274#\007\242\275\247\357\333<\037\'\340\274\302\271\263=\360\304\237\274\033\317\242=\325\006\220\274\250b\257\272k\003\262\274\251W\005\274\014\272v\275e\365w\275\277s\230\275\264\177M=\220\212g\275UJ\227\275nq\013=\246\273\r\275v2\263\275\335\372\307\273!Q\270\275L*\014\275\016\030\360\274c\366\315<\315\003l=6\310\357\274\260\337\264\275\253\034\346;&X\273<\225ia=\200\341\237=\212\3532\275\356I\'=M.c\275Fx\020=FJ\323\274q\300;\274M6\253=\024\222\251:\323\241\025;^\204\210=\234\266\242=\3015\000=\343w <H\220\256\275\2210\223=\215\262C\274\274\334\005\274\203\033\257\27548\273:\321*\3259\005\351\272=_\013\020\275\216\264\200\275p\274\315<\245\240`\275\351\350\231\275U\\@\274\356X\014\275(g!\272k\307|\275_\270L=\\\356\034\275bM\304\274?\227\213<^\327><\334w\257\275\272\0064=A\275l\275b\366\227\275\361E\345\274\355[_\275\344\211\236=\200\334g=\376J\262=\352\215\232\274\350Je=\236&\332<\001\245\026\274\216_~\275\261?\247=\003\017#=\253\245\202=\200\334\265=6\324\225=\"\216\215=\225\323\031\275\314\314\203\275@\231\017\275(\256]=\353\371\003=\037B\004\275)\r\275\275b/7\274\301\257\255=\233\373\220\275\373\302\221=\230\220:=\304\355\226=>[\024\275C\307k<`\232\272=\n\342\255\2741\252\323<\200\035\n=4|<\275R\267O\273h7\337<B\007\272:\2311\315\274N\332\212\275\355&\255=\301:%=i\0179=2d\303=Oag\2755s1=\264t9=\321\276\322\273\213\020?\274\016\244\210\275\010\334\230\275\366\032\363<\305\345\244\275~|\016=\230`E\274\370\326\251=5uu=\240\277\230\274nQ\356=T\000\024=\270\352\321</\222R=\247\330\312<\255\026\265\275t\364\255=\265r\242\275\336\365\270=h+-<\354\024\302\275\037\365\034\274\035@g=\225\035\207\275\345*\026\275\345\302\026\275jAN=\007\271\311=\356I\302;\210\333,\275Q+\020<\377\341\005=\252\221\230\275\211V\337\273\024S\216\275\270\306\237\275\352\027_<\217\355\224=\252\356\261\275\027\202\340<r\250\037=\031 I=\372\316h\275\267\227{\275\25314\275\347T\247=LE\016\275\331\033[\275\240\255\312=FG,\2754yr\275\006\004\220=\024\244&\275\274\021\006<&\343\'\275\331\260\005\2755\032\014=\303\223Q=]\303\364;7T\243\275\214\252\242\274\335pw=\002\203a\275\336 \013=y \304\274Y\304\2719\370\350\220=\367j=\275MY\017=FP\333\274\241<\251\275#\032\036\275\252\313.\274\360\376\237<\014\"t<\014\366\300=\371\264|=\032w4=u\036\206=\rJ\263\275\262:\356\274\202\226\021<_\0211=\024m\213=l\343s\275\262\261\007\275+\223\240\275\032\277\240\275\220\272\234;tL\340<+\375Q\275\204\205\210=\375\274\250\275\236\262{\275Cw]=S,\305\273\n\316\233=\r_\200<\344\377\007\275j\005\200=m\3556=o\331l=\003\004\336\275\230\\u\275@\034@=K(\006<YC\217\275\013L\240\274\275@\300<\324u.\275.\036\340=\270\334\027\274\335\370.\275\350P\226<]\241\230=:h\217=E\201\341\274\353Z\243\273\324\367\211=\376!6\275\017\024\264\275q\304-\274\363\005i\274\233\242\256=\003\203_=\371}\223=\277\014\242=\332E)\2758\305\037\275dj\271\275(\233\211\274h|\027=w,S=\267A!\274\373\r\2008\271\246\204=\346\n\211<\356\'N\274\005x\236\275\3376\201={(\335<\262\306\372\274\3339\007<\306\316S=\025\014\210\275e\204\234\275\022\251\273=\035m\024=S\377\263\275w\347\316=\270\356\034\275\204\0075=\324\0030<\000\\\247\275H`\263\274}\203\205\275a\323\247\275\013\203\246=M\226\374\272\332w\361\274Z\313\362<R\332\010\275\255\344\305\274p\024w=2\352=\274\021\373\365;\361\002R=\266\177\275<\350`\227=5\207\236<\21110;\302\321\266=\275g\212\275\207\200!\274\036\321\031=\224D\261\274\271;\016\275\322_&\275EX\225\274\232\347\220=%B\274=\021\362\214=\277qs\275\231~\200<\3221m=J\240\014\275\364) \275\234\223==G\324\226\275\313x\275\275Z\244\342\274.\013\022\275\355\352\224\275\242^(\275\327\346\177\275P\001\271=\204\310g<\206\213\255\274\325o\255\273\341\271F\274\265t\231\275f\317\246\275\202ig\274R\021\254\275~G$\275\255\323\256;)\213\343;:X\243\275\031\243\274;k\347\216\275n\033\304=-\316\312<l\372\336<\314a\270=,\336\276\275N\016\222=\346\220\270\275\261z\205\273\357|\302\275TS\034=\310m\200\275^H\235\275N1>=p\3214<\326\267M\274X\211\304\274\000\374\213=\244\246\224=5\031W=\032r\376\274\224+4=\246`\332\274y\376\260=\320\202t\275,y\311<\311\312M\275\246\030\246\275\255N\230=\3777\024\2747#x=\\hn=\217\367t;0\317~\275 b\241\275+ \231\275\253\311\255=\263\371&\2751@B\275\207)\223\275\261\331\224\275p\244\265=[\272\023;\304T\277\275\267~\347\273Ql\203=\032L7=\350\264\261\275\"\264~=\303\021\033=?[n\275\004~\017=\337\314\205\275\026)\254\275\201\277\266\275pL\216=-y\272\275\364\256m\275%5\303\273\234\376\026\275C\236\346<52\247=\025\325\201=\262\344)=\353\016;=\007\000\211=L\021|\274\016\030\217\275\tI\000\275%~\235=\000[\243=\0148\224=\032E\370;\336V\022\275s4}\275\223\336\247=/g\014\275\224\200\204\275e\025\273<\2025x=bF\250\275\202\201\262<\021\372\213\2758g1<\320)\242\275%\215^<}\214V\275\340\272\014=\231\353\271\2755;7=vf\265\275\237\2270=\267\253\022=\0270\221=\230\251:\275\313\234\023\274|\241\254=I\030\301\273\233\326O=\243\264(=,\037\272=\355\005\273=\343Z\205=^\216U=H\024\361<\373gM=\0067\277=\231\031[=>\313\277=#\246\033\275Z\\\233=\206.\326\274\003<\236=S=\244=\364\267\266\275\214}\260<\247\220\034=\"\037\231\275\233G\276=\363\204\225\274\205\233}\275\tSu\275\350,\222\2743\316\362<\342\332m=m\335<\275\377\250\256\274S\336\200=7\263\215=\367\317r\275*\342\207\274\350\277\233\275_\305\036=\031\3230\275h\343b=.m\274\273!u\024\275G\021\354<.}\242\275:a\255\275\177\006U=J\236\210=\266Z\226<&\327\224\275\027\367X=Gx\301\275\313\243\213\2753\247\241\275t\212\205\272\024P1=\360V\315<\177\347\217\275g\361\306\274~\007\351\274r5*=\270\331\'\275\330b\342<I\224\240\273\332\352\232\275\000\343i\275\362\325\222\275\225\333\355<\327\370\022\275\332\031\275\275i\202\302\275\306#\017=\343\302\237<D+G<G\301I=@\310\216=\314\021D\275\356\331\026\274`\327\204\275x\212\301=\0303;;x\216`\275@|!\274 \004\377\274\277\232\211\275\323}Z\275>_\240=.#2;\243OW\275v\001\013\275q\033o\274\252\0047<\323\346\t\274%\006r=\310b_=\017\343\364\274\004f\204<\236\277\211=@\023k=|4\226=io]=Bc\326\274\2110\326;\360g\313\274JZJ\275\216\344\246=\307\214z<\201_\260\275\373\350\030=\227\225\"=\321\n\341;Yw\357<\207k\262=Q\373\377< ?\265=(\315\242<g\327e\274\277\277\224\275\027\271m=p\255\257\275G\336`\273\305\"\211=\313`-=\326\376\026=5\266\240;\320c=\275\276\342\022\275\337\224\236<\'u\232=4\221*=\036\023\207=\355Fg<\363>\226<\375?.\274\001,;\275\212\332\247<t\364\243\274\246<\340<\036/\303\275\030\n\010=\213y\\<\245\217\245=\212\nW=c\272\003;\217\033\252=\237\250\211\275\016\262K\275W\241\325\274\321\237\023\275\374<C\275\361\365\013\275\267\352\201\275\216\237\210:bL\215\274\036WD=\377\360[<\266\013H\273\227\013\252=5\001\213\275(\314\036=\253\224Z=\252n\205<\016+ \274K\1776\275\r\353\232\275\207\\k\2753\014B=\352\206\007=Zc\255\275l\r|\2759\007O<h\362\271=\322\207\246\274KA\300=\303;\211=\343\025\224;\032xL\274\356\2042\274_\3305=\223w$<\365\376\247\275!0\213=58\232\274\203H\377<\232wz\275\261\307\260<|\347\227\275\265\233C\275\313~\021<\237\355\274\274ap\313\274\003\320\254=\310\203\206<-\336\205<\363\005\242\274\003\357\256\275\'\266i\274*8\264\275\212\2374;\361\005z\274\353\355\223\275\251\201\222\275\353\346\211=L\022\361=\345\031\237=7\006^=ST\265=\237\322}\275\364\250#=\226\324S<#\377c\272\302\374{=\331^f=\305+\326=\237e\222=\324X\214\275L\350\210\275jv\266=1\034G=\232$\001\275\234\275\t\275/p\037=]\305X=\310\214\215\274\005 \203=}\367O\275\254\037\323\274R\216\326\274\036b\312\274\323q\027\276\233\\\3169\353\004\205=\2022\021\275\316&\221\275\035]\376<\3613!=\342\332\331\274Jj\330=(\347\343<\316\203O=\020m:=\023\240Y\275t\377\004\275hJ\202\275\'\013B=\336\316\353=\321\022=\275\261\230\231\275\204f\254\275Q\222/\275\n\007\324=\324g\r<1\343\273=\271\365y<,\001J=\347\304\243=\361xC\275\322\267\235=\231\245J\275R\323\222\274\250\275\200\275\003\247\002<\354\343\201\274C\001\267=.)*\271\355t\233=NLM=\253e3=\351Nh\275A\230B\273\257\306\030<i\230\237=\374Q\230\274\007\006\321=\003m\340\274B\246C=\270\367\370\274\031(3\272-t\n\275\321\243d=\376\245\203<\321[\270=\216S\310=9\354E\275UB\326\274\245\030\352\273\257\3428\275\024<[\273d\334\370\274-51\275\364\277{\274\n)\344=\257\301\244\275\245\001\227\274\237\3658\274\020B\r\276\232\235\221<u\2473=VR\213\275\222;\311<\377c\316=\014\t\007=1\303\027=\261\206\325=@W\331\275\321\305&\275\036I\"=4.\322\274i\\\235=>P\354\274\013\254\347\273\307\275\000\276\030\243\310<\325\323\237\275\004\202 \275\014\241p<`/\005\275\203\356\003\275\204\"[\275|e`\275\275h\224\275\221\354\336\273\2476\260=w\003\261=\303\244\214=d@P=\216oQ\272_\236\303=b\037\204\275\301ne<\327\267u\274U\312\207=\177\301j\275\027\341\276\274\316\362\177<h\017\265\275g1\242=\3160\266\275\374\0046=inS\275\017\207\211=\331\036I\275\346A\357;\035\216\202<\224\365\242\273\246S\275=r8}=\2745\002<\331\314\300<\023\234\255\275\267u\022\275nb\233\275\365\340\313=\306\206\231=\226B\225<\032\212\346:!Mo=B\354\364\274\212;y=\275\306~\274*\351\223\275\\\367\210=j\027\242=\036\264\306<\313\005\250<V<k\275rD\273:37\234=\221\325\261\274j\311\323\274\257/\222\273\230\302:\275[G\016=Y\261Y\275\304\231;\275*\223\276=w\237\005=\323\211\030=n\3163=\010K\026=\372Xn;\202\305\235=\026\226\371<\'\354\340\273\034\276\264\275\3329\206\274B\343\223\274b\262\340;_\022R\275}\250\002\275\241\323\177=]\263\2229\016\214\241\274q\245Q=@\262Q<\034\364\321\273y\252\224\275\321\036D\274\337W\263\275)\2534=\006\235\215\275q\216\373;\325\201A=\270\242\233\275iXf\275-\263\262\273/qN\274)\212\252=5\333\227=\030\215n=b\250\251=\026\350Y\275}\202\026=\345\307\026=x\274\267<\361\211\224\274\250\331\004\273\270I\266={e\217\273\242\253N=\006\037\212\275\305,\216=\323=\276:\177\324}=\001)T=\301\312.\275\227\301\031\275\003)\210\275=\003\230\275\226\010\027=,\033\363\274\211$\220<F\201\302=!\272\245=\260\006<=\260\244\177=\230-\222\275\307\252[\2750\002\315\274\rp\254\273r\361B=\221\026\r=\222\367\234\275\225\351\200\275\206\335\201\275h\010g=\243\3020=(\362\221=\005\017\255\2745|-=;\334\343<M\353\371<hS\241\275`@\312\275\262\212q<tLU=\215\355W\275r\343=\275\232\222z\274\246\237\230\275\201:\207\274\227\363\030=g\215\2178I)\006\275\366\346F\275\024\244\225\274\344\320\206=\313\\\224\275c\036\016=u\362\312;\361{\370<i\2674\275N\r\272\275#\326\262<\253\037\223\275\351\2365<)\017\200\275\301\241\243=4\276\222\274\021s\030\275\275\r\276=\220\032\252=\325\232\311\273\262\376\211\275\311\320\205=\233\215F\274\302\2477=\375\317\240=Y\025\315\274\030\301\263<:\265\'=\303\233\251=\342\232l\274\373\260\014\275\207\364\322\274P\344\372< &\210=R\2321\274\341\212\256\275\231-\230\275i5\237=e^l\275\032\333+=\245\277\323\2745\330v=\016^\037\274`8t\275S9\253=\302\005f=*\233\010=\231-\001\275i\233Q\274\320}\237=)\254\264<\036\245\236=\001\354\352<(<s\275\357\354W\275\316\366\323\274-\237\265=\204\264W=\256\205\233\275\256\000\024=\035\343\025=S%M\275\324\376\265=\260\000\242=\021\361\304<\3645\233\275\016\313\004;lD2\275hF\036\274C\225\242<\214\276\244<\324\260}=\017\027\310=\313A\352\274\263\342\337\274x?#=\2037N\271\3140\257\273\205\301_=.Y\213\274\311M\276\272\243\201A=C\233\255=\276<\256\275\t\0205\275\326\3118\275\203f\275\2751H\\\274e,\276=a\241\211=\003*p=\363\374O=\221m\223\275\251\010\336\274\367\017\217=\351\021B=\033\274H\275\202M\222=T\247|\275y_&;\243\264L\275U\241~=\355t\257=\370&\n\275\212(n\275\215\272\266\275\224t&;P\020\211=|\347\230\275\200)\300=@\235\374<\315\014\014=:\256\224\274\305\270P\275\3012\231=S*\212=A\267S=T\256\300\274T*\217=\260\216\212=p\242)=8\347\230;\330K\237\275x`N=\336M\210<\214\243K\275\315\331\032\274;\371{=\317\246\006:m\227\367<\227\327\320\274\007\213\264\2751Q\\=\227\252\252=\"\223\222\275?~>\275\336\316<\274!\337\272\275\253\003\265\274\370\346\241=\240\357\255\274e\365\274=V\036\010\275\374\201\236=\237zy\275\306b\020=\025*\215=A\204Y:\342\304\274={\2524\275\257*\206<f\214@\275-\306\212\275\222\306\276\275\0229\305\275%\323\245<n\014\024<\224{\300\275)p;=\242\336j=\307.\234\275![u=\316v\203\275\216\357\033\274\255\302\244=Z\021\357<\213l\332;ujN=\356\217\270=\302\273\024=N\251\016\2752\222\227\275X\367\264\274\376\272:\275\242\373\270\275\030\370\302<\276\314\223\274\320zG\275A\201\265\275\300)<\2750\363\037\275\335\327\361<\310Vx\275.\354\021\275\035\311\350\274\\y`\275\\:a\274\221\352\213\274(\306\206\275\276\312\033\275.cM\2754\353\255\275\0372\006\275\276EY=\'O\001=\201y\005=\'g}\275\351\377X\274i\227\022=\206\201\222\275\004B\301=\236\001\274\275M\000\353<\255\022K=59s\275\3556\271=M#\201\274\237\340\212\2756<\230\274W\334)<\353\0362=\344\r[=@\005\206=\211w\036\274wr\223\274\254\242\036=\000{%=)\254\264\275\200\235F=\00213\274\372\3702\275\366\313\273=\215\222\361\273\250\322o\274\372\017\265\275\3449\335<\275\'\252\275\355\215\266=\370\005x\275\230\347\224<\243\031~=\207\362\256=\033\261)=L\022\210<\311\2618=\254\370#\275\232\327\263\275\312\3478\274\021\032\214\275!\366k=C\351\263\275#\276\207<\036_:=\320\025\236=\270\250\332<\"9\247\275\334\034\252={\036L=>C\210=\275Y6\275\342*\017\275\016\335\312=@U,:\305\206\277=\r\320<=\360\341\033;\274\020\222\275?\274 =&e#\272\177\366x=WUQ=\351@\302<\240\r\313=9\363\264\275dk\370\274V\374\214<\317k\304\274:\021\274\275\311\255\312=\033p\307<\275!T;\206\210\257=*,\022=\210 +=\305a\204\275\034\375\334\273(\256M=\026\370\226\275\206\323!\275\311b\246=sDS=R\020\244=\213\216\253\274\341\010\233=$fm<\263\331\312=X\362%\275\240 \306<\214\256\217=\213\366\n<\267\265c<\336\263\206<v~3=<\340q\275\335\007\363\274%a\207\275\2143\234\275$\264\276\275\206a*<\363\242\204=%8\205\275J\221\251=HE\006>\203I8\275\316\320s\273\350\266\374;J\000\225<\306\203h\275\027\0031\275,|\314=\271\215\310\275\266+\327\275\330\242\331=\332oA\275o\356(=\312\225~=\275\204Z=O$\261\273X\030S\275\266\335\242<\361\022\203\275R&\003=>4L\275\257\272\200\274\311\031!=N\003\274<\253PE\274\313\336\230\275,\345\213\274\274\337f=v\242\264=\340\351\212\273f\305^<\263\255p\275f\373\312\274\212\360\244\275\244\305R=\020F\000\276&\376\223\275\210:\244<\250n\313=\236\005\275<\346\325}\275\nT\210\275\201\325\025\276Q\275\361\274\352Q\257=\nO^<\324f\023;}|\336;\000bV\275\nL\257<L\332\033\275fHr\275\273N\317\275k\266z\275\231\365\271\275\010\023\255\275\235\366\"<\330\223\331;\3162\344\275Z\376\010\275pU\201\275|_\237=\363b\234\2751\374\354\274r\177\225\275\246\202\236=Uu\022=\245\221\371\274\177\027\205=\267\315\250\275B\226\240\274\033IJ=\000\220\275=\207\035\273=\371}\333=\320\036R\273\333\210\214=3\247\024=\301\035\275=)\316\253\275\371,,=\326\013q=\013\305<\273`\237\'=f\276&\275\344w\212\275\010\224\325\274_\361\205\275Gn5\275P1d\275*C\206\274\363)\260=Mg\033=\271>\224\275\260\215\302=\305X\017\274\n\246\271\275e\257\260\274\311\372F\274\235\001\214=M\353\351\274\264E\177\275\261\204\002=\276Z\227\272\000\310\230=\037\330(\275\346\021H;2!\025=\t\300\206=\305\344\000;\364\206\003;dI\267\275\020\216\271=\215R\237\274f\020,\275G\003\021<i\251I=\r\001\301\274.\034\222\275B\373\274\274F\014\305=\\w\262=E\220`\273\260\356\237=\335\276\256\275>\241\277\275\333\254\216=m\310\247\274?=6=\3039m\275\324\366m<py6<\2402\311\275\314\357\356<\301t\274\275\353\242\262\275\206\204\023<\342\256\212\275\037a\257\275\337\027\016\275\204\345f<\2673\307\274\365+\242=\035\347M=\310@w=\222\2611\275V\022\263=\372~\202\2758\"\177=q\275\027\275\307xr=\032`\034\274Rp\333:\271\004\260\275\010<\227\273\262\326\257\274\232\265\245<\0352#\275\364\322\271\275\271a}<@\366\220\275Bfl\275\241\333A<\212\341h\275\2258\246\275\"[\215\275Kb\266=\321 \273\273\3679&=\033\366\222=\232\256>\274\306e\026\275C\255\t=\203=J=\345\203\251\274f\267\003=q]\261\274!\300\267\274\225P\267\273\330o\361<\322\320\223\275\232\270\027\274\\<\231\275Dl\370\274kr\240<Vr{\275\034\265\204=\320q\254=\235^\245<,$`=\233\017\241\275\003W\202=\277}|=\332\227\276\275\t\265\237\275\354\017\310<\306\301\253=\353\233\242=\r\242\2267\010\307g=<\264\252\275\032}\235\275\210g|\274\333U\230=\310\352D\275\3266\304\275\036\350V=V\200e=\255\315\222\274\346\235\250<\210Z\177\275\276\352x\275\357\013q\275{9\225=\255#\033;|J9=\265\301\240=\304\312\227\275\262X\201<m\335f\275\017\031M=\304\356\243\275m\002\007\274\340\006\241=q]m\273l\266\252\275\222\270\237=\272\320\327=E\263\241\275\022\323i=\304\362/\273f0M\274\226\027\265=\307\230\276\274\037\363_=\372\036\363\274\013\003\371<\247S-<\243\220;::V\242\2756\r\375\274<\267\266\275L\311\234<\213h\210=\212\006\033=o\270!\275(#0\275\311 \233=y(U\275+\024%==}\021\275L\202\231\275\336\371\270\274\343\205E\275\212\330C=\201L\272=X\031\215<\356\021\204=oB\032\275}2\224\275M^\301=\322\267)\273y\211a=W0\003=\336\376z=1\301H=\264s\272\275x\r\203\275\341\321\210=\3733\n=\241\253O\275iq\276=!`\317<\362\366\256<y\312Z=i\033>=\240A\313<\352\231\311=\036\353\037=\3548\274\275\274\225\272\275\213\033\274=\314[\221\275\266P\026\274\377\030{\275Z\274h=\"\202\241\275\315\214K=){\230\274\016 u=\027v~=\276\343\244=\037&\006\275L\376\240<\225_$\273:\206\366;t*\271=\013\223k\274m\224O=\356\"\253\275\361\220\204\274\2700X;\274\206\243\274\336\005\242;\317r\024=\313\270@\275\0231\245=-\223\303\273\\\243\274==\313\243\271\227\325K\275=\250R\275\342\300r=L\0023=\251\315a=\014+b=y2\220;u\030\214<\251G\216\274\260\352y<\247\235h=\003\022\010=X\252\233=_\036\213\275\357M\223\272\016\247\300\274)\032\205\275\245&\r=\353\321w\274\207\344\235=\t\360\276\274\304\312\227;\027{\306\275\256K\235<\254\331\203=\221\021R=\305\343H=\331\314\200=\267\205W= \255!=+p\223<\363hq\275\204)\226\274 \215\341<\372\316U=\367*\026=5\034\216\275\367\257\235=\371\343e\275`d\264=\301\n\311\273\236\3014\274\304@`=ZOH<q\367c\275k\"\034\275\240\235\236\275\213\300\n=\213\\~=V\364n\275\211]0\275&\267\260={C\'\275C\025&\275\\-\035\275\033\374\357<\3015#=|\022\224\274\260Z\213=8\241\215=\350\205\260=!fi\2752g\237=\330\343r=.\257\251\275\027\222B\275\303H\236=j\236V\274\211\243\311=\265\277N<Vh\203=\365\352\264<;\326\321\272\241d\204\275\272\004\022\275\0148N=\322\352f\275\212\007\216\275@b\277\273\205*\243<\332a\300=\303\371\247=\274 \030\275\272\363\260\275X\251\361<\271vt\275?x\227=\037\314k=\017\207H=\260\350{\275\253c\026\275|\253\265\275\026\334\'\273\022\355\244<v\271\211\275/\t\232\275\221\250\202\275g\177^<\0340,<4\032\373<\217\355k=\222\177\224\275\335\247\334<\003\251 =;\306\244\275\001\331\203\275\311\330/=\203\207\036\273\375\014U=\272\370.\275\243\250k\274y\025\314=\212\200$==l\016\275\355\211\273\2756\212\232\275=q\253\274M\'\225\275os\216\275\212\212\200=x\276K=7\304\002\275\252\3222\275Xfn=}\343c\275$*\022=~\355\215\275\316&\311\273\030\354\037<Pw]\275d\212\244\274E\013\241=!v\272;\033<\217\2752\254\243=\2301\2649}\210\272=\236^#=c\336\343<\203\225k\275e\232\252\275\266\333[=A\300\237;\352{6=\3223\250\275cV\320<r.2=\307\216C=\235n_\274m\266\004\275\354e\370<\323\364\272=\333a\372\274,\325\247=\353\200X<\311O\300=\240\\\206=\016\200\340<6\013\240=w1A\274\2776\343\274\350\224\205=$\212\322=.\265\254=\246\277\301;\325\227\270=\316\265\020\274\024AK<L\022\312=Q\377\010<\343l\177\275\374;c\275\373{\242\275h.j=A\276\270;rq\371<.\\\017\274\3143J\275~U\322\275/de\274\024\237\246\275\270\320\005>\235\342\215<s\030\032=\305\255W\275\353\020\341\274\000\352\331=F\234\234<\234\230\005\275\251\264\002;\254\221\020\275[\273\211\275z\341\234\274N\222\252=j\005n\275\364\322i=[\375\030\275\022\3600\275\210!l\275\364\024G\275\"\242r\275\025\273\374=\206\267\201\274s\323\033=\303\017\213=\317\326\215\275q\273\206:\211$\'\274P\253\365\275[r\232=\323\255\242\275\277\3023=9\255\202\274\374\"\225\275*R%\275\350\365\373\275DJ\214<\326\316\233=\350\373\241\273\273Z\013=\312\201\360\273\007Ut=\037;\203\274\353A(=>su\275l\225_=\276\336\254=h~\016=\266\204\262\275\007\305\233\274xR\226\274r\026\000;T\024\007\273\313\243\232=\007-\021\275T\333\037=\314^\035\275\342u\260\275\206K\301<\362$\336=\3019l=\303\254C=\236\244g\275l\272\356<\361\177\333\275!.~\274\031\r\363< \032\303=(\023\226=K\002\210=\022bA=%\377\205\2752\245\205=\224\302\231\275\346\340\000=3Le=;|\253\2744\371\020=C&\345=\236\301[=\022\253f\274\237\302;\275\256\357\315\274\022S\204=4\265\255\275>\374\300\274B\222\215\274D<\205=\360\225k;\307\375\205\275\313C\026=\203\267\364\273\344\212\026>\275#\032\274F\317\263=pO\214\275\313G\343<\372\343\017\275\203n\302=\367#T=H\343\220\275\003w\233=\003\320@=_\233z\2757\031*\274\274%\333\274\255\'\277=\340\344\263\275Du\211=+J\237\275T\226\203\275B\345\336\274!\010\224\275@\252\340\274\255Q\307<\210\204N\275 \236L=\251\251\242=n\322&=\247\374\232\2756\223v\275\240\2432\274\030\350\376<`\314\227\275F#\014\275,\223\203=q\334\274=^\313\245\2757w\262=\262\220\253=3\014\354\274a\330\273=\226\204\231=Ck\007;@\335\007\275\362X\271=\323\323\307<\031\352\"\275W\307n\275\221\371\267=\341\257\220\275v\325M\275\374\205\362\274=j\200=f\210\232<\263w\263\274\250C\345\2743\271\005=Y\201J=\',\345<\320V\207\273\375\244\260=:\246\276\274\212\364\316=*\246%\275\332\310\276\2736d\245\274\342T\177\275\036&b:\200\241\241;F!\225\274\317_\253=\020\264\233;\213\037\215\275\203\026\247=<\245+=\354\236\2238\',z=,\246\021\273t\312\251\275\347\0326\275CG\357;\327@\235\275\353\304\274=\032\274\016\275v(\226=\256\233\223\275\377\341]<\206\217\037\275\032\356\351\274\353\233:\275\0256\241=F\312L\275\024zq\273K\342\204=G\261\230\275\312~\213\274C\002\260<\253\265\r=\022C\310\274\010B\223=\221T\216\275-\305\343\274X\036v\274\365\0212=z\215\276\273\205\211h\274\227\210\210=\305\007\232\275Y\363\275<z\035\227\275\t\244%:\267\025\210\275\250DD<\353\334\212=\372=N\273\260\375o<\r>\273:O\2104=\351\377\254=f\305\270\272_\247\321\274A\331\216=\214\257U=\311\035D<\352I5=\335]\334<\345\340\201\275\\l\032\275K\236\201<\237/&=t\r\345\274\212\304\245\275\002\014\206\275d!\272\275B\233\267\275\356\260\203\275\230\326\203\275lz\213\274\2703\237\275\312\345\000:5\322\261\275>\347^\275\004GH\273\"\332\260=\313\370\217\275R #\273d\365j<\256\363\226\275-!\n=\005^\222\274\257\221\300=\2421n;\313=\030\275\274H3\275*K9=\022P\021\275\326L\274=S\336\302<\245\017\230<\317\330s\274\360$\n\275\3627\253\275\337;\004=\366t\033<\374\3328;\270\025T=\203\010\277\274\3343\210=\224\341u\275\233g\274=M$`\272\324\275z\275\336\376\246:\375\335,\275\004[}=W\244\254\274\257\202{\275\243\'D=\373\005M\274\246\365*\275@\302\337\273\335\256\260\275\317\253\031\275:\245\016=P\321b;\214\325[\272\226h\255\275D\214\221\275\n#\233;I\263\236=8\370\275\275\311?\227\275y{\035\274\355\276n\275(\326E\275\246\234P\275y\266B<\"\323!=}\r\375<\320U\201<\210\366*=>B\275< \276n=:@\227<\030\027.<%\236\216<|\217\036\275\2071\313\272$S\254\275P\235\005<\271l\215\2753vV<\203\250\236\274\024\326d\275\315\022\220=\323l\217\275 \371\352\274;p\031\275jY\370\274\241\253\245<[\031\376;\317 \005\272@\312\206\274\276\2404\275\230\253n=g\r\252\274\367M\007\274M{\206=w7\300=\303\244\211=\2314m=\346\317\237<\005u\240\275\202\274<9\202t\334;\202\351\245\275\005\035?=Q\347\215=\'J2\275\303i\302=y\226\365\274U\247\327\274\213\306\242\275A\314\254\275\370\253E\275s\221\265\275P\"\256;\002v\232\274$:\220=><G=\365\243%\274\326\003\223\275\243:I\275/0/<\303\226l\275\274e\230=R>=\273\311\231\254\275j\237\211\275A\200f\273m\304\205\275\\\350\230=*\277\373\274\037\317\031\274\255\271a\275\362/\210\275k\323\230\2756-\353\274\201U\221;\360_{=\0136\242;p\306\367<\250\021\354\274\023\347\276=\3216\023<4\204\301=~\020{\274\203\276\031=\346f\254<\314\250h\274\236\375\214=LM\257\275\036\214\206\275E6\256<\227\3658=\0005\373<h\376g\275\276\301\276=\026)\244=\265\027\211\275\013\014G=W\223\246=\237y\244=h\261\251\274w\372\256\275_?M=\355\202\307\274\276\177\034\275\342\270\245\275/>\207\274\3564v=\322\201\272\274\331\245m<\215\263X\275\231\210\213\275TP\220=\t\222P\274\256Z\210\275\320\340\211=!=\025\275w\350==\360\n\242\275\304\265\212\275\261uF=s\300\010\2756\'\005=\271t0=\3038\323\273\367\342\230\275\026z!=\345B\037\273\"\270\330\274j\312\200=\021\226\035\275\352\300l=N0E\274\036BP<\"\364\231\275\324^\270\275wP#=\036\032\254=\205\212\\\275\316\373\002=u\305\"=\353* <\010\222\253\275\316\277}\275mHX\2755\205\260\273m\017\326\274\310\371!=\303l\256=u6d\275\352\357\246\275\266z\213=P\325k\274Vw\267=\331]\256\274\r\327\233\275\r\336]\275k\371E=\025\240N\275\t\002\273=\024 \222\275N\233\250=|\322D<\244K$<aA\022\275\r%\215=\300\n\025\275\275?\265\275\366n\343\274\'\201u=(EG=\"\221\234=\024\030E=\241\316\242=d\201\253\275J\3331=\205\324b\2755\325\010=\253c\224\275\354\312\'<\034\345\253=A\376\242=\200\374\333\274*\201\275\275I\007l\275W\345v\275\025mq=&\362\275\274\312\002L=\341\rh\275\005\022/=\244\316\301\272\214ps\275j\035Y\273\3131]\275\307{]\274\342\263\230=(|/\276\207\004a\275\332\245r=Y\373O=\322\355\243=\353.\305<\327\036.=\261^\313<\030U\203\275Wk\326\275~5\301\275\233\000\3059\024!\213\275dl\303:\016\0053\275\261*\341\2722\017f=i\276\021\274\372\302;\275\330\227\322\273\374\353\357\272\317\010\375\273c\034\311=\305\250\310\275C\354\226\275\2637\216=\346k\300;\360\246\226\275~k\217\275\242\267\210\274\003A]\274\247\t\213\275o\260\005>\252?\200\275\350\221k<=\010^=O\253\\\275\215:<<\334x\020\275\310\030\201\275\33501\274so\224=j\366\215\275N\274\241\274\266Bb;\362\273\021\2750O\263\275k\237\302\275:=\030=\247I\001=)\301H\275h\251O\275\213\361\377\274\256J\023>\365\034\013\275JW\024\275D\326\242\275P/\227\274\327*\305<\324\367\303\274\032\342\025\275.\376\037\274+=\363\275\323\3355<\370\222N\275\256p\222=\215\315!\274_\2225;\354Z_=\252\237o\275%\217\014\275k\016\003<N\254O<@Q\232\275\227\205\304\274=y\371;\266q\211=Y\217\374:\354\363\214\275\226x\355<\016_\217<\272\\\215=\313!\202=(4\213=\333O\331\274x\031\274\275(=\215=lw\270\271\350\004\217\275\244\242\260=>\030\255=\347\251\n>[GU\274\367\330\326\275\206\270\231\274\303\003\353\275V$a=~>O\275\347\254\032=7Z\265=T{\246=\357\350j\275fM\364<1\264\"=\316\007\324=\377\242\323<\364K\231\274\236(k\274\316\221\352\274cRk=\214$\267\275\257\215\216\275\t\361\271\275\317DE<\231\270\177;M+5=\005\031\337=\354\206\246=\363\326\030\2758\212$=\271\016\267<\373>\263\274\246\010L=\241\266+>=\005\3229\214\261x\275\242\177\247<\003&\025>\264\364\275\274\215\261\361\274\326\272k\275\212\273\225\275\253\016\207=\206\361\330\274\330\3544=\005\345\211=3\233+\275\350B{=\374\t\225\274\201\317\232=\367^%=\267\204\277\274Y8\242\275\237P\\<\342\357%\274\204\252\332=d\010\243=\252]\204=\201\025\243=\314- <\016!\230=Ug\262\275Z\217\004=\317%\212\275\364\375\217\275\274\275\214\274<AL\275\355\256\243=\322\267\221=\374=\347\274\201\226\306=\3532\201\275\344\343r\273\233\255\n\275M\305\357\274\377?\376<\027\266b<\256\211\232=\017\330\223\275S<\310\274\020Q\226\275\017V\225\274:\207\342\274\017\240\251\275\357q0=\306\250\251=\341u\213=P\0277<\2047u<\0062(\274K\236\021=\215D\226=)\303\237=A\036\365\274\316*F=\336\313\353<#\316\211=B9\237\275,3\247\275\037\376\214=\253!\205=OT\232=\207\267\306=\376\022S=fp\220\275\024\204\244=\263\023\017=<\001\202<Y:Q\274v\253\323=\313\321l=3\031\273\275\r\221\206=\352A\241\275\371|\244=\232\225G\275\273\236\302\274[v\255< \032\246\275\243Y\033=9f\265={\207w\275\371\034\205=\253u9\274\036\247\311=sz\212<\302\2256=a\345I\275\354\203\220\275H\\\231\274\274\205V\274\215+\244\275\311\r\217\275\226a\324=0\345\304\274\314\366\203=\2049\271=C\177\206=X\377\250\274q{\243\275\345\257\343<\344?9=nB\334;\337i\337\274\0039[\275\007\335\222\275<*\253\273\357=\261=\365\260\255<zl\003=&\212\254\273\021\352\262\274\'\302\212\275\004\354\232\274\256]g\275\033\321\373\272\000\356\357;\273 \004=\356\257\245=(s7\274\212{\201\275W\343\317=Q\r\267=\212Y\306\275|\240\274<YrK\275\r\204\n=\270@\237<\377\311\355;\030P\010=\020?\367\274\314\203\233\275\2552~\275\317\301P\275\245T<=\326\246\340<\r\032\203=\361\220\n=\377\262\001=N\3258<R\005\251=,\277\225\275mhc=\312\321\003=7\036\254\275\336\342\313<\371\204q\275\231!\243=x\336@\275\347>v=9n\250=8\331V=\230\257\365\274Q\026M\275\264\3475;\005\362h\275(\026\261\274\371\262\354\274\320\3105\275\262`V\274\027\035[<\200\364\240\275s\"\233=\226\243p=00P\275\366\354l\275\236\351\227=\333o\300\274\213\373\001\274\361\250\3179\202\220e\275$\300\360<k\177\213\275\245\242<\2759\226o=\230\021\301=`g2=*\003\324\274\244D\273=\320\023\026=\217X\025\275\264\'Y\275\005\237\035\275\266\353\n\275\022d\215\275\320H\024=\323\231\362\274\300\257\303=\250\377-\275iS\211<\213!\370<\211U\006\275\245\271\234\275c;\207\275\266\232\202=\311Kh<\362.\030\275\235\257\314\274\333\305\221<\231c\307\275\206\205\225<\351\326\267={r\245=\345 .<\253\267\303<\270\235\271=\212\n\343\274\327#\352<\376\350\001=%\220\353\2748\253\243\275k;\003\275NN\256=\375\360.\275\254\250\222=\205\264 <\016u\006=G\203n<\0200G<\322\241x\275\024\341\202=p\260\027=\244\r\364<DS\254\274_j\235\275\214UG=\230\200\275\273\260Q\243\275\3566\222=t\371\217=\233\305\327<o\024C\275d\311\375<\234(\227\274\355\014\210=\347\225x=|\311\244\275#\230t=\r\025\266\273\273\227\220=\253\216\032=\275\006\277;4\267\260=;|f\275\203\275\325<\264\244\343\274\037\267l<\335\"(\275F#\032=\263sk<2\255\216=\037\300\205<\365\221\r=t\312\260\2741\177t\274.S\037<\325\021\373\274\330\326\263\274B \032=w\033\'=\025\252\205\275\027E\253;~\007\\=0\014\303\275\016\2735\274Qs\236\275\276)\020\274?\030\202\275b 1\275!\320\302=0\230\272<\356\330\365=\377\0006=fK\212=\023\000\262<\357\034\323<\340\205_=\254\2453<\"+_==O,\275\'\326\353\274{>\205=p\371C\273\006\224\232=\017X\216\274\035\206\220=\242u\037\275$\342\275\274\241\251Q=\273\362\256\275J\357\354<\213\346\263=\232{!\275\303q\367<\243\020_<i\310\344<\221sx\275i\357&\274\372\033f\273\355\273\301\275a\367p\275f\326\010\275\304\325\r=\004\2372\275\276\352\304=\031\027v\275\\N\277\274cY\201<b\322M=\024\376f=\364\223\203<\274\005\177\275s~\233\274\350\373\262=\023\007n\275\264\237\252=k\307\314=1\202>\275<6\256\274\246\244\200<\303\031\231\275\336\225\002\275\254\263|=.\235F=\322N[=\"\361\177\274\276\310\255=J\017Z=\033=\r=\343\267\201=\235\177\007\275\243\251><y\271\244\274\341\345\306<x\370\341\272\237f\344\274\037\211\225\275\226IV\275\021+\200=\201\300o9\266\302\241<0k\350\274x\257a\275j\030\326\274J;\223\275\313\346p\275>S\003\275n\t\261<9f\353<\267\032k\275\326\221\250\275\376L\216\275\236\247Z\274\323<)\274\214B9\275\260\316\222\275gm\220=\227\010\000\275\307\256d\275}\265\203=\177\242G<\262\226\323<\351(\330<M\r\310=\026\255K\274T\021\377\273\246\300\215=\223.L=?\221\223=\313J3=F\377>=\311.\313=\00397=\252\363\001>{\345\216\275\253y\224\275\243z\376\274\'@\276=M\307p=\215\002\024\275dz\024=\362E\036;\034\216\356\275,t\024\276\201\367\277<\035\021\314=\nq\001>+\372\331;\350\365K;\265\215\220<\277\221\216=\355\006\364<:\271\264\275I\014\320;\361W\250\275\024\316\017\274PO\034=\n-\030=S\205\232=\266\367n\275}\255\024=\272.\333=\364\362\013\275K$\340=\217\363\204\2747\204\300\275\016\3178\275\362l\313=\030\265>\272.c\305\274eE\203=\2422]\273\320N\326\274\334\243\255;/G\000>)K\022\276\020 \242<\263\314@=\\/\241\273\3007%>Og\222\275,\375_<\253\232\002\274\004\027\215=]\307\234=\240\313\260\275\316;L=A\r\341\274\242n\252\275+\337\253\272\032U\362\274\3071\256=B\264\212<\306\016\262\275\354\365\232=\227{\021>\252I\311=\346\0267\275\344[\217\274\323\3272<\232@\354\2757\215\254\275\246\343\004=\231\327\223=\344\343,\275\3753\251=\362\241\200\275O|\202=\367\246\302<!\270\226=\032R\261=\346\251)=pF9\275(\005|<\313\272\013;\377g\251\275\241\234\t=\007\255\300\275\353.\237\275e\3715=\356\'\336\274\013\325==mI.=6=\305;\351\031\005>;\264\200=\356\325\200=f\2410\275U\206\317\274\260\013&\275x\204\002\276\016\033\323\275j4\202=+(\310<\361&\307\275q\354|=\220L\374<\233\010\363\275}V\343=\316\202\361\274\317\312\231=\341\303\201=\271>^=,\345\316\274@\313\260=b\036\033\275\312\230\266=\027\264\310;x=\030=\202\241\254\275\322\211\357=\250a\247=\222\037\274\275\332\033\243\275\016\t\243\275\233\300\264\274u\253\253\275\370%\021\275\274\007\210\275y\314\332=\270\356\302\275\222^a\275\242\013\333\275N\311\330:$\016\267=h\246\031>\227\356\202<\\\023\002=\357[\264\274o\210\265=4w\205=\367RN=\304\355\335<\260\0320=\010\031\020=\304G\242=\n\034\273\274\006T\302\271o\231\277\2743WB=\320~\264<\221kj=m\031\240\275\004\325\262\2748p\316;\304\010D\275\215K\212=\313\037\001=\324\001\006<kR\210=\007\026\350<\337\246F\274K\010\236\275<D\3249\341\345U\275\277\353\213\275\\q\321=I\376G<\354\266\261=\240\337\266=J\"M\274^I?\275\222\265\333;\311\001\206\274\221+\313\274\344\266H\275rY\301\275\030t\003\275\216b\257\274\236\030\234\275\300\313\264\275\303\246\234=\000J\204\274a\304\266\275\241a\177=\274 \214<\257\321\"\275\"&\355\274F\316\276=SM\272\274\227\233\252=\247\010\037=\342\333\251=Wr\334\274E\270\236=\323\344K\274\270\'\223\275\3250o=\316yy=E\004*\274\371\017\305\274\242$\025\275\362Av\275\232]0=\255\312\256=\000\204l\275~KP=r\004\311\272:1\016\275p\260\210=\"\376\234=O<\300\273\003\321\237=\243\027^<\225}\231=\230}\251\274\206v\261=ud\234=\017\272a\275\001\242K\275\026n\375;5\251\223=\275\241\270\275\264E\270=\224\017\263\275\243\315\245\275\227\326G=]\235\226=\262=\240=\315\005\235<\257\237}\2754\347\255=C\201\313<}\354\257=\362\\&=\315z\352=N\023a\275x\213\207=\237^\236\275}\372)\275\375\363?\274Z\013\216=\2042\371\274\210`\266=;m\027\275z\345\004\274\206L\277=\340\252\311=M\027\274\274Si\227=\356\034\302=\372\225%\275\302c\207\275E\\\306=\0337\237\275\023qi\275\244\rJ=Q\035G=\247\345\263\273\325\362\330=\364\321\017<tl\242=\205\336\241</L\034=\226\016\272;\022e\241\275\253\364\227=\032h\233=\"\227\2179-\342\207\275@&\312=&\365\264=\2013f\275\305\"\247\275|\237\222=\020\177\246<\230\211|=pj\336;\222\246\034\275\226[\005\274\201\'\266=\217\261\201\275\342)\336<\356\354\224\275g\214\325<\340\241\214;7V7=\371Z\246\275\216U\202=~\351i<\024\020\226\274\215\333A\275bdZ;G>\036=U\315y<!\316\213=J\244!\275\177\267\311=0\260(\275\240\361\016\275C]\346<\003&0=\t\342\246=\032\231)=\2024\356<hG==\023\365\237\275\200n\233=\214\206\275=\022\247\267\275@\312\243=@\217\264\274\t\335%=\316h\251=F\337W=\370-\021=\037\375\014=\262\225\313=Mc\262=\207\025\245<@\'\226\275\241*A=\200\375A=L\260\034=\203O\205\275^\374\026=\003\370\273=U\000\207=A\265%=n\340\253=\021KN=\303\255\330\272QA\271\273y\245\204\274D\3461\275\247\223\262=\nm \275O1\265=\t\3343\2751i\255\273\356\037?\275\205\370%\275v\\\346;l\036\211\275\360\252?\275mB\252:\243&\230\275Q\343\330<\270P\270\274\245^\216;\335\377E=\0068X\275\215a\222\273iS\247\274\3517{\275\275\227\303=%\327^\275(\017\027\275\347\274\303\274\203\321\320\274\230.\002\275\t\371\025\275;h\002\275V\030\025\274v?\252<F\302g\2753\337\204\274\236\220\007=\350\241{\275I\245\202\275\377\354\265=\204\002\024\275\027\251Y\274\327\357\201=\271\374\247\275\221\006\300=\0263\220=\024%\304\273`\362\201=\371A\234<\335[\020\274\323L\025\274\037\367\272=\264\255\251\275\355K\245\275\277M\232=\342x\331<T\243=\275d\357P=d\342\255\275\264\261\007=\"\314 =<M+=\302P8=z\236\222\275Vd\210=\341\340\226=\255i\024\275\327\t\206\275\225\265m\2751AT=\300\241\263=\003W\236<\0313\263\275\274F\204<\332I\236;\001\241\253=\205Y:=\306\263h<yV\261\274\353\277\007=$\251\013<\344\005$\275\373\272\207=\367f\033\275\242\321\347\272\336]\004<%8\024\273\344=\225=\346c\233\275is\300=\240\377\252\274+@\314\274\034B\273\274\222\014`\275\230\333%=\224X:\275\035\371S\275!\317\324\274\266\337\207=L\354\004=\031\356A=\250\367\r=\r*J\275q\222\320\274/U\331\273\010\005\210\275\200\303\245\274\234b==\222\023\347<\241\247\233<^:\251=\362\310P=\257m\262<VY\214<mH\006\275\022\031\233=\315\020\006\2753\363\030=`\346\245=\313\246.\275\305\327v\275i\250O\275^\362\363\273\247\347\016\275\r\023D\274\273~\245=\315c\334\274\275\016\210\274\000\324\266\275q\326\024\275\271Nn\275\002G\370<\004a1=\256\353\344\274Q\252\372\274\252\300\205=:G\201\275\023cT=\301\275F\275r\266\206=\022\026\226\275\303O+=\347\001<\275\2131\310\274\371\241|={\027\224=@\177\240\271\2418\026\275\345\356\037\275\2723\225\273\322u\352=3\343\030\275V\327\314=\nDw\274\260\364\241\275\022\003E\275^!\252<\307HA=\314G\036\275%\272\305\273\313\331)\275\203\002\250\275j\022@=\"K\254\275\324\010\363\274\325rM<\236\367\243\275\215\207\267\275\203\374\340\274\370y\202;\006\301\256\275\354\0027=1\314)\275\241\313\200=\265>\272=\335k\t\275\326{n\275\035F\360;\324\000\300=\261>z\274R\361\221\274@V\3409\205\376P\273\242r\214=%s\321<j\244\365<%\265\000\275R3,\275@J\221\275\355\3423\275\037\360o\274\201]#\275\376\320a\275\233c\277\274\347\331u\275\032\235?\275\003\272\342\272\304e?\274\375\237\255\2758vN=\2700\316<.\354y\2753\021\301\275\001\246;<\205Tn\275<a\002\275Z\361\322<\356\365\352=\0225^\275\\\347\241<\270\324\274=G\033\335=\301\256\333=\274\373\331\275\232~(=\356\007B\275\223\021\354<ng\245=\244B\217<\313\341\265\274R\020\001\276\010K\231<Z\322\365\274\036\227\310<\202G\027\275\271\350\320=\300\340\322\275\340&\033=\202\021N\275\001\240\270\274\001\226\">W\301Q<d`\202=-\346\341\274^k\017\275\331\273:\275\224\326\245=\\\034\272\274\261\003\340\275\230iR\275G\270\262\275\212h\014=\316\010\212\274\215\246\236\275\355\322\326\275\347\301Q;\312\002\n=C\333\340=\202\016\200\275\\\005\027=\232\326q=n\321%\275F\002\253\2755\034\001>\227\256z=\203\007\006\274\201\027#\275RhL=\2669$=\320\036\264=\022\016\313=\t)\325;A\321\244=\305\211M<O]>=\237=\307\274H\331\300=KfT<\265@\204\275\301\346\253==\327\232\275.\244B\275\244\0342\275\237U\220\273\303q\024=\002F\325=\300\035a:\251\271\027\274\225\000y\275\376,\355=\3050\335\274\202\207\324\275\364\356\201<V8L=\037)\246\275E\235\221=vZ\201=\305\320+\275Hn~\274\272Xw<\327\252\207\275\267\nU<\005\260\335=\272\312\375=\037\3001\272\315(\022=\tM\231\275l\273\006>\333{q\2750Ma=2\322\022=6\342\251=\302\372\353=%;\213=?(`=\324x\014\275\243\204o\275\317\226\357\275*\334\216\275\252E\003\275P\2105\275\031\036\017\274/@p=ox\371\275gm\261\270\221h(\275\355$\001>li\352\275\006\207\243<\362v\204\275\360X\231=#i\276<\217\000\247=\004\241\241\275\252\241\222=\223LW=\334<\024=\022w\027=<2\231\275\225<>\275\342\217\310\275\303\r\000\275\356b\207\275\374\255\207=\233\377\010\275X\200\231=\'\177\226\273\tW\321<a\336\000\275$I\226\275\241\357\253=\020\307o\275\270\216!\272O\356{=\233:\251\274\363\031\230<7[\243=@\377:\275\205\036\275\275h|\300=\3278\336=+sT\275\337\016\215=~Q[=*\347\032\275D\257q=t&u=k\'H\275\2514x=\352\313\301=\246\251\272\274yFt<S\'W=\323\256/<5\034>\275\224\032\342\274\374\320 \275\316If<.\212\237<\332\273J=\3216\022=\ns\264\275\271]\222=?\303\213:^HE\275\310H\346\273\357\3776;\2761\260<\206\227q\275(\t\350;ii\037=>k\316\274\370Hk=`\272\202;|3X<\317\027\261\275\'\203\272=L\230z=\350\361\234\275\366\005\247<\377\030$=\351\000\252=~\333;=G\234\337\271\230\310v=\225.R\275\312\353#\275\t{\302\275\274\007|\274Q[\225=\313\242i\275\344\033\322\274\330\361\032<\353\351\204<\000g)<\254\226\354:\206\262\016\275\350T\031\2751\032\025;1sG\275\"4==\312z\227<\230,\222=NQ0=\315\212h<W\206\305\274\277C\005\274}\315\256=8\316\224\275\001!\235<b;\016\275\203_}\275G\240)\275x\206\271=`\246\233=W\345\325\274}>\244=W\021\222=4\367\254\275F\255[=\266\223\255<k\373\244\275G\216\t=/\014\216\275[\225N=g\033\217=[\026\217\275(N\264=W8u=\311\212\262\275\264a\017\275s\272\333\274*\010q\275\272\340\004<3\274&\273\202Wa\274\327\343P\2757\215\256\275vk\201=\333\362|=\331\274(=A\020\224\275\004m\210\275z\201#\275y\'\202=N,\275=\261\330\232=+T\276\274\000cA=\344\000\021\2747p\323<\3524\025\275\267E\256\2759\004\310=K\204\214\273ru\231<~|g\275]\331\207=\037\023\242\273$\024\237=\270\001\206\275\206\\\232<\341\316\014=\246q\226=s\005S9\221\373\340\274J\002\261\2753\373\"<\256\307\000>\235\314a=\304r\237\275\313\026\202=\263\304\334=\022Y\370\274\342\234\312<T\272E=\001\2420\275i\234_=M\221\242=c\260\275\274\261~\233\275{\201\360;\014\233\207=\333\342}\275\306\r\223=,\274\277=k5\366\274)3\207\272\337q`<?\n\210\275\254\244@\275\264o\306=2\233\003=\306\370\256=\330pO\275\2538\254\275\325\245\027=9\246F\275\262i\216\2740\376A\275\266o\002<\246!\233<h\2075=\251\265\331\274\272\360\226\275\306u\276\273\313;^=z\220\225\275vF\244\274\303k7\274\260\310\316=\030\232^\274\266\314_\275A\252\325\274-\241\246\275\342\367r\275%\300\242=\253\202\264;|\230\211\275\377\235\257\275\\v\251\275\t\364n\275\262\036\200<\373A1\275b+\260=\243u\252=\213\034\363<\023\215\214\275\321\223\250=\002\222\207=R(\212=\002\276i=\031e0<\211A5=ex\n=\003P\204=\200E\326<\222\2665=\351\226\026=Y\300\244\275\370\306O\275U\232p;\223\351\006\2745<\n=\023\031\235\275ROc=L\372.=\220{\245=\337\035\230\275\330\310\335\274\354\355O=\222\221\373\274\003\305M=\256\030\215=x\242t\2755K\263\275\000\272\222\275\273\244k=\305\357\235\274\270Zi;\347\233?\275\001E\370<{\305\224\275\326\014\027\273O\\~\275>\004\256=\230\333\220=\250V\230\275\267g\211=\354\016\027\273O\240\"\2749\325\334\273\377\274\220\275\001\373\333\274\356\307\'\275;\232\241=\336\014\034\275\202\3666\275D\356\271\273z\'\337\272\213\371\237\274\250\267\243=b\330\266\274\021M\262;\361\236\034=\331!\206=TW;\275jh\203=dw\265\274\361J\275<\200\303\024\275\344\016\226;p\333\264\275\306Ez\275\r^\261<\216Gg=\273\344h=!>\220=\343y\246=\253$\314\275\016\227\214\274\323\225\302\275*^U;t\200E\274\302\343H\275t\241\254;b\364\003=D\347 \274|3V=uX]\274\212\027\271\274\0010\217\275\001\356]\275\021\033p\275>\221g=\277}\237\275\237wh=\214\323V=\002\020\205=#\3425=R\222Z=\256\212\037\275S4d=\225\224\277\274\213\220\314<\226\366$=\334w\200\275\231\371\204=\323\253\213=\016\231\313=\036J\\\273\214\006\234<@\007\007=\036.\200\275\036\227k<\r\372\265\275\244\350m=\362\030\221<\005\202\332=\370\305\271\275+^\000=\273H\t<\022N\256\275\211\020B=f\245>\274\t\345P=\364!f;vvN=SA\203=1\327\000=\t\371\030=\201\277\265<\274aA:(1\006\275,Xe\274\273M|\275\253G\253=\\\343\311=\330\322\225=\272\340\232\275v\242\274\273Q\3745=\365\014\216=\311\010c<&\300\255\275~\220\250\275\271\372\363<V\302z;Sm\023=Bj\204\274\345\372@=\264S]\274\275\233\013\275\326}\005\274\221\245\331<-\017\032\274\'J\000<\177\302\251<u\324\230\2741E\254\275\210\2635<*\214[\275R\227\221=&\333\005\274\213Y\377\273#\271L;)%\014>}\236\244\274\233\234\000=\377t\255\275\267+&=/\376\306\274(\232\361\274\237!~\274\354B\224=3\n\347\275U\364O;Sb\262\274%$\002\275\003v\237\273\224\000\222\274vuu=q\233\221\275>\310\210\275\374\203\213\275\374 \220=\353F\340<\025\304\205=\207\315\n<D\216W\2759\206\007=I\227X<\027[\206\275o\037\016=\242&\331=\230\346\367\275W\344\244<\300{\261\274Nt};\262\233\266<\343\310\3248\227_\031=&/g\275\375\241\017=7\037~\274\356\303\254\275\001\021S=\374]\022>(\003H\275\316\210\327\274\317>\250\274\247G\016\275\266\347\232<a\006p=\212`\303=\256+\231<\225\264\213=\365\2661\275\\Lr\275;\210\221\274\271E$\276\3416\252=\373\371\322<\217\332\022\275\215v\242=9 g\274\036?\264\275/(\330< ((=eo\213=|\315\266\275\225\004\361\274\316P\\\274\341P?\275\264s2\275\334\022\251\274\245\001\204\272\2729\274=\275\365\371<|\037\236=b\317\256<i\'\275=\367\212\024>\033\254\222=\374\260j=-)\256=g\202\204<\203\336\323\275\303\214\330=K^\206<\016\253(\275\362\207.\2756@ <\257\n\362\275\241o\003\275\036Ii<\354\016$=\200\366\220\275\202f:\275\236\207#=\206\370/=\n)\267=\017\020\017\276\3420!\275q\310\261\275G\301\244=f\364\222=\351Dw\275\202d\266\275\350\022\262<h\001d\274\014\n\033;\315#\023=\363\203e=\235\201\245<\311\235\201=\262R\211\273\261C@\275@\256\263=\024\033\251<\240\364\220=\034/\326=\035%\253\275AA\354=\016\033d=\336\025u\274\006{U\275\003\241\364<f\014\006\275\001+~\273\201n\000=\333\2444=\277\257\327=\0169\261=\345a\302\273l\034\356\275\032E\263\275\340\266\202\275$\201\316<\223A\362\274\262\222\030\275\337\322\204;\324\227\222<X\261\246=\323\250\024=\351\202\013\275\242\273\022\2759[\245\275~r\021=\203n-=\347a\214<\035\351k<gG\315\275<I\222=\002\301\002=&\034\206=\335h\325\274\201\377w=\357O\234\273baZ\275\212\224\252\275\3047\333\274\033]\272=\264C\237=\217d&=a\301n<\315\211\237\274ixe=\337\315\232=\367\206\366<\261\301I\275\274\252p<\361\025?<\014\333\027=\307\350k\271\240\310\275=$\014\305\274\210\\7=H\352\261\273\377%\020\275C\352\023\275\017\207\335\274\237\200\263\275\233\261\241=8p\255\274\313\037\202=^\307\005=\"a|=\201\177\022<]\341\201=\365*h=\2177\252\275\004\353N=9\0351\274z\351\330<Oy\200\275\321\361\224=\014\001y=J\201,=\232G?=A\363\352;\356\320\257\275\006U!\275h\361\233=So\033\275i\267\221\275\322\320T\275\332I\276=\276q\375<\314\2324\274X`m=-\344\230=\317Eq\275f\334j:\026\370\306=b\241\002\275\333\371p\275\257\030\021\275\271H\327\274\311 \305\275\267\370\037\275/$N\275\024\022\n\275$}\246=\324O\215=\223\242\252=\361\3229=\312n\305=`}\202=|\322\346\274B\332\216=\224\333\242=a\205\240<\340\253\201:\037\2445\275\202\240\366\274+\231\253\274nJ\272\274\206\242(\275&b_=b\307\200\275\236\322\305\274\372\325:=\233\2219=({\313\273\215\231\250\275\002\232W=\304\3502=\201\361\204={^\257=\326\273G\275\364\264\024\275w\313\217\275\206\236P<\033\272\214=\315\322\245<\206\317N\275\3633&\275l\221\004\275wH\207\274e\335v\275\316\273\316<\365\241\243\273cW\031\275\212*\241;+\232v=m\347\351\274\r\202A\2753\226<=\220\201\264<6\325\274\275\254\371\237\275.\211\311=\007\312\375<\331\314\005\275\020\232\240=\262]\201=1K\202\2758n\341;c\230\345\274\004\206<=\363\356\331<.p\375<\210\315\212\273\364~\303=\002Z3\275\0067\300=F\254_=\344\305\223\274\321/m=\246\301\203=8\222p\275\205\221\206=\366\230\216\275\357~\n\275N\333\336\273\243\213\231=\327\006\231<\003\356\224=\321\205\307=R\000\357=\225\232\320\273\217\223V\275mA\314=7\373\331=\326Rr\275\307u\211\275\310\337\010\272\374\356\034\275{\350\317=\363\230\250=+\003\354;\302z\262<rqo\275\214\336Z;\032VE\275z({=\024G\211=\230U\307\272Q\376\274=\341\201C\275{\345:\275\2308X\272\031\255\250=\343F\237=s\005\275=\\\037|=\346\214\263:\320#w\275\213\214\270\275\006]\332=\340\323\034=.\205u=\217*29\332\227\035=?h>;\353\231\026<\242\326\000=\231\362~\275^Z\314=J3;\275\210d\013=\206\347\373<.\236z=(\370\222=\037\265\001<\275\200\223\274\030\314%\275\365\022\301=p\300\004=_ \246< 7\014=q\377\312=\357\303\251\275V\337\210\275\350FV\275\361O\274=\322\270\262\274\256\001\262=\250M\023\275\227\002r\275jC\213=\253\276\261=z\351\036\274\350V\246\275\243\310\231<\357\302\356=:\364U\275\035\204m\275\202\335\377;CB\200=\213\326\036\275\377ke=LnJ\275QE\264\274l\333\241:\245\227\234=\317\037G=\347HR\274,\217\030=v\355C=\'\205\310\274\034,\321\271\004\345\225=\362q\273=\240\206\204\274B\331\361<\224\026\200\275~z\254=\204\353\007\275jCz\275ag\t<\344\323\241\275o\343>=7t\234\275\036\345\215\275\021\234\353<EnH<\356,\251\275\313\200A=\203{\026<,\251\212=\243\221\246=\253\346\261=\237U\217\275\000\317\230<\365\006$\273\301\276~=\346\240\361<\016\252\254=\277\3250\273V@\235\275\327\321i=t\365\206=\004up\275&/\023=\221\204L\275\263\322u=\004\'(\274\377K\221\275~\267\333=\321\240\\\27593`\275%bS\275\260\245\237\274\213\334\237\275\016x!\275;g\377<h\203D=\0201j\275\203,\203=\205\341\214\275\232<\021=\003\334&\275@\026\022\275\312\273\253\275\356xs;x\227\250=_\223\250=*\202\017\273\233zE\275 \273\026<\3766\017=>Vy=\350\334\242\275\224v\016<\034\313\245\274Tr\265=qC\334=Y\221\254\275\277)\261<7\363\324=\231\275\250\274\177\320\242<\274\312\255\275\021\200\027=\246H\t\274Se\241\275\3473\302\272\317\315w\275*\347\240\274\035t\325\272B\322\214<~\024N\274a\355\215\275\340\305\r\274\332\300\251\274:\265\200\274\010t\352;\201u\206\275N$\372<\214d\000\275\246\250\223<\'\233\243=k\356h\275\244\215n\274\260\\L<\257\213\217\274,C\327<[4\217\275\251\252\203\274\250\232q<[\010\221=\215\325\205\275|\241\322<\237l\210=\rP\245=\334\336\243\275\335R\016\275\336}\023\274\323Q\031=-I8=\ng\305<\236E\267\275\266\376\247=\206\324y=B\316\307<5\251\231;\377=\234<%\355\240<\373\253\262\275\234u\214\275\313\325H=\310\",=E\017\233\275\275Y\224=1-)=\t^\273<}~\205\274l\204\007;\302Q.<\203b\244\275!6\002<\307\334\260=\2774\216=P\352\214\275;Tt=\016%\270\275\366X*<\263\276\216\275\315\376\177\274<\241\000\275\305\245\210=\016\345\007\275\336\321\265\275\360_\202=\336ke\274&\225N=\007>\352\274\346\244\213\275\356\262\371<\317\276\242\275sAq\2741`\001<?\036?\274\263\341\262\275\364\347<\275Q\3417;(A\224\275.\217e<Zm\265=a\205\233\2757\t\'=\337\330\216={\314\022=n\345,