node {
  name: "image"
  op: "Placeholder"
  attr {
    key: "dtype"
    value {
      type: DT_FLOAT
    }
  }
  attr {
    key: "shape"
    value {
      shape {
        dim {
          size: -1
        }
        dim {
          size: 4
        }
        dim {
          size: 4
        }
        dim {
          size: 5
        }
      }
    }
  }
}
node {
  name: "filterW0"
  op: "Const"
  attr {
    key: "dtype"
    value {
      type: DT_FLOAT
    }
  }
  attr {
    key: "value"
    value {
      tensor {
        dtype: DT_FLOAT
        tensor_shape {
          dim {
            size: 7
          }
          dim {
            size: 7
          }
          dim {
            size: 16
          }
          dim {
            size: 5
          }
        }
        tensor_content: "\215\306\206?e\274d\277\013\334\236>\331m\235?\235\027!\277<\266\021?\026\022\316\277\325\003\215?\226\365N\277\350\014\232=9y\224\277\013\232B?\223\026\315\276\313\230\225\277\253\361i\277\377\347\273\276Ku\351?\330K\227\277\364 \004?)\277l\277p\236\276\275\371\034\r\277 \037\236?)=\216\277\216\020n\275E}.?\'\3660?(rE\277\207\264\336\275d\\]?dw\250\277N\306\252>,\327\333\277\260\0320>o\023\205\277\340\207\215?\316w\230\277\034\214\206?\242);>QJ\213?^\3178\277\021D\341\275\350X\310?\263k\265\276X\032\217\277\347\242\260>\202e&?Ee\322\277T\tm?C\004\364\276=f\373>]\341\037\276f\310\274?=\035\337>&\201\014@\357\356U\277\317\366\233\277{\323M?d\274\222?\247\354\201\277\222\263\036\277d\224\362\276\025s]?\237\376\212>\217\320\275>JML\276\032\253J?\370\375\255\276\237\312>>\t\t\306\277-\242\314>!_s?\327\002\220?\377\343]\277\227<\215\277\3425\025@R\013\216?Z\3156?kk\332?\277@\347?a;\030?D\006\313\276\371$\'\300\2377\223\277\217{\231\277m\356\325>e\301h\276d\345\240>\307\353\025\277\231~\317\275\301\270Y\277Eb&\300\273@\234?\304\243\005\300\177HF\276\ni\243\2772w\335\274\354\331\212?X\262\'\277\301\272\353>\342q\014\276X\334?\277e\2500\277\035\351\245\277\006w\"\2762\335\261?,\364f?\325\352\247\277?J\032\276\335\204!\277\373{q\275[\351\207>$/\226>\261g\333>Q^9?\336\341\003>\371\026\267?\347\274/?=\224\014@\321\316\004?ld\032\275\236]\007?$\216^\276\300\214\221?\274\014\027\277z\353\305?\255d&\277w%\204\277 \320I>\374\303/?\234\3425?y\270\306\277Vt\261\277\276\320\245>\267\360O?]\263D>i\214k\276]\345\"\277\256\260\202?[\177\'?\35220\276W%\214?c\336\203?G\247t\277\241\215\233\275V7\276\277\210\227$@\003x\340\277\237\207\220?\256tx?%0\222\276\216\253\020?\323\261K\277l\335\232=p\253\202\277\tc\207?\206\352\240\277vG\327>\353\272$\300I/x?\036\255\206?[\377\'?\024%\245\277\373=$?Ah\317\276\262N\'\277C\323\330>n\250\253\277\032\363r=r\032\013\277\311`t?\352\355\313?c\177\343\276\302\242\254\276\217\260K?\333I\000?\266\310c\276\030p\342?\232\356e\277\2438\352?\231\3654>!\245N?\213\217\251?\255\321\311>\025\347r\276x\314w?\244\001\203\277^\274]\277\357d\312\277\362\260\300\276\343m\024<\277\026\232<\351\374\340?W\313$\277=\327\273>\302Y\">3\016-\277w\212\t?\205\315\231\277\365\212\344\277\304\372v?\214])\277\333h\325\276\343\264y\277z\376\026@\261\201\244>m\320\210?\'\225\261?u\270<\277q\260\345=\356;\010@\2310\302\276Pd\016?S\360\214\277\243{\246\274]\207\227>\032/\313?\277\270\236?\023\340*\277\217\252N?\277\227\330\275\262\020\204\277\363]\347?\346\265\335=\3729\r@\351\014\253?\262J\262?i{\347>F\205\240\275\256P\005@\237W\221\276\202/5\277\334]\337>\027\033\t?\245\007~=\210\261\027\277p\307\362\275Zj\006@C\265\300>G\321\017\277\233 \201\276B`\236\277bg\246\277Y\210\257>\032,\234>\300\321\213\277F\351\217?B\322\005?\370`/\277\220\3722\277Zhb?\002\004E\277V\024\211?\357/\262\276`\263\266>@\303B\277\037\313\366\277\242QX?\250\026\262?\027\201\345>\245\374\260>8d\344>6C\201\277\007\031\000\277+\221\271\275\361\234#\300\032m\020?\376\240T\277\363\310(\277\023\213<\277\002 \031?\241\013^\277;\336\244\276\330\363\243\277\250\247D\277QU^?\337\235|\277\035q\247\277\037jO\276\334\371\207>\367.\237\276\361M\273\277\342\270 \277\033!\027?*\324\320?\362\2065\276\355\262\300\276\024\010\243?m\215C>\366F\231\276\334\304\376\277c^\014?^\033\372>\253\242#\300\233\232!\277\340\313\233?\221<\235?\316\225,\277*\313\357<\036\337\273\276\227\315!?\377\200\014>\351)\223>\210_G>`\255??`\356\274\277m\326\\?\'\000s\276&\362\177\277\212\322\225\277\022.\263\276\207\020\267?\007E\206>\301]\033?\246\001@\277\024YL\277~\276\257\277\264LL\276;\331\370\275x\262@\277Y@s>\267\032\240>\211+\325?\013A\205\277w\237K?>Y\n\277&\240\n\277\265\236\340>Ypw>\327\017{\276\021k)\277\374\270\220\277\243!X\277\265z\020?\r$\272=\356\006T\2776JQ?\310\327\336\277\365*\347\277\376\003\034\277y3\256?\346\"\275\277\240\"#>\350 \207?\365*\274>(\022\205=\374\234\n>\355(\311\277^Ni>\002\027x\277\373\030\237\277.Y\274\277\317!\206\277\216s%?\3033\245\276\260\207\016\277U\304t\277N\223k\276V\226@\277\016\357\371<\275\307\334\277$\340\003\300\347\261K>\260=\013\276j\334&?b\274\212>\253\332\267=\245]\023?\010S\335\276\234h\303=t\315j\273^$(?\310\033$=\371T\022?\366]\340>\004\010\373?\232\037\332>t\020\274\276\313\010,?\340\021\021\277\017[\341>\034\300\216=2\r\254\277\245\006\221\277\2159\265\275OY\266>\257\237\203\275IfP\277\267\343p?\255\254\013\277:\245(\277\255\362\245\277\221\307\220\277\177(\322\277\235$\010\300\207\035\356?\230\364\234?Y\237\205>.\265e\275F\202X>qX_\277\363HK?\311\023\237?n\016\024>\254\271\202>\003\300\236\277\371\016\033@_\346\204;\r\'\200\277\240j\231?\325\335\257\277@\217*\276_\352\357>\353m\336\273\234\377\262\276\017#*>:\231\032@C\357\t\2773\213j?i\222\342\277\326\201\250>O\265\232>\216\004\354<Q\355F?\224\216\212>\203c\230\275\363\356\221\277\214}\240?\377\006\313\277\202[\205?\357\t\033>^na\277\336l\255\276\335\274\331\276-\035\013@\256\016\226>\227\202\017\300\365\014\204\277\302\270\275\275d\337\244=\362\334?\277\rY%\277B,\221\277\217_&\277\372\373(>=8\255\276\327\315i>\003\321\253\2758h\217\276\0175\254?\347UC\276%\212\271>#?V?E\334\205>a\2226=0\223#\300|\022\224\274\370w\327?\224cm\275\225FZ\276\025\222\353\277;b\205=\306\367\342\277\250\201\215\276\204LQ>E\363,?C\224E\277yQ7\276o-4?\222\323\316\276\231\005w\277\313dW?#\025\034@k]\245\276\2461\337\277Y\223\323\275@\216\211\277\301\326\354?\321n\027\277\314%\177?LJ\021\277\212\346\022?\256\001\364\277T\032\237?\266ri>R\377\233>\316\274\226\275\360\301\322?\255k\022?57\004=-\026\216?\357\223h:.\251\230?\337\374\034?U\330\014>-X\031?\005!B\277\227\270\216?\265Z\177?\016C\257\277M\000\242?\315UM<\210\254\265>\263\310\371?\347\272\001\300\372\372\260\277\351\364\304\274\334\310\001@\362^@\277\260\236\025\277\317\310\205>\201^\033?\275]\354\277\006\242(?\324>\025\277\370M\251>Q\'\301\275\254\336\335>NY\303\277\272\354\204\276\311\311\323\277\224\300:\277f)f\277I\002M\277\3773\251\277\263\320\256\2774X\267\276\214J\272>r.\241>PH\267\276]4\205\277\222C\243=F\330X\276\347\375C\277\032\003\324\275Y\300\225>\003\n\340\277\235\244.?\027\330\017?\001Z\216\277\245\'\205=\006\013\222\275;\367\235?|\023\226>\200\240\202\277\231{\263?LF\201\277\343]\024?6\326g>\320\237??+\344\323\274\260&\253\276\217\377\331?&\270\010\277p\345h?\013\323\355\276\013\322K>\3528\222>\373<m>\311\3160\277-\343/\276\204\006\226\276\331\322Z\277\035\004/\2731\022\222\276\370Z$\2775t\204?\330\336\204?\367+U?\243\237\300\275\352d @7\305\036?\016\211\240>.\014\302\277\300a\333>\270\242)?I\033??\343\261\220\277\301\336\026\277<\363\263\276\317\347~=t\262\217>\002B*?\220}->/\302n\276\231\363_\277j&\234?` \276?\370\362K\277UTA\277\336z\264?z&\333\276\236bO\276\252\211\234>\353\313n\276\256;\343?\\M\347\277\323\305-@\355\314,\277_@\373=\334D\005\276\340-\231\2759]\301\277\246_\205?FIv?\034V\000\300\271\033\302\276 \257d?\3727\312\276\374\336\026\275\372\306h\277\\\004\310\277\230\230\346>I\314\'\300\250\352\351\276V~\006\277\223\331\206?\344Zf?\177\"#\277NqM@\206O\260\275\374\252\306?\241{ ?\270\326\030\277\230\312\355?\356p\303>\005\322\240\277#\360%\300\223\272Y?\"\347\214\277%\322\241\277Du\346\277$\235\260\276\203:/?(\334\240?]\n\242\277\027\027\245>:\002\005\277\220\347\017\277c\253t\277\314@8?&J\357>Y\034\361\275\266\200\303\277\006jH>\270A;?f\223`?\004{\206\2766\222&\300;BE>C\231;>\2236\353=\250zT\277)\026\013>\272\251\244\275\222$\220>\255\243\003\277l\307\024\300o\005L>2k%?\315(\230>3\335\247>Eg\037\277\205S{\277.\313\235?D\354\025?9\204\244?\245\307\010\300\367\254\223><\317\001>qK\334\277J%\032>Pz\014@\376\266\244?&\223v\277\357\205.>\032\332V\275\3452\306\276E\334\233\276\260\365\250\275\330\207\221>\201\311:?\000\220\277\277T\243}?\356\004J\277\3614\220\277I\250\241\277\213#)><X\317=\374\240E\277\004X\'\276\001t\260=?\206\376>2,)\277\t8D?u\026\206?\207\t\273?.!\333\276\305\260\022\300\334\340\233>ED\026?\251_\234?:\312\270=\025\222 \275\333\351\325=s5\324=\252S\227?\3343D\277\014th?hL\265?\375E\307?S\370\243?D:\265\276\324\245\216?\331Q\227?\316\272w\275\242\251Y?FJ\202\277\360\0101\277xv\210=\246-/?f\236\000>\030!\302>\237\025+\277\026/%\277\325\020d\275\315z\372=\005i\263\276\217\312\036?\325h+\276+\2618\277\351\335\354>\032\325\326\277\246\2621?\014\213\022\277|\265\300>\310\234[\276f\361e\2771\315\031?\213\225\210\277\ts\241\277C\334\266>\032\032\031@\355\005\300\275\334~\235>\312\200\027?.\343\016?0\017\247\276\267\372\244?\203\022\"\300H\177{\277jw\215?\242\256\337\277]\213h\2779!\201\276\324\365\020\277\215$\235\276\344p$>\223\335\342>\324\243\214\277tyD\2777p\254\2763\265\317\274\3227\"<\0145\255?|\2173\277tf\002?\350\311\r?\334\315\233\277\233\2716?\327!9\2768\337\342\275\224O\276=\276\205\022\277\252\242 ?o\014\332>\367\n&?\024\235\215\277\251\002\325?c:\363>\3715\276?\306\232\030\277I\262\326\276\353%w\277@\313\325\2765\313\203\277Ta3\277\242:\324?A8N>\352uq=V\023\273\277p\335\276\276\354\025\207?\214R\260>0\370\220\277\347\2264>0=\300=U\331\275>\375\014\275?\026\307\312\277\016\242\205\276\262\236\345>\370rc?E\033\016\276\315m%\277 \251\302\276\366\016\202?\243\310\010>\226sR=\363Zo?\002M\037\277a\373M?\350\2017\277]7c\277\306\223\321>;\306\302\277s-L?`:1\276\346\251\037?\274\017f\276\0170\335\277U)\027?\231\210\024\277\274K\272=0\334\225\275L\364\343>8\030&\277\264\232 >\367X\262=S\305\324\276;\322\216?\335<Q\277Kv\356=nm=\277\371\325o?\0224\312?\201\022-?\326\2004?\001t\201\276\305}\336\270el\036\277:5]\277\262.t?\237yq\275/\357\271\277\377?\347>-\326\201\277Tf=>\263W\210?\267\327\347?\177\013e?~\200\007\276\326m\360>h-\016>S8\022?\227l\227>l\225z\277\3429U?\340\261\027\277kX2\275\237\373F\276\263\366\231>tGt\2777{C?\024\274\364\276+\273.?\256\312\230?<\214\372\276\370m\233>\345\223\000\277\303Oo\276t\307\373?L\230\273?\030\324+@9\033\325>b\252<?b\227\267?\227\220\035>\235\303U>\032\223\037\300u\310\262\277\231\221b\276m\"\213\273\261\006j?\347\355\252>\030\342\344>\310\037\203>=\202\307>#&\222\274\207\253\324?\024Y\270>\t\tu?G\330:\276\265\205\036\276f\207\306>K\327\021\277(\310\227\276-\330\205\277M\225\200\277;2\236>\221\003\274\277\371\321\025=<m\374\276D\261\253?,\035\211<\330\026\235?\024u\r?\022V#?/\261\224\276\253\251\216?\026gC?i\236\212>\244\220E?\211@\346\277.\177\363\275\305\317\365\277\263z\355\276u\231M>H(}\277N\312\273?\014f\327\277eM\007\277n\226)?\303l\227>\363\223\254?\274\375d\276J\346\022\276\032H\026\300\035\003\242?!A*?\014v\201?JG\212?4s.>*;\335:w\343\276\276\027+1?1n\211?\205\201\376\276\272]\277?T\016\025?\250Gw?\250\316\211\277\000\t\201>\326\270\202>a\336\330>\372\355\237\276\356\270\367>OJ\202\275\300\032w>I\373t\277\005\353\000\276\313\001\271>c\370L@*M\321\276j{+\277\245$\302?\260s\256>4L\223?\320\321\315\276?\252\354>\212\337\370\276\373\276}?Rvf\276\\\217\236>>a$?5\341\013?7\211>>\317\247\241?w\224G\277\247\264K?pz\202?\004b\021@\361{\275\277o\242>??4\030>\230>\237>\377\017\224\277{\256\305\276\337\235)\300\017\026\351\276\260\177=\277\214\376/@\225\022\210:4\035B\300\214\305\324\276&\374^\277\306vH?\327\307a\277a\341E\277\335#\233?~|\214\277q\247\021\275D\204\241\276a\303:?\006J\201>\213\010\351=\232[\002?P%\233>\312\233\315\2777\005\213>\2732\226?\303{5\277J\343\253\275\'\337k?|o\330\275=\021\242\276\355\333\223\276\213_\234?\215?\220?\320`Z\276\233\252p??\346\233?zL0\277\333\251\023@\225\025\220>t\266U?\371\037H\275K:\211<O\223\205?\005}O\277,\252\301?Z\307\010?p|\020\277\351}\305>\3656f\275\207+-?\213\2549?c.s=\230\025\210\277\220\221\003\277\026R\360>i\251\261\276\334\314%\277\224A\272\277\245l\364>\035\335a\277\250\201\000\300&O\246?.\217`=\027\321*\2776\037\014\277\374>\314=\312ID?\325\313|?YJ\266=\315\335I\277\370f\275?j\336\035\277Z\232\351>\017\343^\276\351\315\354\276\305\n\222\275\320\346$?\353\351\002>\252\"\207>\360\341\211?\031\244\236\277\033\365\037?\363\315\014\277\347|[\275\247\366\225==]\217?0\020\201\277\353\307Q\276\003CD?@\267\223>\223\3406\275A\214\315\276\205\215;?tk\220\277\035\261L\276\307z\224\277\013\233\260?w\357I?\026\374\261\276\372E\234?\211\010\322\277\222\326!?\031,\352>\273ea=r\204\016@\267\t\345\277i\210\277\277a\242U?\351\276\326?ig\253?\304{\301?$h\222>[\377\257\275\301\217\352>\235\223\033\276\010\350\222?\350\242c\277\240T\373\277u\335\277\277\374\032\376>\343\242\314?d\007\024<\360\365\t@\201\030\020@\263\304\000\300\264\374#@\210\272\261\277\014K<?\247\236\311\276\233\262\006?E\370\026\275\013\301_?J\033\371=\3573>?G+\235\276\211F\303>|v\373>\"qt\277>\304\177\277\002\2307?\001\332#=H,\006\300\253\246\261?6\235\257?\315.S?\307A/>pv\t?.\330G\276b\367\000\277\\\324j\277\236}3\277\227$\305\274\201tY?\361v2\276B\263\213\277X{.\277t\221\332?\013\203\200\277Z\266\367<\230\314\307\276W\335\362\2777\205\222?\355W\025\277p\262\031\2775c\226\277k\036\310\277}j\371>\rg\037?\310\200#\276i\370\251?\232\345\240\277Ll\016\277;\317T\277%\247\374\2762=\314?\321\254|\276\323\237\302>\241\377j?\236<\305\276\032\264\'\277\254\345p?-\300\022\277\2164\014@\216\313\236?\200\201B\277u(\317\276u\271J?\234\2613?\317\304\367?\277\202\373\274\354%E?m\203\026?a\310\002?0jj>\257<\263>\345\265\307?\206\256,\277\351J=\276\027\274$?\2739\241\276\027\253\372\277\231Y\206=\312s\023@\335I\227?\005^a\277\213f\206\277\330\000\207\277\010\035|\277;\203\377>\267U(>d.\215\277\334\334\262\277\345\373U<Q\001\355\277\033x_\277\365\341\035\2761E\336>\254$\225?6|\200=\244\202|>.P\251\275K\371\244?\216Z<?\342\025\'\274gF\263\275/G\036\277B8\321\276R\020\010@\237D\t\277\246\263\t?\310\362)\277\3740\332\277\213\267]?\372E\216\277f\230\020>\242#\230?\030\235\242\276\236><\277\303\320V>\022;W\277p2)>\357M\204\277\350\342\030?\225MZ>\323dr>\264%\340?\321\334\201>/\247\251\277<\266\220?\357p|>\220\223\032?\320\360[>\346\034@?\001\232!\277\216u\331\277\267c\255\274w\027\273?g\355\203?&\016#?\227\216-?\225\244\231?\275.\262\277\371\017\036\277j\304\020?\343\335&?\320\024>\277JH\317\277\204\375\221?\357\035\352\276\234b\337?\337\232)\277\257\267r\277\203\350\315\277\333\204\031\277\222\363\\?\247\255\365\277Xc\203\277\205s\300\277\272:\025?a\353Y=\013\226\304?\307>/<\232\352\033>%\3517\2772:\257\2779X\t@3]w?\177(\005\277]\355\321>\205C\030?\375}\034>+I\216>.\"D?~\210\307\276\017\272\226\274\320\026\312\277\233)\035?\213\017\037\277\341\212\"\275\346yb\277\315\305\236\277 \255\004@\025\345\325\276S\336\024>\006#i\27749\326?\336=\227@\247s\227\275F\364\354>\321\036\321\276\335\3624?\n\333\214\276\363x\"\277Z\030V\277\033n\343\276r\243\032?\022\200&\277\301\026\203\277\204\250\207?\254\350\335?\215\302;?\000\310\022\274\253\016\201\277fc1>\306m=?X\024w>9\362q?\277\332\202>A\343\267<\310\264s\277\332\343&\276\216\033\305\276\016\010\227?\r\366\231?\013O\250\2773t\342>\217Uy\276U\227I\274\306\221\260?\020\231\370>C\214\013\2778\r\335\275\255\212\322>\322\373\003\276\013X\207>\355\313\243?\001+%?\235\202\037\276Z\247\177\277-\022\036\277\231\010\001@\236\001\310?\222\257\356?`\357\013\277\023\303a\276\"\231z\2755\026Y?\336-.>\321\021\247\277>\327#?\030\332\271>\362\240\030\277z\216\256?)\301\\\275\026Ap\277\225\375z?\021\227\311\276^WY\277G\017\251?]\252\207?\363;\255\277\036,n>\271^#?\251\217M\277\321\244\031?\216\352\240?:/\230?\253\356\037\277\357.\207?\372K\277<\322\234\211?\331x\204>\003z\327\277$\244\013?N\372J?j\321o\277k\241D>[-\276\277\"\022\213?3.\002?\317H\352\276\373p\313\276jw\266>\340\275\320\277bTB\277\035)m?\265U\016\277\1777\316\276\221K\240>\360R\314>Z\032\230\277\003\3445?,\372\020>\003\250\312\276\322a\322\277\310c|\275\375\231\201\276\354\322\214?W\244\020?(\311M?\3678\265>hqQ?^\212\215>\211\327\'?E\261\335?\240\211.?\362\207D?\307V\344>\372w-?\221%-?ut\245\276r\362E>O\333\202\2763^\365?0G\304>Y\220\221=\220\347\022\277D\266J?\356m\360?\361\350\033?\2304q\277\353wK?\033]\203\2767\372\262=\346\251\010?&]\234?yu\310\276\256[\273\277\323f\311\274\273j\320?\232l\241\277\202vL>\221\r6\277f\377\216>Dg&?\217\017\363\275\375M\016\277M\333G?\271f\024?lM\032\277N\014\242>\356Dg?-\234\301=\324\014\276\276\013i\200\277\345~\252>\033\005\371\276K\340\206>\032Mk\277\000\333\222>4\270\237\277\230\330\313\277y\305x?M\373\026>\357\322\007\277B\271\335\2771,-\277P\257|?\205\210L?\360\305\002\300\235\360\031\277V\242j\277Y\330\217\276nx\365>*^\303>\315--\277\316\243\213?\030\177\324?IQ\226\276\374D\242\277\t&\274>\r\373\214\277\360\346R?/\321e\277\242b\361\276g\257#?\037\361$\2776P\372\276\026\355\300\276Q\351\210\277\373\270\244\277\261N\244?\017\\\036?{\305X\2779(\261?\313\362\232?[H\030\276\221 \210?\237\271\272?1\177\362\276\337\032\264?rI\240?[\247_?\217\267m?\3155\316:[r\272?\001\337\213\276b\213\036>\020\t\211\277\224`\215\275[\321=\277*\020\322\277\226\031,\277\r:\221\277\245~\244?v!\322\276\224\320\005@%\245\347>\263\243,\277w\177Y?\344\032\277\277\026\366\333\276\373i\026\300\001\223\022?\2221=\277`#\260?2\207\034\300\245\"\240?\216`\261?\035\335\224\277\306}\014\276\240\272\216\277\227G\267>M&%\277\250\010a\277\266\033\250>\010\201`\2770Y\336<\023\300\232>\241\3610\277\300\024\236\277\033LD?\r M\300\334\371|\276E\373\372>C\264\232\277\344\305\032\275\021\367\224\275\344\336\353\275\376\030\341\277E)\322\277\241\235\233?\226\300\022?\334d\222?\357\003\212\277\331o\332?&\223\027\275a\362\363\276~\236\342=\351\005\204\277\252\224\013\300<\254q\277\3361\277\275iw\345\276=\323\262?\350\027\234\277\233\325\020?V52\277\263\322\217\277H)/\276\234\275\223?y\264\350<\256\356\301=RR\007\277\241n\005\300\277\331\244?\3378\031\275\320\251\034?{\365\235?Qq\310?\032s(\277\023\351\001@s\3101\277\210jb\277\253\033p\276\016a\337\276\223\363\352\276%\263`\276\317+\344?qF\340?\217\3217?\366\342\376>\002\372\301>\353\276\313\277\341\260\337\277b\007\347\274\357\004A?D\'\200?\317\016O?w\235\010\277p\251h\276\257\341\277>\362\276$<\333\372\235\277\037\212\t\276#\\\202\277\302\332\357?\005\273\327\277kS\206\277\326\361E\277Y&\n?\262\347\225>\353>\025\277\204\265\307\277\242^K\277\002]\374>\215\332\341>\264Y\211?\324\212\014?\343\243\221?\3730G?\321eQ?}\275)>\222\253\246>g]O\276|\223\273?\223_\002>P.W><\324\253\277R\246\342>G\266n?fd\264=V1m?\251\374\232\277z\2360>N\2404\2772\245==\311\010\372>\366ve?\036\005\357>\346O\227\2761b\355>l\274\372\276/\323b\277;\226\374\275J\321\275>\240\255k?\034\370\013?\303\261\026\276\016{A?-S{\277bu\224\277AN\026\277\241\325\242=>\025\027\277\001\034\325>\364D\246\276\211{\327>\036\'l>W? ?\230\224g\276\365k\t\300o(\202?\221\000\205\276bE\362;\272q\250\277\342\264\307>?9\214\2773\205\327?\177\333\335>4\023\276\276\265\344c>l\267\030?\t\010=\277\246\251\231\277\034d\372=\034\030\005>u-\206?Q\210\037=\315\315\271\276g\204\222?fK\227\277{\033\030\275hA-?\260\272\330\2761\343d\277\004\\G\277\030\232\025?V\032\264\276!C\304\277\370_\365\274\021\213\315\276\331X\301\277yM\274=\010\376\220\277H\255\036\277\307\322\314\276\206\265K\2769\247b>\310\336\037\275\201\020\223?Nh\016\275\276\234f>\037\373\016\277\2409D?2!\024\277\034\272\253\277KE\241\276\330\330\230\277T\250\331?(w2\276\270<\270\276\214.\332\276}\347\024?\332VG\277ps\314\277Z\003\036\277?a\301?U\320\250>HJ]\277\302\003\033?pn\010;}\"\361\276\334i\215\277\032\267\233\277z.\250\275v\374\267\277[\216\250\277\231\302\335> \252D\277\363\315\360?\335\206\262\274\001]\206?\277g\306\277\223n\240?Bp\345=\265\212\224\277H\036\314?~\270\245\277\010\362\221?\240\240\231?\211\245\353?\367\377L=\225<<?\350_\003@\002\362\005\276\216\310\254\275\320\357\226\277\372\235)\277\340\n\274\276\036\010=?=\211\234?d:\007\273<\307\230\276\014\265\312\273\216d\205?\372\032\233?\007\375 \277\207\030\324\274\272\310u?\310\020%\277$$\225\277\232E\023?1\177\205?\376.\310\275N0\353>G-\204?\224\317\200?T:\351\277\317\2558\276\363\350\220\276\331\217V\277up\023?\240\366\033\275:p\315?!F)>\232%\267\277t\355\006@\340\007\233>\007?\"\275\365+\307\276y\007\250?\"\325\020\277ag\024?aR\367\276\256\252\253?\237\326_>\253\373)?\344\253\302\277\244Q\247\277\314f\023>\273\372y?\322\2666\277\035\345\234\277\314\325\215\276\256\216%=\345\020\310<\016\216\014@\002\251\370\2763\214P?\006\273P>\317z\226?~5\255\276l\303\327\276\260\322v\277\005\r\031\300d|\205\2775\222k\276\373\337\322>\013\034\034=b\203\274>\354\0036\277fG\021\277\257L=>j\376\343\276\036\367\010@M\242\214\276\274{\332?\312\312\263\277\031\347|>r|\250\277b;\r\300N\276-\277\223.\224\277\320\327$\277%+\345\277\022f\026?\326\240\312\277\236\2610\277\325f\322?\3474t\277\323\370\375?\310\030\341\275\243\263\312<x\204r>0[\"\277\227u\024\277\304\215T?\372\370\314\276\376\273D>u\024??s#\215?\000\221\323\277\014Em?P\025\266\2771\375>\277\217M\t@\005\323\004>}\235\365\276\274u\326?\333i\330>\304\353g>\035\357\330\276\330&F?S\272\250\277:\343+\277\224\2300\275\224\025\322?m\016\262>\266}\311\276\r\365\332\276\n\226%>\203}\013\277\003\301\304\276\004\212\327>_P\017\277\203j\337\277\373\275\304?$\n\337>M\240\233\276n\016\243>?\273\310>\203\350\022?\202?\217\277]!\262\277Y\215\205\277\224\361\241>\246w\302?A0c?\260\024\317\276l\003\204>\233w\361??\355\272>F\373\220\2770k\350\276\010\320\367\276\376\225\234\277\356\304\305>\344\334\214\277=eW?5\252\243?\210\027\n?\235l-\277I\233\037\275\212\032\332?^\'\034?e\013\336>\367\225\010\276d\277A\276\351w\227\276E%\264\277\030\366\204?o4\333?\2414\010@\036\377u\277@<p?jQJ\277\234\240\256?\371+\262\277\264b\256=\242\037&>\302l6?\307WN>\232Y\200>\004\341\177\277\264\220\346? \227\244\277TJ&\277E\271r\277\374\237\315\276\316\271\243>}\240\014?\273u-\277\033\300\360?!bl?H\016\323\277\034\375\342>2ZG\276\367\343\004>\000\315X>\371\267\215>\212\221\373>\245\336\270\277S\312\240?}\260\314>\203\252\177?\316\336\316\277\230N\316?x\3223?\310\035u\277\0222\036\277<\345E\277\266\313:?(\324Q?\334\3277\277B\302f?\372\320\272\277\351\272L\277\247H\321>GS\307:ZY\337\277^\325\304?\033\370A?\227\016b\276\221w\025\277\024\026\014@\'\005\254>\346\321\324\277\034\337\204?\276\266\306\277\\\272\022\275\305\003\371\277\271\304B\277\3544\001\277\340\306\255?,\352\312\276\372t/\276\314{R\277\316\007\322\276\375\"\032\274`@M\277h\354J\276\365<\234?\212W\024\276D\2377\277C?(\2770\276\360>\202;4\277\022\255r\277\257@\346?7Q\237=\277\311\300\277{\226)=\\Ka\276\225)#?.\331J?\243C\020\300\356r\006\277\022p_\277Vl\221\275g\205r\277\232\236\373\275}\201\013\276\251\026\332\276\315\2603>\243+Q\277\250\263\274>_G\327\277\306\303E>D\231)\277\013\233{\277\343\221\252\276G\201\321>\274\367a?z\311\\\275\207\312e\276\326\232\"\276#{\262\276\324\374%\274\267\240\231\276\304\327\230\277\\ _>\010\362\211\277z\223P?\303\0172\277b\207\026@\322\247\316\276\233Zo?l\024\221?\'fl?\236-\212>)\'\354>\0272g>\234\246\241?kL\353\276\314X\017?\367\207\025\2772=\010>\014!\204\2761\034\373>b\026R\277.ED\300\3074\216\276\036_/?\027\377Z\276k\240\216?\203e;\277\372<\004?\356\344\342?{\2078?\310\253\343=\352^*>\335\367?\277\305q*?\000\022B\277\233\277S>\313N-\277\214HR\277a.\034?\253J*?j\334\345>)\353:?\3508\303\277\365\347\357=\203\307\363?\325\332\246\277\355\267\370=\252\275\227?\342\205\226\275\231\365\021\300U\321U?\266\315H?\263_\014@\260.g?\260\354\027\277\360|G?\272d\251?\310\020\020>~\\\230?\332\240S>\331\025D\277i\352??r\2507@\"\221\016?\311\326\334\277-KU\277\322\301[\277\350\363\227\276\234\237\347?ux4\277\345t\230?\316\nn\277H\312\200\277\243|\017\277Up\226\276\377\222\002\300\212\016\372\277\023\337\331\276\363\331\252\276]\265\202?\276\225\272\277-]-\277k\307\t?\231\310\311?\024\270\360\276hC\275\277J\344\262\273\325uz\2779\206\332>,\322\307?,X\277\277t\350&\277T\250h>tI\352?\244&\361\276\332\017\313\275\221\320\030>v\341\224\277\'\220-?\356}\321\277\026\260\303\276\013\342\214<\251\317\231>-\354\334>\021d\341\276\273\360\240\277\240\372\311<\033\025\201\277^M\222\276`\027`<\320\304E?kv~\277\332L\035?/\326;>\210\215\002\277M\303\323>\300\325E?\034\312U?&\000\217>\361?5?X\246O\276\216\027\312?\001\361g>f\360\335>\276r=?w\3116\277r\3032\277P\251\310\277.\027~\277\003\362\242?Z//@e0)?\212\230\372\277\271\212\237\277\'\303\"\277\363\332\320\277}x+\277\307\277Q?\362`\036?\377\365\263?*KS=G\307\000;\311\323{\276\212\377\001\277,\314V\277~#\334\275\020\3617=\236-\216>\371\331m\276Z2R?C\351\021=Ppt?y\336\277\277\336\227-?8\277\265>\373c\341\276\0019\326\277y\222c\277\'\262\270?+\270Y\277\271\302\355\276\362\256\357\277\225\027\211>\017?{\276\031\321;?$\305\005?\316\026\217>\225\204\026\277\373\'\027?S\246\367?f}\357\276?8\201>\342\014\242\277\345p\010\276\267\3546\277GJ]\276\210x\277\277\310F\206?1jc>\310\237\202>US\354\276\362\215\323\276\277r#\277H\204\200\276\016\022P?\371\010\212\276-+c?\010v\237?ZEi\277n^\207\277\003H\343>z\271*>\234]\235\277\027>e?xE\300\277#\035\331\277\224\214\010?\262>r\276\373q\331\277\252uw<0N\252=\010b;\277\035#\315\277\267\272\211\277\253\216C\277\366\227\323\277if\035\277\326\365\336\276L\2236?\351\242&\276\007\'$?\255\302\035\276O\237\226?c\223i\277K\3765?!\353\031@J\270\241?%\3666?Z\006T>\344XQ?\300\236\271>\200\345\365\277@y\276\275i\244\273\276y\177\243?7\232\310\276Y\243\034\277%l\204\277\242h\200\276\353b\035\277\254\024\211\277\270zR?\271;f?\201\200\323>\376\204\031\277\245\357\300>\215\016\343\277\231LA;\010U)\277\216\005\002\277^\352Y\277\007+f\277a\200\362\2775\"\021\277\266\350\302?@\372\364\275\223\217\216>/\027\033\277%e\202?\273\322\270\276\013\271\372\275\347z,\277\000v\345\275\341,(\300\340\201u\277\224\305\017>Am\251?\213\355\254\277A\337\342\275\307\016K\277TnB?\307|\202\276c\333h\277]\364\330\276\\5\246\277\362c[?\2355\217\277<|\"?\nr\376>$\177\243\275v\305t\276\232\235g\2765-\370\275\322b\301\275\254\'\307?$\261\365\275e\016\335\277&\375\013?\264\353\320\276\006A\000\277\226\"\261>\353\301\350\277\020\304\202=\320\"X?\250\3622? \t\371?:s\335>\357\372+>k\005\352?\033\324\332?\201\375\270>\2202r\277x\364\010\277\205\244\364>\\\327w\276\224\025\240?\013\224\004?!\001\006\3003\320:?yl\006=\201\031\026?W\276\355?\304\313\375\276\320\035\353>\016\225\357?\367\201i>\347\010\325?>\204\207\277Q}\221\277\177\350\375=\334\257&\277\203E{?\237_V?DW@\276\333\326\353?\2735h\277\017\351N\277\310\210\236\277\335h]\277\326\\\203\277=\314\340=\0231\035\277!E\243?V\r\026>4\364!\275\304S\256\275\227t\246\277\2525\322\274S\342\366=\357\3528;+z\372>\003;\337\277\231\007\271?\340\344\255\277\034L1?\276\231\256>j\007 @\023\200\373>\303\324\212\2761\223p?\346p\206>\355\003\213>\321D_\277\273\001m\277}/\204\277\371\032S>\327\246\301\276\032\377\026?&5(>\211\243.?\226\244\375?\241)\363>\266\320\n?\332\303\244?\235s\342\277$c\216\277\2107F?w/\213>\016b\016@+Vd\275\027\256\314>+\323\340\276\255.\007?<\2201>Z\'\256?v8\263\276\033+\335?\270\376.?\207\256\240?*I\021\277\362\265\004?\274yY\276\031\225\026\277\325OZ\277\344m\363?\\\252,\277\261\223\274\276\230\317j\276\017y{?\371\230\217\275\025Q\257\275\277\256u=\321E\313\274\'\307\022\277\222\301\342\2763\216z\276\202\200\010?\251\031\231?,k\332=]\245y>\023\327o?\350\247o?\032!\337?\335\337.\2771+\251?\014\203\036?D\330C\277n\245\013\277\260\321\336?\237$3\277\0377+\277\310t\224\277\305\322P?\334\262\t?T=\365>\007\214\313\274\201\277\322\277$\2772\277\230X\212>r\350M=\0131\340?b\304}<S\376\246>\024L#@\031W\245\277F\001\271\276\001\203|?\237t\017>\206\031\000\277\014\034l\277\23091>\267\334\206?y\342\273\277F\357\030@]\331\230?\005\260\252\277`\263\313?\032\3267\277\255\265\234?M~\242?yw\212?\2617\227\277IN:\277d\3710>K\243\317\276\353\214\316\276nh\356>;\246\202\277o\274\234\275\251%\017\276\372\267\237\276\3236\334\2777\207\257?\177t#?\327oA?/\340\347?I\242\210>\310\372\251?\316\235\017?\314Y3?\217\276c\277:\2402\275\355\352a\277\\\362x>\274\014\001?\202q\016\300\333\370q?\265\372\007\300\357\025\362>\211\2736\277\307\337\311\275\345\255\037?\016\230\257?\256\332;?\307\362\030?Fy3@M+,?\027\241\323?\032v\331?\037E\254?\273\305L\277[\223\271?\251\'\005\277\266~\360\276\361\026\300\277\204\204\203\276\363\264\021\277\250\3555?\213\364\250\277\010\327u?\021\244\016>\351\226\277?\264bt\275\3714\026\277\355\214\251\275\260\024o\2772+\331>\327\262\343\2777\334@?\251\034:\277\237,T\277\364\271#?\024\375\332>\220\352\330\276\017sj\277\373\217r?`\313\334>\334\223}\277\234g4?\344S\225\277 \001\223?O\277V\277\002-\357>O\302\021\300\322G\236\2775z\026>V\307\251\2766\211\006\277\260\3353\275\037\265\227\276\324\334\204>\024Lx?\223\031\301\276>\246\220\2760\356$>\234\270\261?u\240?\276\254N\247\277)E\370>\335P\227>\347\374\350\276\316ZU?Q\233_?i\232\"\277k\037)?d]p?\240[/\300\341\255P\277\363!j\277\206G <\251\224\336>\350\262\245\275\371\255\257?\337hD?n\204\230\277E\302a>\243\305\262>\217\212\003?\tU\020\277\262\367\037\300\337\370=\277\'\033/\277*\347\305\275\340q\223\275\305\036\207\277\266\022@\277\246^_\277\267\2750?\024!\353>+8\243\277\223\226:\275#\037\265\277\270uV\277\266\201?\2776\350\256?\212a\201=$\255\251\277\354\t\362?\305\331\237?t\236\204\277U\033\213?k\r\177\277}\0203\277\024o[\277\253\302\242\275B|\202\276\201\017J\276\374\251\322?C\351\205?g\231\357?\352Y:\276d\214V\277Nb4?\202\035L\300\020\001??}\376\033\277\201\330\374\276\214\3638\300\032_\004?\375\351\205?\250\227\214?/e\231\277P\320\324\275k\341T\276\272X\301\277\311*\237\276\222~e>\202\014\247\277e\217\302\277\002\n\302\277;\210\205?\314\342y?\230|g?\334\247\352?@\320\261\275m\322\360>W\265\332?\341E\237\276\221\216(=\026\210\256\277Eqh\277\251\177\244>As)?\210\312\261=5\210\031>\2504\361>ee\241\276\2373\307\276\353\307\265\275\3656\006\276Ep\020@\325B\037\277s\277\327\277R\304r\276\234>1?\224\t\357\276\316\347\214\276JK\210>\311\034\276?\341o\316?\3752\375>\372\256\232?J,\217\277\300\246\231\276\3734A\277k\214\331\277[:\005\2777\254\340\276z\350\271\277\241\267\202?\010B\336?\3437\034\275\310\272c\276\024\303!>\n\351$\277\242/\032\277\202\035U\277\301R\247\274\220C\303>\365M\\?\312I\203=\336\272 \277\014\223\377\276\375m\"\300\354\253J\277\363$1\277\302\221E\277\220\311\222\27602L\277\027\341x?N\000\324\275\272\020\007\277\254\242\203?\354\361\224?\221\013\253=\374b\034\277\356t\031?\337\244\305?p\377\262\277r\357\216>\374\374\212\276\032G\273?z\206\024=^\376\031>\002\260\241\275^o\266\2775$\331?\225\356\275?\003\330\335\276\366\342\n\277\314\264q\277\260\255\305?\271LP\277\276\361\326\277\352v3\276Z\315\216>\223\3170\277\033,f?L\264\355=?\254,?\243\255\324>2\253h?\250S\231?\352\254[?J\020\252?\307\256U\277\262d\214\277o\204a?\306\213y\277\266\344\356\275\335d\242\275/!2\277\231X-\276\316\0225\277\234H\317\276\373>\224\276\005a\007?\267\177\306>\211\212\261\277\250S\223?\034\020\337\276\206n\260>0\213\375>0?\216?e_\223>y\257\t\277\000a\321\277_\330\202?\353\356\\?Y\210\367>,\273\356>C\222\246\277\375\014\276\277?\330\237>\207\204\233\277\323\374e?\2372_?\025\244\314\276\246\330\262>\032\177\250\276\356b\262\277\364R\010@EX\252>w\214\r;\362Nz?\005\021\177>\034\344\307?85\347>L\244\307\277\200\265\215>\217\355\234=\3765\251\275j\3234\276\367\177(?y\254\000@V\027\334\277\332\313X?\2233\236\277\2776\264?\035&\275\277L\377\270\276\177\t\001\2779\202\270=*\014Q?\367\210\355?\245U&\277\233.\"?\301B\202?Q&\306\277\t\366\331\276\224\224}\276\263l:?O\365o\277\347M.?\211\006\264\277\3773\371>\325-\307=\343\347$\277b\035u\277\366D\274>Py\310>\274\3107\277\306\005\013\300_A\261\275\317yz\277\206nk\276\3151\005?)\332\265\277Jn\227>D\330\245>\302\r\201\277x\354\326?\233\216\225?\203i\245\276\330W!>\377\324y\277\306\340\311\276+\306\022\275\177\3023>ya\024?\216\375\357\276\272\010o\276\207\301Y\277\227\325\333?\007\322>\275\232\201!?\177\002-\277\030\017\304\277\237C\313\277\003\006\227\277\227l\225\277C\035`\277\025\360\225\277\266\222\307>V2\031\300\360y\254\277\007\242\025?=\277`?\"\2506\2752\336z?\224\021\324\275b;\'?\310\2356\276A\306[\277I]\327\276\313\320I>\013\007\322=\231k\030\277!\250\\?X\322\327?7\201\r?\203\317\334\276\034\315,\275\230c\255\275x\356\237>U\241m\2776S\312\275[\255\245>\247-\205?\241\\\266>v\210\271=\255h\230?\372!\374?\323\267\"?\334\352\031>\007\373\230\276,5i>1\017\202\277X\235\204?\236\302\364>c\350\233\276\215#\035\277\352e\350>\316\275\367\277\244\317\000@\035D\006?\2005<>\334?\217?\356\021\237\277v\323!>Ie\334?3\"K\277\256\030\322=\346h\304\277\023\177\327<\222\005Q?\2250i?w\231\220\277\031$\205?\204z\224>\310\246??e\'\035\277\264p\210<h\314\267?-o.?[\002\365=Lp\241\277\'\204\256?v\221\203>\250\271\026\277N\007\266?\001>\016?r\251\252\277\"i\354?\357cb?b\224\205?\332\232A>TE\r\275\350\367\226?\274*^?s\020\346>vgG\277\375\223\341\277\245)\202\277\257\030J?*\342k?N=\200\277\341i\r\276\360\367f\277\326\353\214?\177\333\013\276<\022\343\276\026\245\316\277\361S\207?\201n\300?t\375l\275J\003E\277:\326\003\277\00091?\326o\302\276\'\345\250?\373\013R?\207I\250>g\223\241\2767^A\277\252\362\242?\207{\336>~\\\347=\360E\227?\312\367\016@\2347]\277G\007\203\274\300l5\277\236\332\274\275\263_\236\277\300~K?\270K\020=r`s\277\352\007\336\277\250)9?\236\261\263?\371C\355\275\310\303G\277\252j\231=Az\220\277^2=>R`\023?(k\223\276\260S\255?\376\001E\277\rh\227>\240\021\204?\316\216\306\276v4\242>\020\2251?S\211\236\277\023:\377\276\3126\027>|\\\203?!xB@E\243\002\277\314\314w?i\346\254?\311\344\211\277\227\335W?h\202\014?\300B\250?\237t\352\276\224\271\237>*\310 \276x\373U? \341?\277 P\226\277\262\273\236\276V\300\202\277J\354\270\276\340B\234\2775\261\020=\355(\266;\211\366\352\276\343\274\227>3\307.\277{=\323>\315\177\302>\373/\217<\364\317S?\032\357\302?\261hK\277\371\371\014@\255t\010@\272]P\277\243\034\224\277\300Gf>\030\265 ?.\275Z\277#_\341>|)p=\302\374T\277\013>n?\346\024%\276\367\227\375=\265\253\301\276\020bn?\324\301G>,\001\026\277\034\'\274?\024\335\006>*H3\277LG\003\276\205\030\234>\275kW?\257%0\277\020\366X>:\231+\277IK\345\277,F5?\032\324\232\277\020q\255\275\361b\201\275\205y\255?O\274\360\276\026\274j\277\234\276\027>3g]\275\317\231\225?\300\3141\276\272%\317\277\360\237\250\276]U\304\276\327\204 \277\240\305\256>\375\326\365>\372\022\'\277\323\024@\275\364\211=<!j\300>\270\240%\276]\245\030?\014]y>\231<a\277\323\005\311?\016\022\241?\302K\324\276Io\037\2773\207\306=\367:t\276\212\353\372\276DUd>(\211\337=\034/\264\276\344\327\242\277\206\017\215?\351.]\277\017G\362\276\350cE\277\376\326\327\277\033\336O?\211IS?\357\254A?\316\367\274?\035)\034\277\201\336\026\277\264X\014?\3158\235\277\035|\343=\207\202\020?A\343\300?`\302\027\277\354\222$\277J\tN\2763/\213>_\n\307?\236w\372\276l-\205?\336\327^\277\342\267\317\276.X`>\255\256\004\277\311e\276\277A\371\364<\001\325\352?\027\003\231>;o\251?\336\220\246\277\226\261\033@\2420k>n\250\220\277c\216t?cPU\277\'g\337>\355\224[?\n\027H?\001\371\025?=3\230?\347\222\305\277\246\346.\277\254\255\233<\276:L\277\376\231\003>\234\006\215?~OK?[\255\264\277\314\024\275>\030\226\217?\r\207\236?\223\316d\277\207\307\201?\300F\002\277\262\021\220\277\225\2417>$\237\372>\234\327\n\277}\034\220\276\246\024\262\277iJ\010>\232w\220\277\nF\246\277\217\276.\275\375y\375\277\377\241\254\277\317\013\3109\037\273l\277!t\275?]\245\341\274\206F\205\276[Kn?P\026\217>@\371#?\373\343,\275\324\000\240?K$\212\277\317\016C>CG\266=\375\366\320\2765\016;\277\354n\005?\325\2350?\342e\306\276^\335\213\277dA\321\277lJ\202?\237\257\035\277\326|O??y\247?g\376\276\2778wG\277\227\002:\277\314\215k\277\226\002\317\277\304\023\354\275\016\357\263>s\350\216\277\306E\272\277\2444T\277\034\331\036>\246k\202?~h\263?\2061\203?\224z\255>\345\227I\277\363*\205\276\3067\305\276\234\337J?\t:\251<8\352\365\276p~\201?\t\313\336\277%rX\277\372\r\035\276\372t\366\277+\240\201?\254\300\371;T\376\'\276\267\023\317?\235\343n?G\2120\277H\352\220\277\344kr\277\'\201\221\276\' />\256\367\263\275|C\353\277P\352\014\276!\001?\276\311v\273?\007\363\256>\220^\320\276\346\221\277?\260\334~\277q\201-\277\257\376\004\277v\000\255??\277\212\276\345\223\360\276\033\374\021@\266N\027?\245\006@?g\342\201?\246\313\203>M\215\017\277\321\263\217?\266\354\264>\205\t\036?\251\343\321\277\253@5\276\275z\200\276%\211A\277\020\003\007@\001\231s?\231r8?\013C\001?|\344\036?\202\217\005@\224m<\277\350B\"?d\010\t\277xb\007\300\261R{\277\217y\030?|+\206\276\023ck\277\307q\302;tQ\360\275y\320\264\277k\013V\277R\274\215\276\341%S\276\314,\273\276y\236E?o\246\326?hB\262\277q`H=&f\301\276\220\035%>[\343;\276e\365\260\277@\250\025?y\220&?\006\207\216?\377\361\273>+m\036\276R\177\021>\td\004\300\205\263\227>\362Kn?w\276\361\276\204\"\032?zCt?\360V\204?\211\025\025\275\263\243u\276\241\233\242?m\212s?{\353\251>:\310\260\276%\247b>\267M\202?\341\223P\277\000\'\230\277\240\274n>\252\354\200>\227j\236\277\326\\\240?\267\341->\251\227\320>\236\262\027?\272\247&>Mw2\277\306c(\276(\240\032\300\342P\302>)\220e\275\224ns\276m\301R>\'\004\013\277\305\000\334?\312\005V?J\327\246\276\247p<?oB\336\277\360v\224=I\376\237>\365\\\343?\270\002z?#\207\327\276\274\000@\276\177\253W\277\361a\230>\nn\357?\250\"\274\277\354\367\347\276N\007\303?\215\377\261?$\377K\275\261\307\r\277\213Ix\277\211\210\215\275\346U\323\276\010\303V\277\277\014m\277\017?\032?\227\246`>NW6\275ql\200\277\3705\275\276\264\256\303\277\344\301\213>\237\315\373\277p\270X=\377Wj\277\022\325\372>\362o\377\277\245}/\277\214\317\024\276\366\316\310\277\006a\252\275\204\274\236>g\322\266\277\377;\036\277!\260\022\275\277\010G?\201a\240?\340b\256\277\267\375\220\277Uo\263\276R\334\025\300\026\3618=A\230T\277\021\"\350?\362,\257\277\350I\313>\277\250*>\377\212*\276\262\312\226?;\034\200?g\233\240\277x\000\274\277T\021\227?\035)\245\276V\270\007@\032B^?\017\032\227\277\331F\331\277\"\255=\277\361ZP=y\242\223?|4\252?X\202\213>Z(|?=\310\026@Q\205\232>\304\224*\277\327@\r>\001\000i\276\305+j\276\235\261\350\277uc\000?\351HK\277\025\327\206\277\313\037\352>\"\027Y?&7\336\277;\210\246\274\262\364\351?\033\203\264?\0341Q\277\366\214\204>\357b\200\276\334\235)?#\236\365=}\034\350?\362\362\201\275\014\220\277\277\272?\232=\'@x?b\302_?x B?\3165\n\276\013Y\035\300\347\353(\277\000op?)\032y\277\207\032<?Q\215\205?u\022\235\277\221~\355\276\305\270\232\277\344\335S\277\027\214n<\331\203\206\277\350\206\345\274D\347\033?\303\rR\2775\242\276\277\252\021{\277`\277E\276\206\025\203\276\233\346\000?\370n\237\277\002FR\277k\326\272\277\006[\346>\214hA\277\357I|\277\211j\233\277\r0\224\277\345g\334\277\031\326\312\2769@\016\277\273\316\250\277#\034\265\275\211\212\200?\262\210\267>\367\324\353>\372\364E?e\367\314?{\365\354\277\244\225\234\276\336\260\246?\324\321\350?\021\267\341\276\340\235\201>W\3353?n\346r\277*6\374?\355\3706?\213\223.\277J\317\271\276#\355\224?t\343\035> \376\211?\345\243\317>\223\215\322=\252I\210\2771\334$?\201\274\"\277\0355z\275J6\204\277\250\240\203?}\220\223?\302\324\017>\037\343\356?\370\243\357>\006\031/\277\035\275\315?/\017\323\277}\343\204\277\204\227\230\277\252\250H\277\206\315 =\211\344\302?\236d\303=\364LY\276\314>\017?6\002\314\276\201N\t\300\023\234\374>\322\214/\277\010\213=?\220\001\002?\355c\315\277\360O\242\277A\217\001\276\212\005W\277\005\371\036\276\326M\315>\247\212o>\2335n\276\202\245\205=\306J\270\276I\313\212\2770\030[\276W\230H\277\230R\022\277\214\3156?\250\257]?\355\220\221\277\020\325\t>o\272\232\277\250\3165?\353~0?\272K4\277\275`%?\220\013\243<\205\227\330\275\200yM\277\243v\331=\001\221\265=8\035\302?\337\307\033?Ah\223?\355K\206?\037\200\227?\323B2\275\210 V\277\002@\242\275\307\013\331=\326\307\254\277\247\343\364\277/B7?\337\360\006\300d\323$?\342\246\013\277g\234\202\277p\003\320\277\246\266\323?W\257\332\276+:\243=A.[\276\214\'\234>q*\212?2\324#?b\033\351\277\345_\020?\222\021\211?h9\000\300\310\214\010?\246p=>d>\223?R\201[\2762\367\177\277\013\217\026\277Ak\224\275x\002J?\362\016\372>\335\352|?\004\036\324=\356\223e\275\017\221\307>\225\311<?\357E\264?\214\364\204>\251\212q>x^\r\275\322D\206?B\267\342\277\337\314\026@\r\276+\277\337\rW\277\335\001\\\277\353\261\205\277`\277(\277v\201I\277\235\207u\277\003\237\305>w8\243\276\354\323\\\277\312\377\212\277i\230\345<u\256~?\022\027\r\277\340\377&@\331\315\n\275\276\240\363\276J\225\017\2764}}?B\266\234\277h\217I?\302\233\342\277\215\312\031>\240|\272>\"\247\256?\316\026\316\277 \315\004?\013\317\315\277N\'\336\277\241\n\324\276#\346o\277\2079\306>\334\323-=\341d\314\277g\273\215\277\272\003\361?\003\324\201\277\004\0370<E\333\360\277\013\340\241\276i\035\350>z\357\217?\023`\225\277\336*\314\277\n\006)=\357\341c\277\361\261\352>\\\3626?\345!\025>\031(\235>\250\003,?\201B\035?\377A\200?7d\374\276W\252u=\334\262~?\204\356<\277G\377\225\277/\242r?\004\336\270>\375\010\337\276\352\013(=>\271\006?\351\344\254=\005\303\311\277S\306\310?/\265\323\277 \275\336?.\257\303\276V>\311>vU\242\276\236&\224\277K\376\356=\302Y\n?\022\320\005\277\311\367\010\276\213R.?H\261\353\277\3725\277\277\\\325\025>\270\313\013\277\352\265\232\277\352f\244\277\346\236\350\277\ts\305?\354\221H?6Ev\276\367\220\331?\322\215\177?\242\355\177?\337g\205\276\372\317\256>\000\262\345\276\354w\346=\216\374\033\2779.4?m\304\357\277\"\316`>o\362S?B\236\322?|\227\332\276\353\"&\277\026\337z\277\006x\210\277(\206\007?\355k\000\276\211&\023\277\013k<?d\330\266>\205\204\020\275\366\312L?\253\263\016?\242\004\224\276\016\260$?\223C\346\277B\003\202?2\320\212>\237\215\004\277#)\004>\366\360B?\022\257\301?\026p\322>\366\232\302>\304\347*?f\\\r\276=\007&?%\014\336?\t\217B?\306\356;\277Xu]\275~\246\255?Z\207\201\276\214\003\002\276\232B\332\276\030~\034?\212\273\306?ykn\2752\237\305\276\271\215_\2773\370\014\277!o\237\277\010\272\207\276 ^\244\276\361\365\221?\004\206B\2771\3434?w8\223\277y\341\237?\223jg?wO&\276:\247\337>\206\246\266\277dT\361>\341\251\324\277\335&\262=\017\376\200\277jq\017\300\335h\205\277\225A|\277\360=f\277HO\347\277\326D\235\277G\000H?\270\227\306?1\271\354>\027\336<>\240\304E>==\r\300[\214\316\276\260\322\000?\273`\362>\270WP\277n\377`\276\334\206*?\3176\032?\304*\232?\031=3?-\327\234>!\033t<\ni.?\315}e\277\342#,\300m\203w\277\360\004\325?\354J>?\010\201H\277\220\341\314?\023;\243\277U\262\372\277\2338\363>\021\256\035>\271\363T\276\245\270\t\276EAo?\343L\315?y7_>\210l\212\2769\302\235\277Pv\240\277f_\254?AB\211?\251Sc?\017R\236\277G\315\320\276\365\014\364\275\214ha\277\230\n*\277~W\'\300scH?]\026\033@\010\204\332\277\010+7?\032]\032\277\217u4?Ck\354>_\353N?\030\364\346\276\325p{\277\3166\335\277#\257\335? \000\n?\002\222\300\277\246\256\027\277\356E\224\275\036\026\345>\353\262\014\276\233\204\331?}\235\200\277M\370\024\277f\r\314>L\017\034\277\016\323\350\276\356\222C\277w/\243\276Y_\337?Sy\031\277C\352e?\205bP\277`G\222?\221J\216?\331\016\250\277\344\315\315\277\225\004`\277\347:\221\277B\022\006\300*q(\276\017,\301\276z\260\363>\211\255\r\277\277\3653\276m\302\r@DX\222?n\370\030\276\227\346A>\260\021\255\276\343\177\006?3\245S?03\225?;\242\237?\261(}?\366`&\277\340\332\277?(%\375?,\021\245=\377\373\315\277\'~\236\277\037C\264\277gh\003?\025<\231\276\003\221\205\277\351X\314\2763\2351?\030\310\305?8,\235?U\001\020@\304\257\252?\006\374^\276\243(8\277a\301\014?/|\332?N1\246>\266f\022\277\231U]\276P\227\212?\257\343\323>\260\332z>\274\360\267\277Zke?\231\000R?\265\343{\276\355\273W?\203\246Q\277\315\302\225\274\270\033\332?\366D\312>z \003\277\215:a\277g\027\335=\263e\347>5\225B\277\347\361\235?@g\021\277\254D\210?\261\374\342\276\374\332\031\300\331\316\276\276\232\370\266?\223\024u?h>\356?%\323\033\276\226\375\327?)\372\374?f\\\342\276\r\343{\277m\257\n\277\251.\334\277\3629??p\236\343\277\247$\366\277\002\0050\276\232\000\371\276c\226\r\300\266\n\353\2764\361\010\277\210\275\276>\200\313\021\277 E\236=\314\226\020=\2442\227\277\274\205\370?B\227\307\2776\1771?\025\317\371\277\300?u\277\207\327\223\274\006F\021\277\321\261}\277\344\246\303\277x\230{\277q\'\326\277.\022v?|\214\266>\207\303\336?\240!\271\277T>\216\276\313\264\345?\313\022\322\276\230\312D\277\321)\273>\363\321F\277t\nH>\337\010C\277\014\013K\276~ac\277\357\213#?\236_\350=n+ \300&\034\'>=\246\201\277\343\332\356?1\312e?\006\031\217?g\000\352\273\275\355c\277T\264C\277\r\275@\276Q\201\367\276gu\177\277\t\310\202?\323\263\311\276<\3059?X{P\2772\2277\2771bv?\202\237\256\277\031\301\221\277\374\207\226?p\036\'>\22178?<V\325?1\221\016?\214\007\224\276\275\231\230\277\216\255n>\004_\302\276;-\350>\037%\332\276\372\231\247?9*\240?\007\225\023?XV\260>\220\254t\276Ct\210\277\333p\240>\013\335A?\240y\357>\035\305\300\276\251Dw\275\356\267\204?VU\354>h\267\347\277\007\213\267?\373\335Z?\3422\026\300\351\3573\276\246n\351\276\203\354\247\277C\260\335?L\322\362\275\2504\220=\264\207\203>\215\\\017\277cA\004@\307r\307>\017\342\256?\314d\016>\274\021F?\233\376\340>23\264\275\233d\224=\025\263\246\277\221\036\230>\023p>?\230/\365=\237-\227\275\243\313\251?#\237\253?"
      }
    }
  }
}
node {
  name: "filterW0/read"
  op: "Identity"
  input: "filterW0"
  attr {
    key: "T"
    value {
      type: DT_FLOAT
    }
  }
  attr {
    key: "_class"
    value {
      list {
        s: "loc:@filterW0"
      }
    }
  }
}
node {
  name: "conv2d_transpose1/output_shape"
  op: "Const"
  attr {
    key: "dtype"
    value {
      type: DT_INT32
    }
  }
  attr {
    key: "value"
    value {
      tensor {
        dtype: DT_INT32
        tensor_shape {
          dim {
            size: 4
          }
        }
        tensor_content: "\003\000\000\000\010\000\000\000\010\000\000\000\020\000\000\000"
      }
    }
  }
}
node {
  name: "conv2d_transpose1"
  op: "Conv2DBackpropInput"
  input: "conv2d_transpose1/output_shape"
  input: "filterW0/read"
  input: "image"
  attr {
    key: "T"
    value {
      type: DT_FLOAT
    }
  }
  attr {
    key: "data_format"
    value {
      s: "NHWC"
    }
  }
  attr {
    key: "padding"
    value {
      s: "SAME"
    }
  }
  attr {
    key: "strides"
    value {
      list {
        i: 1
        i: 2
        i: 2
        i: 1
      }
    }
  }
  attr {
    key: "use_cudnn_on_gpu"
    value {
      b: true
    }
  }
}
node {
  name: "filterW1"
  op: "Const"
  attr {
    key: "dtype"
    value {
      type: DT_FLOAT
    }
  }
  attr {
    key: "value"
    value {
      tensor {
        dtype: DT_FLOAT
        tensor_shape {
          dim {
            size: 2
          }
          dim {
            size: 2
          }
          dim {
            size: 32
          }
          dim {
            size: 16
          }
        }
        tensor_content: "\371\241Y\276\201\372\361>#`\334\276\332\207\025?\330\266\027?)\026\003?\252\034\271\277<^c?\234\317\330>w\244\262\277\324\245\346>\274\304\001\300\210\325\375=\000(\376>l\022\373?\253\001i\277\265\275\206?\275\334Q\277#\310W?\274\326\232\277\005\"\337\277\037\375\364\277\226\225\201?(\275[?\352\363\216\277$\305n?\033i\276\277\275\224\202?\327_T?Bp\177\277\035L\014\276\357b\r?\225\237G?R\010q?\037A\275?9\260)@\022\221\007=\340\004E>\017\017\210<\320\251\002?Re\237?\371\316\337>9\006\023\276}:o\277\230\321\234?\217\215\341<L\357\351?\312?\201?v?\207\277\363\272\312=r\036L\277O\312\327?\301\304\327\277\336\270\246?Jp\022\277q\307T\275\277l\t\276\200\326\235=W\204\n\277\353C\260>f\225\244?A\304\213\27738\215?\231/\212?\331\331\267\276\212T\002?3D\262>\251\327\313?\234\361/?\312\372\026?q\262N\276\026\350\260<8\037\213>\250c\224>\317!9?\240y\354\276|V\233>\341Z\302\277\215G\020\277\233m^\275\000FN?\23769\277f\216I>]|x\277q\242\t\300\220\035\236\276\216nN?*\\\000?\351\320n?\316@\217>\221\210\376\276t\246\020>\330\375\247\276\036\257\223\2774}\022\276\202\347\330>Z\204x?\236\370\247\277~\266\271>,\352Q?\\\277\347\277\261\3028\277\031\202\234\276m\263\236\276DJ\310<O?d\277\251hn?\240\216\301\277\34279\277f^\226>5\013\331\276_U\311?\"jP\276\021\200\321?\340\275\r>\354\301\241?,:\260?\350:\201>\216\352\241>\273\375\346\2779{\352\277Md\037\277\357\277[\277\005\204j\277\353\r\000>i\351g?\010\336\004\300\374\257B\277\"\262[\277DZ\016?&M\240\275Y\276\200>L\375\204?t\376\037@\'o\315\277\226?\321>\001\334e?\024$<>\004I\246\277\023\034\313>\313a\200\277\336%\336\276F\307,\277\316\300\307\275\004\215\312?1S\000@W\225\207\277J\217\217>\224\263:@7\363\357\275\313q,\276d\3401\2776>\354\276H\375\034\277\373\310\n\2769\240\n\300\377\226\246\2762\254f\277\362\215D?\000\212\327\277\023*\231>\315V2?`\251G?\2217\222\276\321\014E?\210\276\200?a\373\213\276#n \277\204{\021?\326\343\037\277q\252\032\277\315bT?\024G\235?B\314@=\347\362\261>\305\231\323>\331\224C?\335]\244?\024\356|? \036$\277\223\306\014?\224P4>A\242\232\276Ky\271\276\237\013S?\234\004\005?)>\256\277\277A\334\276\004f\245>A\234\003\276A\027\033=Pw\377>\316}\345>\021\207e@3\326O\277%\336\234=sy\264<g\220\357>Pl\212?\340\262\300>\202\007\n>$N\217?z\221\213\277\257\251^\276\n\240\275>\352^\344?3e\375=\177\361U?\376}\252\276\307\346v\277A\017\355\276\274j\323?/Xv=\n\3641?\254c\247<dh\005?~\0054\277\001~\344\277\214\317\211\274\204|\323\276\347;\304?\262!\215\277\362\350c\277\273\375\016?\022R\243\276\223Kv\277\031\205\254?\242\254C\277d\250\337=9\301\313\276\010\340\214\276<\326\230>\374\306q\2771\020y\276\231-4?Q\360\310\276\371\377P\275}\215\233\277k\215\247>\214\r\365\276\337\343\216\277%\267j?\304eS\277o\013#\277\234\276\316\276e\303\217\277\253!\243?\223\266\001@\235q\300\277\311\001\222\277<\022~?^\361\226\277\013\037\355?4 \314>9\303\343?f\017*?\231\232\204?d\332\\>\004~\223\277#\356\322\2764\240&\300\002?\316>p\211o\276\024\242\253=3\304D\277\322\247\331>\253\371\274\276\304C\342={\353w\277\231]\272\277\n\221\260\277\017\273\363>;P\207?\330\201)\277\020\010l\277(\030\005\277\241\355X?2\265\274\277\241\303B\277\323\373!\277\037is\276o\242\221=\245\335\211>1\267\245?f#\301\277Vo\232?\375\333g?\347\355\355\276r\307\372\276k\2434\277\377Z\260?\326U\333\276%\352\020\275\\\346\350\276\013\361z>Yv\327\276\333%\344?\242}\233\277>\313-@7/\350\2777\033!@\370\233\330?\334\000\300?\027\221[\277c\321#\276/\346Y>;\027\325\276\236\237\t?\340:\267\276`\223\350>|\251\356\276(\312#\300\227_\341>\247g\272?\233\360o\277\216.\355>\335\221\300\276\317D\035\300\366\364\230\273\361zk\277\353\252\342?F\313<?\014b*?C\025\272?\245j\211?n\212\273?\323\3506\277\002\325\215>\035\022U?\006\020^?\023\205\017@QU\306>41N>\327g\237?\312\3019\277\233\025h>\223?!\277\205\343&?\261j\266\275\003O\203>\2135;\277\335\342\272\277\330\'&\277Ax\222>w\004\016\275v$\205?\007\314\221>hI0?\032\315&=T[z\277L\321\226\277}\257\233\276\205\341\274\277\372\341\305\277T\222\246\277t\313\214?$\323e?\333YJ\275\370\236\026\277\210\3247?\266\276\022\300[E\223\277\203\t\223>\333Z|\277\244\373\242\275I\262\242\277\005\360\004\276\326O\324\277/\320\351?\224\265\014?e\021\r\2774+\311\276\241\204o\277K.\312\275\350^B\276s\322n\276\016Y,\276\275,#\276\270H$\277\203\314\301\276\225U\235?\352\003\t\277i\r\022\277\371\266\346>\326\177\206?o\232<\275\\@\214\277>\230\250\276\262\235R?A\262$?\233\337B?I=P?\350\211\220?,\006\357>\347\301O\277\200\213x\276:6\353\277<,\033@|\002\360>\005+\234=\311\275\316>\224e\'?\215D\244?/>N\276\272\372:\277\321\237M?\225\306\010?\004\274\211\277;ZO?\303Q\253\277\262\355W?\377\016{?\277\227\004@\334\365\253\277\331\255<\277g7\274?VW\030?oVp\276\317C\316\277\356\317\212?ui\347\275mr\231\2773N\213\275\243\2412<\224\277]\277\r\r\327>\212\206\242\277\205F\262>a-\277\277>;\310\277cU\027\277L\003\340>\030\253\304=&\022\203>p\205\257<\263M\350?\034\350\037\276\020\353\237=\013\212\231?\3778\007?\323\204\247>\006!\246?\225cj\275\325\030\274?\017\030\221\277\267\231\243\277\034\202\274>7D\256\276!\257\024=\356u(=B\034F>\302\034\235=\'\031\026\3000\351\010@\263\256\266?\372\347\364=D\033\223?\326\020\232=\330\375\232\277e\024\224\277[\274\303\276\304I\327\275=k\020\277/B?=\t\244b\276\010\340\000\277\363\205\213>\030\371\257>4\033~?5]\231\277\334^\366>F\347\363\277\226\266\241?\271\360T=\306\0231\277\307\r\250\277\250H\"@MS\354\275\254\177\257\277\003u\203\276\267\307\020\276e\023\201=\220\314\t?v\362\316>\212\272Q>\034v\226?\225\323\331\276+u\373>[\251\320>z0E\277\341\360\344?\342K\n\277j\225\354\276\206L\254>\330\240\204?gs>\276+\365\325\274\353^\311>N\327\243>\242\222\340=\201\317\243\277m\230\247?d\233\270\276[a\352\277=\350\262\275\3251\375\276\302\373\264\276\207\320\230?U\347*>iI\237?\252\273\274\276\3029&?\037\024\277?\245\267\224\275\2119d?\302\372d?\344\360]?b7\001?\352\310]?\200\263\317\276\234\370M\277~p\225\277\341\264\243\276\354\265\307\277\020m\325\276\r\264\372\277\']\350?\r\271\244?\310\306\310?\302\347\330\277IB\236>\021\tZ>W\237\317=wa\213?iI\243=\270<S?\2224\004?\264\026\017@\000\357\273\276\275E\346?0\267\260?\355\027\230\276%\241\013\277.\344\251>\206K\337\277\214\356H\275m*\352\277\0225\366\277X\023N?T\222\001?\344\246\020\277\330\203\020\277\376\004!=\333T\215\276Q\276W\277\343\'\306?\203\377\r@\347_\317\277\010L\222\277\272\361\272>\300\2724\277u\036\266?\003\324\225;\251\353\310?\362h;@\377\266\023\300\007\024\t\275\002\362B?\367\r\350?g\232\337?\341\306\000\300\027\343I?\251\216\030?\316D9\277&\350\377?\2149\352==\233|>ya\r?\022\034^\277\215^\254?d\372\272\276\234R\005\277\334e9?\030\313\036\277\3534`\277\302cV\277\367\235;>p2\234\277\2400\223\277)F\344\275\232\336\300\277\000\251h>\363\345\341\276\000\251\306>0\034\033?\010\232g?6L\245\277\323\034\231\277\303?\234>\036v\203=\330\305s\277\261b\257\276xsJ?\013\377\237?f\024+?EY\013?\354\303\247\277\364R\206\277z\257\370>PM\003@\273t|?b\342\263\277\327\254\313\276\3272\222?Y6f>\243\020\031@\336h\025?\324k\273\275M\243J?g\210\230\276:W\227?\253\215\231>\000\245\267?$\177\346\277\355\233\240?ZT\247\2767F\255?\323\001O?\021\372>?{\013\275\277r\2618\277X\267K\277\354\210\262\276\313y\265\276\027\240\211>B\330#\277#v\306\276\346M\263>Y\371u>\305p\006\300Y]o\277\332\270\201\277zS/\277=\244s=\301\3720@uz\207>\302V\034\276\224r\330\277\273\376\273\277\2372Q?7\251\273?\204\211\311\277n\323\343?ma\314>0\211\216?J\344\022>\214\316u?\354\300\010\276\260\3632\277o54?b\216l\277\310\347\023\2777\035\272\277\003\002\010?P\316>?\206K\205?qIX\276\336W\026\300\2379\277\276\276z\306\277V\224E\277o \217?\014}\321?\340\276\240\277\314R\212\277f\345e?\263#\250?Q\0104?\370\274\255?X\016~\277\224j\020\275\310\322K\277\207\314Y?\222\"\021\300\3238\277\276>\221\250\277\207G\350=\351\215\215\275\373\331\322\277\024\263\205>\'\031\373?\024\276B\277\346\2172?\340\275\004\277\233\241\346\277\3343\234\276\017\203\030?Z\0259\276\232\370\035?\313*\322>K+\342?v\223D\277\003\207j>\2515l\277&\032\000\277 \013\013?Xo\213?\"~O\277V\272\217?deJ\277\237J\334\277\376\235\010?/%\321\2774\014A\276\304\276\027\277X\225\303\275\206S!=\325U\032?z\016\220=\333D\007\276!\210\203?#\200\341>\200\000\226?\310\367\307\2771\220O\277\317\216\267\277\305\304\033@n\263w?\231\'A\300A\345f\277\307\202\027@2\206\035\276gE\236\277\272\314\337>\031r\325\277\342X\371>\302\237\230\277{\347b\277\226SI\277I\242\273\276\314\"\313\277\363\210\245=\200\361\251\277\234\202\351\276\210\377]\2770\372\352\275o\037p\277\027\202^\2773\013\223\277?\017X>Lhf?z\314\245?C\214\270\277 O\323\277[\tx\275\370\267R\277\013\323\243>\355\262j>\217g\247>\347\216\342?\342\026J\276\242\275-?y3\367\276\326 \022\300\255\357\020\300\377:\342?P.=?\n\216\006\300\200\224\216?\241\027\302\275\353\372E\277\242\217\031?\253\235\232\276\036\0137<I;\030\277, \005?\213\255p?\252\026\177\276\3252\224?\265\324\017>\377HU\277#\262\030\275\247\007~?\215;\237\277Q}\025\277\261S\230\275\262U\231\275gi\265\277\'J-?\177\224\267>\3567\034\277\201\035\314>\035\303\204?`!\324\276\374H\250\276y\026\377>\247\233\247\276fmB?\030\217\215\275\204\326G\276\306\215\001?O%\222\275\202J\202\2774\266\006\277<\256\240\277\2216\303\277\000\007\032\277\267\246\325\277\265\000\251?\246\213\340\276\036\347\207?\245x/\300\306\247\256?-?\r\300\332?\246=\200H\220?[AH>\206\311\332?\311\2341?\314\033\317>m\214\201?\252\331\340\277\0136!@\243\235\'?\261\334\364>?\177\177?\335\2011?\000u\r\277]\346K\277{:9\277\033\213\217\276\356\342\231>\337\264\222>n\270\027>\354,\344>r\266>?\030\273\207\277\003\217\003\300\333\221A?\357\'\272\277Z\021\304\276\250\000\307\275\243F\243\277,yg?\2351\326\274N\337G?\335-[\277\220\226\374\276\312\302\"\276\024\3443\276\310r\365?`\234\035@\261\362\373\276[\365\207>\342p@?\023M\273\277[\350>\300m\313g?\302\310`\275@\327\036?7\016\226\275\347e\306\277\350\270}?&\034<?,\234\034?\233\215=?\n\274\033\277\202|\276>E\301~\277?\301\207>~\366\304\276U\351\255\277P\242E\275\330!\000?K\353\017\277\306\205,?\224\203\344\277Vm)?\376#<\277(xR?\022\260\200?uv\"@&\0048\277\376\346\215\277\200\243e\276\200\313\304\276#\344\342\274]!\307=\372\004\325\277\010M\344>8\202\013\276s\005i?\273\356\235\277\026$\343>q=8>\212\317A?w\2419?t\242\020>\007\371Q>\343\030a?X2\242\276\265\314\214\276e\272L?;p7\277\273e\260>\000\030+?\311\216\225?\314!/\277m\227\007>w\236\002>\240\352\246\277Q\337\352?\200\020\000\275Z\370\327?\353\366\235>\336\317\252\277\366\217\231>u\360I?\266\033:\2725\357\226?\303hS?-<\006\277\265:\252\277T\355@\277\357\210^\277mO\000?V\364\211>\241\372\205\2778\037(?B\244|?L\352\300\277\302\235\240\277\335a\215?\346$\234>\'\027\256\276\313\257\216\276}\253\016\3005F\225\276\r\260O\277\310 \322\277\265\222\237\277\314\\g?\276\270\353\276}F\330\277t\272V\277\316g\026?\032y\245\277Yq\033\300\373h\335?3\366\275\277\346\316\337\277Pg7?\021\267\204\277\233j\241\275@\206\"?\017\242\271\276^=\330=\202\010\200=\331)s\277\034r4\276\365K1\277Q\014\314>Zg\202?\314\301\337=\210\261\026\277?]P\277\377E.\277\371\332\215?}\261w?\303G\013?~\262\033\277\277j\310\275\362I\261?\025\230\310>\252\274j?\227c\325\277*\266T\276M\234\341\276\017\275\035=\3463\024>\257\nT\276\nI\314?\335E\206?OM5\277hx:?J\230\201\273T\373\205\277l\250\266\276\314\206\225?1\312\013\277\n.\014\277\tnT\275\255!\333\276\365\311R\274\324 \335\277\365\233\240\2770\356m\277\331!}\277\244j\232\277\034\346\366\276T\243\205\277\262\273\214>y%%\276*\211\316=\245u3?\3642\017?Ot\340>9\265\352>:\032!?J\332\231\276\203\346\230>\326\363d\277\354\252\230\277\271\032O\275\373\354\004\3003\264\033@\026Y\222?e\006m>\215:#\300L\230q\277\360\361\032?\257\000\241\276\331\345\023\277\035\371q?wj?\276\"j\262?\201\357\033?\213\363D\277@\320\225\276\341\310\334\27661Q?,\273\316\276\024*\221\277\354\354\004@)\306#?5=\302\276R\326\022?\202W\316\277\241\341\345?p\021(\277\017CI\277\304\366@?\006\210_\276y\310\003\277\357,\273?ZU\371?oY\237\277\213\354\356>97\230\277ab\340\275\305\310\236\276\222v\330=\224A\n@\313\333#@e\276\026\276\265`<?\2370w?\366\261#?\231M\243\277>\260\232\277\222\225\333>O\003\004?\254\306\270\277\202\327\307\276\241+m\277\263@\250\277\237\026\t?4\375\221\277\300\034\363>\364\233\223\277\253\\\031?\231\206n\277M\252\207\277G\371\373?\034\220t\277\021\335\\?t\200\254>\345\221\000\277c\301\353\277\226\277`\277\353@\323>\212\355\213\277\327\265\231?_\025,@zl\210?\032]\332\277F\000\230\277\030\276K?\324\'\226?\210\221\214\276\371\256\004@`.b>-\324\016?\372\024\324\277\315e?\276\267\242\327?\367\335\213\2773r\251?ux\177\277b1\231?\037v\033>\376\026\311\276UQj>\342\252F?\243\265\227\277\355\020f<`\2102>\255<\203?\361H\373=\376\333\221\277\247\343\305\277\327\315\240?\247\243\373>W\357\250\277M\206\'?:\262h>\024\"\222?\242d#\3006v\300>\2116\033>4\354V?\r\305\004\277\022\342K>\331m\232\277\366\264\275\274\n]\352>\226K\214\277\205\227\336?y\002\325?\215kW>\035\243V?i1\301>\245t[=\210\212m\276\363\311z\277s\002\020>V5e?\323\023\364>\3449\304?\323\311\265\277\013tG\276\320F\020\276\372%\244\276\001\233\376\276#\303\373>\225\031\275?a\227b=\275\002C\277\374\312\023?\220\232\206?\200\335\240\277\344\245\t\277\351\017\243>\255\334\351\276\323\325\026\277\\Q\327\275\254\203\004\275f\\\007\274nh\204?\362\'\235\276\r\301\233\277%\225\013\276\317M1\276\n\312\205\276\217\013~\277\261\320\266>\r\001>\277}\207\327\277\243\177G?\2004U?\350#Z?\334i\225>\351\252\006?\335/\262\275\354<\241<\030\3159?\273\260\000\277\010\\B?\246\327\272\277\207L\253\276\353s\326><\265\010@Y\000\001\277\343!z=\355r3\277o\026^\277F^{\275n*\342\275\225\242\372=\244\"\006\276Zy\001@-y&?&D\335>\353L\277=\233>-?\214\277\260\276\1778\244?\211\337X\275\273H\213\276\371\325\232>\310\"w>!\374\350=\352\221\216?K\263\000\277s5F\277\230\334x>\370\316R\276s\317\201?\000o2\2763f\326\277\341I}\273*y\303\276+x\246?v\2331?\273\276\023\277\353\001Q>-\347\252?\016\022\266\2767D\346\276i\334g\277\365#\361\275=Le=\324\024Y\275~>\303?\354w\213\276\224\305\223\2777\234.<\035\236V<\256\257N?\202\314\261\277#\024\257?\023\216-\277c\207?\277\255\022\225\277\315It\277\255n0\277\205\2535?\037\2508\277\344\275o?\\\252\276\276\344R~=\327\214\224\274\236\034t?M\271\204\277\303e&>]TR\277\370~\033\275\340\346\326?\230\004\373\276^\363\217\276\313\337B?\337\305E\277\226s\032?\323\334\363\275/ME\276F\242\264\277\002|p\277\205&H\277\234\251\\\277u\225a\276t\236\232\277\300w\241>qy\241>C\001\373=\013\251~?Pi\300?\034\342\247=\302x\211>\030I4\275Y\220\223\276\215:\204=\005>\217?4p&=Q\214\225\276\332T\">\003\005\236\276\272\202;\277g\315\214\277\263\334\210\276r<\317?u\244\271\277`\313\n\277\302\361)\2777\250p\274\213\355\270\277j\3121@~\3766\277pjk?\013\350!\277\227;\301\276\303\255<\277x\246\335\276|\207\326>u\353\201\277M\321\017?\227O\313?\242\326\230\277\206\325\017\277\356a\007\277\361T\213>\311XZ?~w\001\300\252;V\276\221\220\020=!\333\014?\2371\273?\223\346|\277\324Z\302=\020\237\373>b9S?\013Q\034?\314\315\370>\200\236\222\277\232\304i>\035|o\277\031\037\212?+\225\221>\031q\026@9\315\231>\010G\216>\226\3071\277\271\256}\276\204\021\320>;\016\265?\345\305\005>\325\006\224\276\027)\025>\255f\021\277dM\224\277t\267\023\277\347\"\325\276\242|(\277\257<S>\326\034\216\276t>\311\276\277\265\315\276$\356n\276\253\241\005?\333\372\200?N\364\274\277\035N\227\277\236~\260<\243^\222?r\250\245?\027R\301?\216w\r\277\363A\022>#\234\322>\230\331\251\276\306\\;\277\272\032\351\275L6\006\275\027\325\016\300\nc\236>u\307\227\276Y1\372\277!3\323>\260T\235?$5\211?\237\260\272\276\220Ee?\243\312\201\276\333K\377\275\0046\350\276\362\347T\2778\300\307\277\277\233\245\277\206\342H\277fTV?\364q\006\277\363\270\n?\007\224}\273\t8Y\276A$T? \251\327?\210\253\321\276\210\036I\277%`Z?\322a\217>g\360.\276g.\262>\245\006\\>M\310\035\277\227\375\366;\237\377\002\277X\330\346>\265\021\261\277\235\0215\277\247l~?\244\236\373?\037\227\034\300\207\314#?\006]\301=n\324U>\263UG>\"6\230\277\316\262M>_DP?UD(?rBV\277\343\010\025\277\320kO\276\332m\355?2j1>\364\373\202\277\267\317X?\271\323\177\276\tO\237?q\307\201>#\016\264\276\343a\233?O\327\222\276\361Fu\277Oq\354\277jT\315?\377\222\373\276\2418j\276f\345^\277|\373\327\277\013cI\275\354\315K@\361\201\246\275\2713v\276\200\005~?\241>\307\276P\230\013\277\361#\211>\002O*\2779\005\315\276\3533\001\277H\305\230?\220^X\277\233\033[>\022j\260?!4-\2774\331\254=\247\306/=\0361:\277\305g\037\277\345s\233\276\352&\306\274b\035\363\2765\036Q\277\205g\273>d\007.\277$\'b\277\373c\013\277\344\000\321?w\325\177?\244\244;?U\307\t\277\010j5>\\0\270\277\330^\346\276[\327\376\275B\261\330\276_m\221?W\317\351?\274\342\207\275\344\323\336\277\007J\271=\030q1\276_\246|>\373\347\352?\275S\020\276\332m\374\276\376\035\r\277\346g\023?\336\220v\277\344(\217> \227j=\301l6\277\252\322\356>\001@\211\275@\311\023\277\270~s\2778\037n\276\324\320\'?\021\252\350?\350\353\220>\317\242\274>\350.\331>@\377\376\275\242N\273?\017\244\035\300\305\321\251?N\215\305?\317\217H?H\307\350\277\n\342)>[\353\247\276\346\336\004\277\273\204M\2760\216w>\315\267\313=\r\014\306>\004o??\216\267\025?h*a?|\032\376<\006\356\027@E\242\255>^\3033?\374\007\347>\246A\211?\311;U\277\320e\215\277\027\215\215\277\257\337\035?\014\027\035@\372\353\003@\277`X?\230\037\033?\237\324\010\277\364E\212?\306\333\250>\310\232\334?\336\024\345=\255 =?\241j\003\277\253\'\037\277\035\203\352\276x\306\013\300Kic<\010\327\360>\266o\331\276\035\334\005\277q\035\033@BkL?\351\242\275?\033\350\020>\206\314\317\277\312\032\233\276\332\236\275\277H\244\252\277\027\201\277>\'\306\\?\345\217\014\277Y\256D?ox\007\277\265\007\003<\303j@?;\033H?|\024\217\277\322@\212>\244n\250\277\256QP?*\037\326>\303cD\276\224\215t\277I\263\315?\264G\317=\235Z<?Lk\237?\247c\226\276\272\317\275\2760\"\373?\325\250\363;\226\300\371\277v\251\366\274\215;\017?\215\272\231?1#.\277\363\005\370?>\244?\277)4#?\322\177|?ap\213\277\t\270#\277\260/\227\277e\236\362>\347\241\010?u\211\302?\324\004M\277\346?O\277)\342\311\277\206\364f\275ys\240>\260\357b\2766\240\354\276\010d\321\2778?\261\277^3<?\350\317>\277\366\033y\276\250\236\005;\261\212\276\275\004\255\266>j\273\233\277}\231\337\275\203\276\032\276\364\\\360\277p\rz\276\340aS<\227\332\227?\220#\236\277\354v\000>#\000\247?G\243\001\277\267zD\274\345\245\224\277v!o>L\316\200?V\272\346?E@\257\277g/\213\276#O\306?\374\200~\276v\233&\276\n\260\216\277\335\037N\276h\257\207\277\010\316|\2777\027\223?\346T\246?{3\257>\315\036\021?- \016>\310\350\332>\315B\264\276\001\330\335?$\361\360>\364\257\210\277\n\013q\277t\3418\277KH\004>\315\226\206>\220\016\275>J\354O?\367+\377\2773\272\353\277\372\264\273>\270rL\277\365\355\304\275\003m\331\277\277_/\277\207\375\231>\322\223\214\275\002\2457?\200g\312\277y\353\357>\262\r\236?Svt\277\362/\010\277,x\214>\022O\261?|+\224?\305\307\213\276\301\252P\277\201\2227?\221\321\336>\372\367\355>\200\214P\277\214+\206>\267;\324\277>\221\235?\334\'\027\277|\217\003=JO\350\277\362\263\232>9E\275\275\003\346\242?t\345\256\277D\376V\277Y!\017\276\263\2306\277b5w=\027\345(\277g\330\272?\337W\016?]\234{>B\201\214\276\274\250\364?54\035\277w\344\251\277\224\244D\276\200\221\345= ,\240\275\366\375\214?4U\\\2775[|\277\235\331\203?\262\370\274\277h\016\236?[Z_\276\271I\214?\314,T?\200\227\277\276L=p?8\277\206?xPq\276\271\300\211\276\2454d\277\336\335\271?\204a\275\277\343\366r?\206\207p>\353\215R? @m?\341\357\260\277\344\024\322>\347\273R>\"\354^\276\254\332\270?\202\242\220?\276P\207?z\3040?\234\027\004>\256n\226\277\005>\311\277Y\344\324\277\2252\222>]\031C>F\222\252\276\020h\300?\367\251S>\232\335H?\232\305\036=\367\316\007@\231;\322\275\216\362\203\277=\244\353?\243\212\324>F\253\213\276\207A\327\277\363;;?;\315->\031\272\313\276&\232A\277\242\224i?i\351\344\277L\350]\2777\016+\277\214\250\306\2769\r\214>(\216\312?8?\311?\341\000\375\276,G\345>\325Ml=\367\0002@<\321H?\207\362~\277\206\376m\277\360\264\231>\335\217{\277\2316v>\226\304\310\276\263f\000\277\024oF=\330\374\260\275\342W\263=\016\364\222\277\344\363\324\275\312t\001\277\226g\362\276_o\365?*\361\021\277?\240n=\262\254\\\2768\365V\274X\\\014@+\246\335\277m\265\237\276K6\013??R\261\277\357\013m>\014\027\273?\030\353\007?-\246;\276\004\215x?\016!\350\276\017\033I=\212\276\025=\322\343\t>\354Nh?\020B \277\034!-?i\223\001\275)`\355>\177\245f?jq\230?\353\320|=>\013S\277o)\354\277c\225\017?\367+\217=\001\243g>\202\217~>\214\340\001\277\0047~<\232x\213>N\253\366\276\260\032\356>\304F\261=\031w\036\277\r\342\200\277h\214F\277\002f\227?\363\270J>\311\3176\276\264\'P>G)8?z\200\312>:\333\016\277\211\323\222?N\322\251\2753+\335<\223\020\013\276\200\331\225?F{\313\276\343&f\277=\231\314>\271_\330>\342\314 \275\341\351\262?\\(\207\277\035\371\030\277d\251\251\276\n\025\322>\276\366\010\276\227\333|\277\325\371\220\277\240\203\352\277(*E\277n\333$@-\313\375<i\244\276\277\352d\253>\311\313\213\277F\223\331\277:;.\3009\225F?\\\3359?\035\353)\277\014\001]\277}L\017>\0308\230?\314*\237\277\256\2570\277\224\222d?\251\212D\276)\n\010@\002D$\277\271\3072\277\321\272\353>p\260\222=j\311\034?\276CJ?\333\312\245\277\233#\255\277\2237\226=\257\245d?U\003\253>\333\242\203>Z(\207?\211\361\277?\'~D\276\032\217\214\277\261\213;?V)\265\276\364o\241?\361\306\264?L\334 >p\221\351\2760\234\265\276\333\371\252?\032y\302\276G2(\300\003t\"\276\204\256\213?F(o?Q\267x\276z~I\277O\031\341\277D\263\242\277\363\243\346?0\275\325?\312\2179@\014\0142@\335\3360\276?J&\277vAu?\345M\262\277\013nP\27745R\277-\253;?\360=\276\276|\265l\277\352;\331\276M\366-\300\216\252\275?\334\370\303>l\221\363>\302(\315\276\027I:<~\364\221\277\221%$\277f.\200?<.4\275?\327\305\276V\341A?\207\023:?\244\367\256\2762S%>\034\036\010?\301\r\271\275\'\276\024?\206\351\016?r=\301\277\226<\'\277\313\241=?\261\275\207?\004\343N?\232\361v\277\263\345!\276\335\377\301\276\"\307\273\277\363\177q?|d/?\355\364h\277\014_\017>R\352\306?\213\244\365\276T\007\032>\223<\247?\334\2615;\034\356\255?\237\363\273?\214Sm\277\360\372C\2777?\320=\004\r7\277\257\256\030=\276F\252\277S)\010? \2248\273\254i\254\276\224\031\213>\366;\351>h)\007\277\273\261\333\277\262\036\010\276\374s\263\275\014\\\254\276\256\267\001?r=\024\276XC\350=5~\020>\214\323\261?\216\037J\277b\207\205?kF\306\277\341/\313\276\313\324\344>\257\267\250?{\254\337>\357\303\254?\230\007\330?XfY>[9(\277\226\377\214?a\261\004\277\002B&\277\037\r\013\276V\'\033>2\211F?hH\214?\014\323\332?f8\262>\250\271G\276@N\005@P\206D>P|\371?\211\310\233\277%0\245\2771<V\277Pp\247\277\265\332\206\277V\225A\277<\227\020?\340k\301\277\000\223\014\277\201\'\230?\227@\022\274\200\207\341\277z\332<>\313\213\020?2}f?esN?$}$=\035\305*\277\246H\252>\235\254P?\361\021\376>\2479&\277\316g!?O\254\"?\377\373\305?\223K\031\277|\001H?\201\314\242>\263oo?z\3120\277\317)d<E\364\272\277\200\003~=\010\033\'=\307\303\324\277|ZL\277G|\021?<=2\277$\364`\277/.6?\200\353x?\231TL\277\217%i\277tFa@\334\336\226\276\214\345\200=\305\262\236\277L\321B?0\217]?\232<\266>\303\314\202\277g\270\220\2775\034\202\277\235\025\211\276\251\0212@n\203\217\277\352\217\322>7\261,\276e\271\241\277\327\251\273\277*\374Q\277\362D\304\276\375\317\264\275\371)\336?k\353p?c\261\304=\350Bx\2770\271\376=4\177\240\275\037Qz?\350\373\370>\200\253\366\276\373\357K?`\035u\277"
      }
    }
  }
}
node {
  name: "filterW1/read"
  op: "Identity"
  input: "filterW1"
  attr {
    key: "T"
    value {
      type: DT_FLOAT
    }
  }
  attr {
    key: "_class"
    value {
      list {
        s: "loc:@filterW1"
      }
    }
  }
}
node {
  name: "atrous_conv2d_transpose2/SpaceToBatchND/block_shape"
  op: "Const"
  attr {
    key: "dtype"
    value {
      type: DT_INT32
    }
  }
  attr {
    key: "value"
    value {
      tensor {
        dtype: DT_INT32
        tensor_shape {
          dim {
            size: 2
          }
        }
        tensor_content: "\002\000\000\000\002\000\000\000"
      }
    }
  }
}
node {
  name: "atrous_conv2d_transpose2/SpaceToBatchND/paddings"
  op: "Const"
  attr {
    key: "dtype"
    value {
      type: DT_INT32
    }
  }
  attr {
    key: "value"
    value {
      tensor {
        dtype: DT_INT32
        tensor_shape {
          dim {
            size: 2
          }
          dim {
            size: 2
          }
        }
        tensor_content: "\000\000\000\000\000\000\000\000\000\000\000\000\000\000\000\000"
      }
    }
  }
}
node {
  name: "atrous_conv2d_transpose2/SpaceToBatchND"
  op: "SpaceToBatchND"
  input: "conv2d_transpose1"
  input: "atrous_conv2d_transpose2/SpaceToBatchND/block_shape"
  input: "atrous_conv2d_transpose2/SpaceToBatchND/paddings"
  attr {
    key: "T"
    value {
      type: DT_FLOAT
    }
  }
  attr {
    key: "Tblock_shape"
    value {
      type: DT_INT32
    }
  }
  attr {
    key: "Tpaddings"
    value {
      type: DT_INT32
    }
  }
}
node {
  name: "atrous_conv2d_transpose2/Conv2DBackpropInput/input_sizes"
  op: "Const"
  attr {
    key: "dtype"
    value {
      type: DT_INT32
    }
  }
  attr {
    key: "value"
    value {
      tensor {
        dtype: DT_INT32
        tensor_shape {
          dim {
            size: 4
          }
        }
        tensor_content: "\014\000\000\000\005\000\000\000\005\000\000\000 \000\000\000"
      }
    }
  }
}
node {
  name: "atrous_conv2d_transpose2/Conv2DBackpropInput"
  op: "Conv2DBackpropInput"
  input: "atrous_conv2d_transpose2/Conv2DBackpropInput/input_sizes"
  input: "filterW1/read"
  input: "atrous_conv2d_transpose2/SpaceToBatchND"
  attr {
    key: "T"
    value {
      type: DT_FLOAT
    }
  }
  attr {
    key: "data_format"
    value {
      s: "NHWC"
    }
  }
  attr {
    key: "padding"
    value {
      s: "VALID"
    }
  }
  attr {
    key: "strides"
    value {
      list {
        i: 1
        i: 1
        i: 1
        i: 1
      }
    }
  }
  attr {
    key: "use_cudnn_on_gpu"
    value {
      b: true
    }
  }
}
node {
  name: "atrous_conv2d_transpose2/BatchToSpaceND/block_shape"
  op: "Const"
  attr {
    key: "dtype"
    value {
      type: DT_INT32
    }
  }
  attr {
    key: "value"
    value {
      tensor {
        dtype: DT_INT32
        tensor_shape {
          dim {
            size: 2
          }
        }
        tensor_content: "\002\000\000\000\002\000\000\000"
      }
    }
  }
}
node {
  name: "atrous_conv2d_transpose2/BatchToSpaceND/crops"
  op: "Const"
  attr {
    key: "dtype"
    value {
      type: DT_INT32
    }
  }
  attr {
    key: "value"
    value {
      tensor {
        dtype: DT_INT32
        tensor_shape {
          dim {
            size: 2
          }
          dim {
            size: 2
          }
        }
        tensor_content: "\001\000\000\000\001\000\000\000\001\000\000\000\001\000\000\000"
      }
    }
  }
}
node {
  name: "atrous_conv2d_transpose2/BatchToSpaceND"
  op: "BatchToSpaceND"
  input: "atrous_conv2d_transpose2/Conv2DBackpropInput"
  input: "atrous_conv2d_transpose2/BatchToSpaceND/block_shape"
  input: "atrous_conv2d_transpose2/BatchToSpaceND/crops"
  attr {
    key: "T"
    value {
      type: DT_FLOAT
    }
  }
  attr {
    key: "Tblock_shape"
    value {
      type: DT_INT32
    }
  }
  attr {
    key: "Tcrops"
    value {
      type: DT_INT32
    }
  }
}
node {
  name: "filterW2"
  op: "Const"
  attr {
    key: "dtype"
    value {
      type: DT_FLOAT
    }
  }
  attr {
    key: "value"
    value {
      tensor {
        dtype: DT_FLOAT
        tensor_shape {
          dim {
            size: 2
          }
          dim {
            size: 2
          }
          dim {
            size: 32
          }
          dim {
            size: 2
          }
        }
        tensor_content: "\251\321\321\275\2377\330\276\251\352\010?\245\365g\277$\036j>\330*\253?j\035\013?\276\230\352\275k\317\r\276\233\3313?}\000:>\352Zk\277@\371\201?\034x\017\277\363\235W?\243\250\353>F\351D\276`\204P\276\3142\305?\265\3069\300T\206\333>#Yy\277wx\036@\220\366\221?(\256\322?\204\212\214\276\360[%>\216\215\356>[v\260?\261\310`?\245\t\253>\021\002\273\277\353\200\300\276cq\315?tqj?\204-\323?\016A\231?-\247\212\277\236d\222?-W\274\276\341.\244\275\204\rR<\025+\266>\3110\030\277\236|-\277\255\0240?\333\317\273?\260)\330?\275\331\307?=\t\000\300\200\005o>5\353R\277\346}J\277\034v\017?\326y\034\2771\\\365?\353\374>\277u\216\322?\304O\215\277\n\231\357\275\232\325n\2773%\260\276 \301\027\300C\017\270\277\341l\256\275\314\353\213?\3100\217?\313\353\270\275hx\212\277\361E\010\277\334\225\201\275\256\016\230=\255\346\350\277\373\266\235>\331x\017@\022)\323=\205\2214\277\244UD\277\022\300\306?\343\037\205\277\223\250\n\277\024\240)?\3209-\276*\367\362>jUZ\277\\=b\277D\030Z?\227p\247\277\331u\347=\356\305i\277\270\325\221?\263\0334\277P\277\337\276%\227\037>\277\257\221?\216>\226?9\000\356\276\341/\032>\342+2\277\315\222\346>7v\025\300\205\276\n?\247\373\207\277m\320>\277\020 \243\277\310y`?\220\350\231>\3321\274?B\235a?oU\325\276\253\304\324=\2755\265>nJ\036\2768a\364\276\252\223f\277s9\214\276\"Q\265?\361,u=\001\325\016@\264o\374\276\"?\272\277\360\017\334\277c\203t\277\371\007\256?\025-\306?\267\352x\276\233\361\371=\212\360\266\276S\2133?^i=>Y\227\250\276\306\214\010?\004t\261\276SLQ>\023\245A>\001\227\277\277bb\222\277=\361\026\300>\2605?\315\305\014\276\261\312H<\214U\007\277\352\026\006\277\371\306\004?MK\360\277B\374\235>_\3638<\323\303\177\276\030\235\r@\210\212\203\277\365 \220\277\273\335\345?\021\304\265>\263\365\216\2773\312#\277\361\230\214\277^\250\212=hzp?\204\216^>\272O\246?\230\250?\276\3348\232?\301\272\315>\001\366\331\277\027\257!\300<\214k\276\211\001\207\277\014\340\237=1}\360=\214\231d?E;\005?\234G^>\234\316\256\276Joo\277\337\240\236?\321\212\321>\211{\031?t\005\001\277\214D\211\277\343\340\225\275\2678u\277\361R|\277\317\000j?y\307#?\"\034\013@\264{\355=\007K\351\277lO\314=\253\200\030\300\222\311\317\276\242\310g?\227\016\256><}\350>\304<\215\277P\325\014\300\377\371\007\300^\214K\277\335\215H\277?\'\211\277\036\230R\276\267\211\002\277\362Z\236\276\310\260\n?\250N\226\275\366\370\177?b\3662\276\317\337\362>\374</?v}.\272u\313\364>\032\276_\276\373\220\003\300\032\322\257\276\233=u>\264\021\n>\315vi?\010D\252?)D5:\0042\333\277\334\017\317?\002}\005\277[r\031\276\032\220\202\277\211p\330=\024|\362?\003\023\271\277E\033\361\276\223\354\250\276\202\211G?\247;\001\277j3\005\277\337\034\217?)\321\272\277\033\224\263>+lI=\227\345$\277:\277\026\277I\221\341\277l13\277\021Zj=\274{\365?\300\002\204>\210R ?H\212#\300NG\343?\214\005\035?\342\302\327\276\260T\001\277\314_\360<\016K\346?-\216?>\n\253\247\276\253\232\246\276\263\263\346=E\025\234=\212\263\246>"
      }
    }
  }
}
node {
  name: "filterW2/read"
  op: "Identity"
  input: "filterW2"
  attr {
    key: "T"
    value {
      type: DT_FLOAT
    }
  }
  attr {
    key: "_class"
    value {
      list {
        s: "loc:@filterW2"
      }
    }
  }
}
node {
  name: "pointwise_filterW2"
  op: "Const"
  attr {
    key: "dtype"
    value {
      type: DT_FLOAT
    }
  }
  attr {
    key: "value"
    value {
      tensor {
        dtype: DT_FLOAT
        tensor_shape {
          dim {
            size: 1
          }
          dim {
            size: 1
          }
          dim {
            size: 64
          }
          dim {
            size: 8
          }
        }
        tensor_content: "\210>6?A[\313?\r\356N\277;\227\254\2769\021B?9m\313?\260\252\350\277\027\253\226\277\366\252\365\275\324\312\353\2756W\023\300\326\241\215\275\370G\352\277\234\300\221\277\345\336E?5Q\000?.\316\231\277\362\211.\277`\323\376\277\245A\241\273X\352\216?D\2401?\264\t\241?\t\253o?Q\263\362\276s\213\211?\332Or>\346\005\032?8\325\030?\251\241\021?\256U\001@\034$\261?\266\035\272\275\340\256\273=-\244\347\277\004\357\351;\016\327\030\277W\033\241\277\231\312\317>m\006;<b\255\000;\3375|\2762\302\313\275\362\247\314\277.\014p>\331X\201?H\022\270=L\245\002@\017\274\253?c\213=?\177/\\\277\331\370\232\277\251\263\005@\355\320\360\276D6\030\275(f\225\276\373\302\345\276E\360\214\277xC\220\275V\341\355=\334\356C>\375\323\265\277T\275M?l\345n?\227\252K\276`W\322>n\251\354?\217\355\257\277r\307\370>\222\317\005\276\215\357\274\277\201\003\353\276\3263\211\277\3629\200\277\262\017-?c\311\364?7\336u>z\361\214?\243\244\221\277F\356{\277\306\353\244?\243\002\203\277\202\332\271?$d\363?\373\354\020\277\202\222\311\272\004\227\310?\303\030n?\215-\327=\013\346`?^)\317\277\307\234\232?~\323&?\253\334)\277w\355\340\277/\206\341>R\t\010\277yH.?\241\017\030?\300_\275<Z\223\320=U\267\251>\036q\272\277}\334~\277\321\022\202?\202\257\332\276\353%L\277\207\235\316>\244\314<?:y\233=\027\315\014\277%\336%?bD\256\276]\237E?\256\266\261\276(\273\367?\275}\325\276\031\243\375\276\326p\260\276\243\214V\277\026\232|\277\355\265\246\277\035\331\355\2773\240<?\235\234\353>\271\210\232\276{\367\246?n(\325\277{\230\020\300\340\332k?i6\361>\326\323\301\277\022\234B\276\353\3155?T\362\270\276\242\224\243?LY\307\277\031\342\274\275\232\020\003?\305\361\347\277\251q%\276\262\205\003?b\257\005\2770\301z?Xs8\300B\323\353\276\274B\004?\363\227\324\275`\232\276>\251\230\232\274j?\221?\037\331\365>\217\305%\277u\206v\277\333v\256\276\013\216v\277`\211q?\360\031\307\276\3740?\276q|W\277\276.\347?\334\247\n@\337n\326>\325Q\306>\263/\223\277K\203\230\275\341P\010\276\273\311\212?\343\333\316?Z@??\177\252\220?\353<\366\277\006\346\320\276\215T\344\277\257\344E?m\265\n\27753\261>\030F\271\276\327\373\273\277\373\340\220?!6i>L\345\017=\337\276A?\332\021\275\276\242\201\241>\365\3740?D\203\003?&VV?\241V\237?#X}\277\025y\004?\357b\032\277\206\235.\277?m\252\277\304\342e\277\211\321f?\300~\230=I\231\214\276\001\001&?x\301\203\277\353\004\013\277lq\353\277\016g\342\275\357\276\025\277\306Uy\2764d+?\250_\304\277\2174\245\2765\225h?\013\031\367>V\350\257>\215\0012\276\251\3020\277\334\262/?\264P\004?L\200\013?\t[\300\2751\326\355\277\260H>@\370<\345>\345m\030@a\262\203?8\261|\277Z\272\241?\227\027\356\276\263H5?\240\330b?:\320\220\275\351\026\271?\310\265\267>[\262\235\277v\324O\2775\n\206?\350~\257>,\351\022?\363cn?\230\177N?\264\205\266?\216\202\027?\337\273M?\230\272m?\341\321\230?\032\242\000\300_Z\007?<\360\242?`\314\023\2774Y\237?vf\036\277\275\337\212\277\244c\030?\037\314\323\277\016\313\343>\nz\016?\355e\002\277(M\007\277h\371\266\277\214\343\023\277N\314d\277\003\005\253?\277\213\003\276N\303\252\277\306\376Y>q\371\354?+\'\371>\271\365\t\277\307\367\270\275N\262\202\277;H\007\277A\255p\2763\177\347>\367\267i?r>\243\277\236\327\252?\373j\271\276Y\222r\277l\004\016?\017\274\226\277\270\310\366\2759\231\235=\274\334\261\276\266\366\027>\310Vn?V\334w?\005\177\203\276\247i\211?r\347\330>\334\3643\275\351\250.?\303\007\n\300@:\"=A\303<?_\234\221?`0l>\361s\230>M\252Z\277\361\036\267\276\0336\222\276\007e\373>n*\362>\314}\271\277\201f4?i}\347\277\303\364\260>ij\t\277\337?m?\3708\003\277\302\031\247?S\034 ?`\325\223\276\377\310D\277\014Zj\277\370\375\331?\246Y\346\277sb\365\275\377\215\205\277FHQ\277u\201\302\276\314\251\r=\243\305\327?q\234\275?\217X\235>=7!\277J\313M>\213\253\330\276;T\325\277\244Q\300>\250y\263?\255\353\r\277\034\262\214\277o\254\377?\337z\317\276\020u\244>\343e\014>\304S\023\277\3726\013?f\314\023\276\237\363\236?\000\217q?\306\262\347>dq$?\301\031\253?\033R\272;@\223\370\276\333\354\000\276l\003\243\277[9\225?\230\311\241?\333N\246\277\327\2273\277)0\271>`\002\261\276\326\242\343>Z\264*\277L\032\371>\003.\335\276R\203\346\277\330[\'\277p\014\236\277MV\204\277\274\2552@sf$\276\262\262e?\305(\225?\023<\031?\373\344)\277\231L\230?#\326\026\277\244#\315?5\266\225\277\262jb\277\006\264\221?\t\'\221?O\345\010\277L\210\022\277\233!\210?\023\347\234>\001\002X?\r\315[\277\357\0347\277\010p\343\276\006\340\305\277\364i\254?\205\217\261>\013G\231\277\'\212\215?\027w%>+\252\277\275\301\024\221?y\013l\277\233\250\360\277>I-?NBM\277\334\\\001\300\211d\323\275\254lI?|\271\202?-\r\t>\031d\264?;\234\025?\0140}\277\002.\304?\"^s?\3101\002\276\340\243e\277o\357\200\276\332R\"\277I\275n>\005G\226\275\254\036\216?\017\242\206\276K\366\361>o\000\373?\021(\200>=\345\233\274\374i6\276\242\221!@f\005\340?]{\000\276\234\n.\277>o\220\276\27774\277\224\356\207\277\262C\317\277\t}5\277\274Rx?\343\327\307>\220\'i\276\337\265\271\275\372\273\365\276x\273\271\276\357=\005\277Sy8?\013\363h\276\t;\305\276I8Y?9\002\246\277\003\244\254>\245\177\362>CpM\277\177\350\005\277 \344=\276_\311\006?]\227\266\277N\212\030\277h\200,\275=\324\"\277\314#\340>Np\231>\00652\277\210.N\275\256\363\223\276\203!#\300\215\016=?h&\375>\235\344\275\276\252\017%?H\037\236>H(\t\277`s\276?\036\260\264=\207\331\203\277t\273\030@\261!\357\276<\265$\277\313$\007@\266\021\n@\"\262o\276\221\033\247?\206\347\"?\350\314\244=\333\333\317?\371b\334=\353a\216?\002\212,\275\2778\326>\322r\205?9\365\375\277\350:H>#\272D\277R\245\215?\270l2?\345\t:\277,\340\323\277\234\215\315>\246\371h?\362D\212\277\2134\202>g$\315?\304~\356>V\340\014=\244\330\344>\217\271*?r_\260\276O\025\277\277\t\240\244\276\373v\262\275\233\010\336?\233y9\275\311\354\220?\365\355q?\035\\\246?\314J\204?\355\273x?\006\241\264\277\026\010\324\277\351%\265>\351\371\202\277\337\311\316=h@\277?\252dx\277\201\275\005@\326c\216\277"
      }
    }
  }
}
node {
  name: "pointwise_filterW2/read"
  op: "Identity"
  input: "pointwise_filterW2"
  attr {
    key: "T"
    value {
      type: DT_FLOAT
    }
  }
  attr {
    key: "_class"
    value {
      list {
        s: "loc:@pointwise_filterW2"
      }
    }
  }
}
node {
  name: "separable_conv2d3/SpaceToBatchND/block_shape"
  op: "Const"
  attr {
    key: "dtype"
    value {
      type: DT_INT32
    }
  }
  attr {
    key: "value"
    value {
      tensor {
        dtype: DT_INT32
        tensor_shape {
          dim {
            size: 2
          }
        }
        tensor_content: "\001\000\000\000\002\000\000\000"
      }
    }
  }
}
node {
  name: "separable_conv2d3/SpaceToBatchND/paddings"
  op: "Const"
  attr {
    key: "dtype"
    value {
      type: DT_INT32
    }
  }
  attr {
    key: "value"
    value {
      tensor {
        dtype: DT_INT32
        tensor_shape {
          dim {
            size: 2
          }
          dim {
            size: 2
          }
        }
        tensor_content: "\000\000\000\000\001\000\000\000\001\000\000\000\001\000\000\000"
      }
    }
  }
}
node {
  name: "separable_conv2d3/SpaceToBatchND"
  op: "SpaceToBatchND"
  input: "atrous_conv2d_transpose2/BatchToSpaceND"
  input: "separable_conv2d3/SpaceToBatchND/block_shape"
  input: "separable_conv2d3/SpaceToBatchND/paddings"
  attr {
    key: "T"
    value {
      type: DT_FLOAT
    }
  }
  attr {
    key: "Tblock_shape"
    value {
      type: DT_INT32
    }
  }
  attr {
    key: "Tpaddings"
    value {
      type: DT_INT32
    }
  }
}
node {
  name: "separable_conv2d3/depthwise"
  op: "DepthwiseConv2dNative"
  input: "separable_conv2d3/SpaceToBatchND"
  input: "filterW2/read"
  attr {
    key: "T"
    value {
      type: DT_FLOAT
    }
  }
  attr {
    key: "data_format"
    value {
      s: "NHWC"
    }
  }
  attr {
    key: "padding"
    value {
      s: "VALID"
    }
  }
  attr {
    key: "strides"
    value {
      list {
        i: 1
        i: 1
        i: 1
        i: 1
      }
    }
  }
}
node {
  name: "separable_conv2d3/BatchToSpaceND/block_shape"
  op: "Const"
  attr {
    key: "dtype"
    value {
      type: DT_INT32
    }
  }
  attr {
    key: "value"
    value {
      tensor {
        dtype: DT_INT32
        tensor_shape {
          dim {
            size: 2
          }
        }
        tensor_content: "\001\000\000\000\002\000\000\000"
      }
    }
  }
}
node {
  name: "separable_conv2d3/BatchToSpaceND/crops"
  op: "Const"
  attr {
    key: "dtype"
    value {
      type: DT_INT32
    }
  }
  attr {
    key: "value"
    value {
      tensor {
        dtype: DT_INT32
        tensor_shape {
          dim {
            size: 2
          }
          dim {
            size: 2
          }
        }
        tensor_content: "\000\000\000\000\000\000\000\000\000\000\000\000\000\000\000\000"
      }
    }
  }
}
node {
  name: "separable_conv2d3/BatchToSpaceND"
  op: "BatchToSpaceND"
  input: "separable_conv2d3/depthwise"
  input: "separable_conv2d3/BatchToSpaceND/block_shape"
  input: "separable_conv2d3/BatchToSpaceND/crops"
  attr {
    key: "T"
    value {
      type: DT_FLOAT
    }
  }
  attr {
    key: "Tblock_shape"
    value {
      type: DT_INT32
    }
  }
  attr {
    key: "Tcrops"
    value {
      type: DT_INT32
    }
  }
}
node {
  name: "separable_conv2d3"
  op: "Conv2D"
  input: "separable_conv2d3/BatchToSpaceND"
  input: "pointwise_filterW2/read"
  attr {
    key: "T"
    value {
      type: DT_FLOAT
    }
  }
  attr {
    key: "data_format"
    value {
      s: "NHWC"
    }
  }
  attr {
    key: "padding"
    value {
      s: "VALID"
    }
  }
  attr {
    key: "strides"
    value {
      list {
        i: 1
        i: 1
        i: 1
        i: 1
      }
    }
  }
  attr {
    key: "use_cudnn_on_gpu"
    value {
      b: true
    }
  }
}
node {
  name: "filterW3"
  op: "Const"
  attr {
    key: "dtype"
    value {
      type: DT_FLOAT
    }
  }
  attr {
    key: "value"
    value {
      tensor {
        dtype: DT_FLOAT
        tensor_shape {
          dim {
            size: 2
          }
          dim {
            size: 2
          }
          dim {
            size: 8
          }
          dim {
            size: 4
          }
        }
        tensor_content: "\340x\312?}\357P?\020\343\241?o<\034@\'\254$\277\254\346\006\277\010d_?jc\025\300\316\003j\277g\264&\277OT\223\276\037v\t\275\377\377 =h\372\265\2769\221\353\277\014\000%?\013\3025\277\002?\225\275\202\235\025?,\367\007?\366\341\251\277\251\020\036?\362!\220\277\030E\307?-8\223>\250\307T>\3614u\277\226\177;?.y\207?\375.\252?o\201\241\275\032\233\273\277\357\207\020?\254\267\313>\333\323\265<\"b\202?\372\224/\276+E\224?\311r\241\277\276\\\254?\024\030J?\306\240\233\277\341\364v<\261\314\336?G\227\322\276\230\014\364?\276]\346>3\333\024\276[\377\271>|\326\211?o\2141\274\347\317\374\276\321\005\032\277\254\212`?n\262\334\275x\306\222>Vl\347?D\241\265?\3530%?\223\322+\276\035 \237\277,=\266>\017\037\204?\301 \r\277B\227\214\277\367\n\262\276\314S\304\276/\006\022\277\352T&?c\263\362=Q,\235\277\361\205\260\276\236\246\253\276u\226\320=\r\311\224>\342.\030\277\300u\212>>[\256?\357jx?\233\236}?\rR\330\276k\206\016\277\033\272\303\275\270\333\246?8D/\2770\260$?\217\261(\277\213K\007=\014\013\263\276\004\357+>\r\261\020@\324\277\301?E\030#>\372%\027\300\210.\315\277}\265\301?;s\260>J\025\335?2\303\216\277\224z\327=\3314\232\277S\217\n?q\307\354>F\217\234\277D\274\227>\301\313\r?\212\202\320?\\\212\265\277\020\252\305\274\267\251\236?\315\324\266>E\r0\276\305\224\231>\342/v?9\222U\276E\250\203\2758&*\300\021\\\337\277\331\363\361\276\226\270L>\271\371\202\277\213\261\261\276\016\2628\277\243\"M\2778\310\246>w\206\334?`\254 ?\244t\244?"
      }
    }
  }
}
node {
  name: "filterW3/read"
  op: "Identity"
  input: "filterW3"
  attr {
    key: "T"
    value {
      type: DT_FLOAT
    }
  }
  attr {
    key: "_class"
    value {
      list {
        s: "loc:@filterW3"
      }
    }
  }
}
node {
  name: "depthwise_conv2d4/SpaceToBatchND/block_shape"
  op: "Const"
  attr {
    key: "dtype"
    value {
      type: DT_INT32
    }
  }
  attr {
    key: "value"
    value {
      tensor {
        dtype: DT_INT32
        tensor_shape {
          dim {
            size: 2
          }
        }
        tensor_content: "\003\000\000\000\002\000\000\000"
      }
    }
  }
}
node {
  name: "depthwise_conv2d4/SpaceToBatchND/paddings"
  op: "Const"
  attr {
    key: "dtype"
    value {
      type: DT_INT32
    }
  }
  attr {
    key: "value"
    value {
      tensor {
        dtype: DT_INT32
        tensor_shape {
          dim {
            size: 2
          }
          dim {
            size: 2
          }
        }
        tensor_content: "\001\000\000\000\003\000\000\000\001\000\000\000\001\000\000\000"
      }
    }
  }
}
node {
  name: "depthwise_conv2d4/SpaceToBatchND"
  op: "SpaceToBatchND"
  input: "separable_conv2d3"
  input: "depthwise_conv2d4/SpaceToBatchND/block_shape"
  input: "depthwise_conv2d4/SpaceToBatchND/paddings"
  attr {
    key: "T"
    value {
      type: DT_FLOAT
    }
  }
  attr {
    key: "Tblock_shape"
    value {
      type: DT_INT32
    }
  }
  attr {
    key: "Tpaddings"
    value {
      type: DT_INT32
    }
  }
}
node {
  name: "depthwise_conv2d4"
  op: "DepthwiseConv2dNative"
  input: "depthwise_conv2d4/SpaceToBatchND"
  input: "filterW3/read"
  attr {
    key: "T"
    value {
      type: DT_FLOAT
    }
  }
  attr {
    key: "data_format"
    value {
      s: "NHWC"
    }
  }
  attr {
    key: "padding"
    value {
      s: "VALID"
    }
  }
  attr {
    key: "strides"
    value {
      list {
        i: 1
        i: 1
        i: 1
        i: 1
      }
    }
  }
}
node {
  name: "depthwise_conv2d4/BatchToSpaceND/block_shape"
  op: "Const"
  attr {
    key: "dtype"
    value {
      type: DT_INT32
    }
  }
  attr {
    key: "value"
    value {
      tensor {
        dtype: DT_INT32
        tensor_shape {
          dim {
            size: 2
          }
        }
        tensor_content: "\003\000\000\000\002\000\000\000"
      }
    }
  }
}
node {
  name: "depthwise_conv2d4/BatchToSpaceND/crops"
  op: "Const"
  attr {
    key: "dtype"
    value {
      type: DT_INT32
    }
  }
  attr {
    key: "value"
    value {
      tensor {
        dtype: DT_INT32
        tensor_shape {
          dim {
            size: 2
          }
          dim {
            size: 2
          }
        }
        tensor_content: "\000\000\000\000\001\000\000\000\000\000\000\000\000\000\000\000"
      }
    }
  }
}
node {
  name: "depthwise_conv2d4/BatchToSpaceND"
  op: "BatchToSpaceND"
  input: "depthwise_conv2d4"
  input: "depthwise_conv2d4/BatchToSpaceND/block_shape"
  input: "depthwise_conv2d4/BatchToSpaceND/crops"
  attr {
    key: "T"
    value {
      type: DT_FLOAT
    }
  }
  attr {
    key: "Tblock_shape"
    value {
      type: DT_INT32
    }
  }
  attr {
    key: "Tcrops"
    value {
      type: DT_INT32
    }
  }
}
node {
  name: "SpaceToBatchND/block_shape"
  op: "Const"
  attr {
    key: "dtype"
    value {
      type: DT_INT32
    }
  }
  attr {
    key: "value"
    value {
      tensor {
        dtype: DT_INT32
        tensor_shape {
          dim {
            size: 2
          }
        }
        tensor_content: "\003\000\000\000\003\000\000\000"
      }
    }
  }
}
node {
  name: "SpaceToBatchND/paddings"
  op: "Const"
  attr {
    key: "dtype"
    value {
      type: DT_INT32
    }
  }
  attr {
    key: "value"
    value {
      tensor {
        dtype: DT_INT32
        tensor_shape {
          dim {
            size: 2
          }
          dim {
            size: 2
          }
        }
        tensor_content: "\001\000\000\000\000\000\000\000\000\000\000\000\001\000\000\000"
      }
    }
  }
}
node {
  name: "SpaceToBatchND"
  op: "SpaceToBatchND"
  input: "depthwise_conv2d4/BatchToSpaceND"
  input: "SpaceToBatchND/block_shape"
  input: "SpaceToBatchND/paddings"
  attr {
    key: "T"
    value {
      type: DT_FLOAT
    }
  }
  attr {
    key: "Tblock_shape"
    value {
      type: DT_INT32
    }
  }
  attr {
    key: "Tpaddings"
    value {
      type: DT_INT32
    }
  }
}
node {
  name: "Reshape/shape"
  op: "Const"
  attr {
    key: "dtype"
    value {
      type: DT_INT32
    }
  }
  attr {
    key: "value"
    value {
      tensor {
        dtype: DT_INT32
        tensor_shape {
          dim {
            size: 3
          }
        }
        tensor_content: "6\000\000\000\014\000\000\000\014\000\000\000"
      }
    }
  }
}
node {
  name: "Reshape"
  op: "Reshape"
  input: "SpaceToBatchND"
  input: "Reshape/shape"
  attr {
    key: "T"
    value {
      type: DT_FLOAT
    }
  }
  attr {
    key: "Tshape"
    value {
      type: DT_INT32
    }
  }
}
node {
  name: "filterW4"
  op: "Const"
  attr {
    key: "dtype"
    value {
      type: DT_FLOAT
    }
  }
  attr {
    key: "value"
    value {
      tensor {
        dtype: DT_FLOAT
        tensor_shape {
          dim {
            size: 2
          }
          dim {
            size: 12
          }
          dim {
            size: 2
          }
        }
        tensor_content: "\271v,\276Z\305\206?\005i\356<8\261N\276\267y\020?\304\310\361>\301$\330?\242\254~\277\321\314\277\275\336\031`\276\036y\366\276\021Nu>N\316*?\007\202e?\035G\024@d\206\001\277L$+\277\313G\273\277z\242\020\300\031\022\210?\030\245\227\276M\004W\277\037\323\314>\213\241\253\277\262\360\225\277\371\230\252\277\017\357\205>[\330\246\277\213\310\237?\3442\342\275r\267\212\277\226\231\000\300T\311\346?\327\017z\277\363\tc\276\202\305\365?\233\214\005\276\371\323\236>\300E\007\277\343\"C\277\320\220\023?X\306\217\277[\325U?R,\036>Rz\'\275>\205\202\276\323\216\272\276\246\201\272>"
      }
    }
  }
}
node {
  name: "filterW4/read"
  op: "Identity"
  input: "filterW4"
  attr {
    key: "T"
    value {
      type: DT_FLOAT
    }
  }
  attr {
    key: "_class"
    value {
      list {
        s: "loc:@filterW4"
      }
    }
  }
}
node {
  name: "conv1d5/ExpandDims/dim"
  op: "Const"
  attr {
    key: "dtype"
    value {
      type: DT_INT32
    }
  }
  attr {
    key: "value"
    value {
      tensor {
        dtype: DT_INT32
        tensor_shape {
        }
        int_val: 1
      }
    }
  }
}
node {
  name: "conv1d5/ExpandDims"
  op: "ExpandDims"
  input: "Reshape"
  input: "conv1d5/ExpandDims/dim"
  attr {
    key: "T"
    value {
      type: DT_FLOAT
    }
  }
  attr {
    key: "Tdim"
    value {
      type: DT_INT32
    }
  }
}
node {
  name: "conv1d5/ExpandDims_1/dim"
  op: "Const"
  attr {
    key: "dtype"
    value {
      type: DT_INT32
    }
  }
  attr {
    key: "value"
    value {
      tensor {
        dtype: DT_INT32
        tensor_shape {
        }
        int_val: 0
      }
    }
  }
}
node {
  name: "conv1d5/ExpandDims_1"
  op: "ExpandDims"
  input: "filterW4/read"
  input: "conv1d5/ExpandDims_1/dim"
  attr {
    key: "T"
    value {
      type: DT_FLOAT
    }
  }
  attr {
    key: "Tdim"
    value {
      type: DT_INT32
    }
  }
}
node {
  name: "conv1d5/Conv2D"
  op: "Conv2D"
  input: "conv1d5/ExpandDims"
  input: "conv1d5/ExpandDims_1"
  attr {
    key: "T"
    value {
      type: DT_FLOAT
    }
  }
  attr {
    key: "data_format"
    value {
      s: "NHWC"
    }
  }
  attr {
    key: "padding"
    value {
      s: "SAME"
    }
  }
  attr {
    key: "strides"
    value {
      list {
        i: 1
        i: 1
        i: 1
        i: 1
      }
    }
  }
  attr {
    key: "use_cudnn_on_gpu"
    value {
      b: true
    }
  }
}
node {
  name: "conv1d5/Squeeze"
  op: "Squeeze"
  input: "conv1d5/Conv2D"
  attr {
    key: "T"
    value {
      type: DT_FLOAT
    }
  }
  attr {
    key: "squeeze_dims"
    value {
      list {
        i: 1
      }
    }
  }
}
node {
  name: "output"
  op: "Identity"
  input: "conv1d5/Squeeze"
  attr {
    key: "T"
    value {
      type: DT_FLOAT
    }
  }
}
library {
}
