node {
  name: "input"
  op: "Placeholder"
  attr {
    key: "dtype"
    value {
      type: DT_FLOAT
    }
  }
  attr {
    key: "shape"
    value {
      shape {
        dim {
          size: -1
        }
        dim {
          size: 28
        }
        dim {
          size: 28
        }
      }
    }
  }
}
node {
  name: "Variable"
  op: "Const"
  attr {
    key: "dtype"
    value {
      type: DT_FLOAT
    }
  }
  attr {
    key: "value"
    value {
      tensor {
        dtype: DT_FLOAT
        tensor_shape {
          dim {
            size: 128
          }
          dim {
            size: 10
          }
        }
        tensor_content: "\325hi\275\330\\\205\275;\225\r?\326\267&?TD\240\277\203\352\244>\222\2735\276[ \303?\362$X\277\312\341\234\277\2502\021\277n\024\033@q-\024=0\237->\337@\332=\311+\026\277\272M\356>\252\341\257\2756_0\277\207E\201>;\2153\275\030\323>\2775\006\313?{N\337=\231N\314\276\214\003\006\277\"\271\246\276\343\260\206\277*\007\261?\306\255\214?(=0\276\255~\327\276@kZ>\345t\200>\252\300 \277\314[\326\277\332C\277=t\247\311>\327\304#?kQ\024\277\200\006\260\276\303\266\270\276i%\317>{\024\354=\230\375t>\273e9?\212p\311=\204\355\215?/\240\223?\212\350=?@1\367\276U\026R>0[#>\234Db?\236\032\236\276^l\223?9\354\026@\200e\022\277\013)\305>re\342>\235V\356<\262\317\216\277\354\366\334\276\033\356\'\277Wp\230\276JG\200>\212Lq?\233H\244\277\370u\r\277\270Z\"?\201,\251=\213Q\247\277\035,\220=\3520\022@\351\243\225\277(8\232=\203HY\276\376\321[>03*>\\-\234>bR-@9\317x>\002\034M>\213\374\013\276{\363\253\276S\035l\277\236\001\205>\373\303`=\267\205\313\277\320~O\277E\002\010\277JJ\200>\235\3122\300\032J\264>\352\002\302?\272\n\254\277\360\210\"@\3734\026\276\365\203\201\277\024h\231?\250\2075@\255\373\234<U\364E@Rp*>\254J\033?^_\232=\277]\006?4\\9\277g\252\'?q\241\335?\300\005\233?WCi?\346JE>&\'\317\2773\357\342>a\307\347?h\033#@\363\220\253\276\203dg?\211\241\223\276\242\327\t\300A\357\220>z\005a\276\311-\002?+\004:\277\326v\326\277\365.\330?:\334\217\277c\0137\275|\204\212?/\t\310\276\031\263\030\300;\026;?m/\272\276\n\022\005\276\016\214d\275\225\327\215\277\344uA=\2357\036\277\360\336\254>\241\354!>MQq\277\236s\250>V\312g>\303\036\023\277\033\353\004\300\345U\215\276\204\267y\275\034g\"\277,\002:\300\306\346\200\276\222Tr\277\265\355\010\276\242\265\017>jS|\276\363H\330?\370\031\220\277B<\213\277\rd\311\2772\265\353\276lOR>\270=\351>K\366\267>1(\n?\340\375\205?j_\004\300\265\321\344=V\360\364?,[a?\336=%?5\036p?\256\324 ?6_\017\277X\352w\276\266\370\350?(\n\332?\334\300\233\277\253\236\016\277;>\204>0\235\003?j\230\031\277q\241\273\276]\336i\277LI\017?\002\0138?\201|\315\276\030\025\307?\263\275\353>b\370\305?\272.\220?\312L\247=\207\021O\277}\373\333\276\"-\273>>\236\036\277\374\317\"?\362\230\030?\336\"^?\246B\005\277\243#\357\276oF\226\277\237;\214>4\304\001\276\020\342\322\277\007\001\"\277\371x\200\277{\306[\276\310\202\303>k\2017<\271v\020@J\332\377\276d\267\244>\312\223\265>\200\212\256>\274\270\243\276m!\211>\365\301\321?\340q\352?wu\324=i\243\270\275\376\327\247\276}h#\300\351L\203>1\317t?%{L=\320\250\232\276\324\253\210>\201\006K?\261z\247\277f\275\363\274\263\322\371>\325\311t\277\275~\t?\2501\r?\367\256\227>o\2524\277r\265\033\277\254\201\033\277\'^\353\277\355\310\372=\034\364\346\275\354\215D?\\\277!\277\245\230\240\277\220\357\342>B_$\277Qk\203\277~\370\216\277\327\002\303=\205\246\022\277\255T\200\277f\204H>e\027\257?$\254\346>\267\305\311>{\353\250?\353\247W\277\237\303\005\275\223\302\014@\037\220\365\276\371\027\214\276Nz\322?c\034\322\277i<\234\277\214\226\360\274\332\235\251?\224\254h\277\356n\214?X\037\020>\274\265\271=\311`\360=\257K\310\277s\266\253\275.\375\021\277H\022\314>\362z<?\014\034&>\260W\273>\331\335\265\276]Ra\277  \302\277\n9u\277j\233\335>AT\000\277&\216\310=j\226\326\2766\276\210>\004\306\246\2772\267<?\0302\002\300\234*7\275\261m\225?hi\r=\306\265\232>NpR\277\217\025\243=\022\350\305\276I\\\374\276A\336>\277\321\305.\277]q\360>`\211\251>\007\201/?\244\377\016\277\016\275\365\277\021\316>\277\"\321k\276\2432\"\277s\177\032?\231rk\277\316\274\325\277\025F.?\235Z\036\277\345\314\205\277\344\344\211?\324-\300>\311\246\212\277\2264R\276P\235\230\277\350\376(\277)\225\226\277\333\260\324>\034>@\2776\254^\276\251\225\303\277#\375l\277;\006\331>\334\233P\277\311\223\026?\230[\310\277\256\032\301>\356n\007?\233I\006?6A>?\211m\357>\n\200 \276\270\204\305\276(\021A\277V\016\364\277*\351\265\276a\001D=\021>!>\007\2100>=\203&\277* \201>\023]\322\273:*\237?\023\n\325>\276g\265>\215\327\332\277\023C}=\365\356\305\277[|\017\277n\"\352\277\375*\251\276\212r\220\2767,\203>\016\3166?C\001]\277\365\374s\277\321\020\336>\365\302\300>\315K\000?\207w\234\277\037\346\023\277G4\261\276\313\033\274>\224+;\277An\201?\014\303}\277Kw-\277\212\025\t?Rk\025>\262r\021\277\376t\275\274\242\216.;!\306\332>\265\007#\300\203\320\327\277\251\310)>`\234\377\275\337\004M?\303\215\t\277\354\240\231\2753\240Q\277\242\243\215?\337\230\254\277\250\366\210?U\253\374>c\001\306?0\364W?\227\271\255\277\330\225^?]\350Z?\205\177?>l*\303\276\037\263q>\247\276\370\277,19\277\300Q\025?<\021\275?8\220\254\277\'\276;\2777\261+\277^\253\215\277\271\013\336>v\202%?\220\\\217\276\364\253\200?\373\272\020?\233k\300\277\211\3406?<z\236?x\301\361?;\253\305?I\3162?\336\341\003\277\371\017\276=v)j>\035\036\223\277/\344>\277f\t\375\276^T\266\277\235\237\022?0\342\004=X>\373\276\204@\323\277\260h\357?\373&\256>\274^\245\277\355\324\371?\353\2607\300\201P\245\273m\262x\276\211\026\005\300k\264\324\277,\373\323>\332y\321\276\343\362h>u\355)@a#\351\277\226zq?\002\241\362?Q3\323?\262\2304\276P\344\303>\315\246[\274\307^\325=\311\302\231?\360(\241\277\326\260\200?\366\236o?\315M\235\277\320\2752\2770\300\256\276\005z\277=R\230\033@0\027<\277;\347\344?\367\216\245?\245-f> ~\210?\236\235=?D[\344\276\266\205\321?\355 \205>O\303\023\277UP4>m\232\222<ph\313\277\333\300\211\275\336\316\212\277\361\230??\2027\313\277\355\207\274=\030\361\205\277\345*\037\300\016fQ\277\340h\312\276nOs?\372\317K?\342\223\245;2\354\252\276a\262]?\207x\310>\253\017&\275\305\337\273?\036\272\177?\302W\332\276g\325N\277\365z\004?\223\017^?2\326\016\3004\371\323?\250\205\370\276\035\263r\276\331\242Q?(\335g\277\216\3623?\305\377]=r\351\236;\3724\250\277FE*=&L\262\276E\225}?\311\266\033?6\301\203?\317\231\330\277\241\353\310\277\254R\"\3008\017\215?\027e\355\276\2610\256=tQ\205\277\376H7?\342QV\277i\242\243\277\035b\215\277@\225\324\275\246\371\242?\220\326\005@4\032\362\276\273\n\250>\257\344\031?\n\373Q\277RN\205\275\021\200\222>E\034;>\334\002\243\276ds\356\276\016\323\247?:]%\275D]\006\277 \004\312\277\036\330h\277\242P\005\277\3118\027\276\323K\262?\226\271]\277\301\217\202\277\321\326\271>\004\227\356\276\214\331\030\277\376\273K?nZ\310\277R\337\032?u\205@\275\033\253\003?\305\342f?\306\234\244?\225\014\327>\357\032\266\277\331R\034?\322\214\205\275\233\231\316\276%\363\312\2778\004\225?\216\nq\277\274\331\026\277\276o\263\276\214X\213>\342\031\247>\2544\276\276Tod\277\304g/\277;\027\022?4\330\311>\274M\330?\263TZ\276~\230j?%\201\007\277get=\264\r\313>\"\336\374>o\370Y?%\310\231\277\036\317W?\000\377\214>\361Q\002@}t\326\275^oV\277\232\315=?\003t.>\351\020\344\276\347\333\254\276\240\201\243>\325N_\277fa\322?b\256\205>)\022\304\276\205\360\215?\262&\231?\206Zb\277\354\325>?t\340\013>x\216m?C\033B?\362\265\260\276\016\346\200>\350\225\223>\005\013\331\276P\217\351\277\377z\316\277 \350\020\277\274\373\345\274\035*\226?\347\007P>Z\231\274;\000\347\377>!\225B?\016)\201\273\311\333\216?K\031\370\276\250\274\333\2772\024\315>\342\033\237\276K\035\r?\234\034\274?qZ\002\277\331\013\364?G\020p?\032\033P?\331v\245\277\311\340\277>\212\024\245\276\177\245p\277\316\243\252\2766\214\237?+Y%\277W\247l?\032u\364>D\352\207>Z\351\220\274\360\260\211\277mJ\250\275N\364\007@\252\204 \277\267\177\202\277\376\222\316\276\271\260J?8/;\2762\322\355?{\363\315>x\241.\277\367T\220\277\260\315\256>9LS?\240\302\266?hY\230\277\034@\345\276|\371\013\300\323B\237\277\256\256\262?\317\200\205?[\277\305\276@-n\276_\273\002\277_\227\226\277u`?\277\"&\205\277s6J\276\3700\007@W\224\224<\026\304\203\277;\333\304>\366\367\207\2760\023J=\024t\313>\t]\220>&\236\302\276\034\322;\300\262\305\276\276\273G\355?\332i\250>N9n\276\316`\006\277\257\010\200?\356\367\031\277\331.\344\276\364\272m\277\204s\200\277\224\031\342=L)\034\277-\354\312=\207\325\016>K\231\205\276\325!\243\276o\362\225\275A\252\234?\277\345b\277\226zz?+\025\345?\025\247\302\277\223\022.\276i\333\017\300\240/l\277w\005\301\275m\344\260?\004Zj?\365\025\013\276\007[\001\277\256W\036>\321\200\204\277#\333\010@R\314*\277L\245\002\277\024&C<GG\025\277\014\004\204\276!\251\256\276\234\316\010\3007g\224?u\331\222\2761\312\037?P\302\257\277io\307?N7\225>\272\032\262?\242\350\225?z\217x<q18=V\246i\277rI\316\276\2336\231\277F6\343?\276iZ\277\344\\+\300\264\003\253?;\021Q>\241\322\005@\233I\227\275\020\327\n\277\026X\004?P]\n\276\323\037\201\277d\232\036\277\331\273Y?\033\222(\276\010*\273\277\307\014f\277o\354\320\277\305#\352>\'H\212\277g\235\364?\252c\354=,\317\231?o,\030?G}*\277^\337\361\275Wa\024>\311;\256\277\315.\226=D<\246\276]t\204?\272\r\242\277&\036\275\277\270\263c?\336\231j\277\314\367\001\277[@\262\276\222-\177\276j\235\321=\206K\245>\342P;\276\207\2534\277d\236\035?\r]\343\277\222[\247\277\342\202\200\276\231\221\211\276U\251d\277\250\202\013\277(\345w?\t2~\276]v\265?\t\'p?\251\320\204\277P\237$\277\007\272\331?o2\267\277\345\344\270\277:\273O\277\2759\344?\256\222\030\2777\260\250\277\265\004z?G&\334\275\316\255H?\036\243\365?\262eG>\370\230\236>\3108\270>\006f\326\277\317\2310\276\342{\034\276c\024\366?%\365\270?\206X\224\277\210\220\213\277\340\037\222>r\305\365>5z\214?\251\010\221\277\033\233g\277\260\204\263\277\\\333O\277\244\225\204?\305\372\254?\273\205\252\274\314\330\223?6\272K\276\3623r\277G\363\215?\014<\242\276\352B\004\276\212}\033\277\376n\031\277\261D\271\277\376\"\010\277\256>\247\276\270:\332?{\035\331?\337\340O?u\237\375>i\013\366>\033\314)\300\007IO??@Q>g\020\307?\251\215\205?\202\036\230\277\223\030\302\277\314r\200>k\350,\274\3646;\276tv{?\254P3>\326a\216\277b\310\000?\272\265T\275\322\276v?\000\356O>\240\257\256?\277\340\360?\343\256X\277\213\310\344?*%\311?`0\375>\353\n\370>lMA\277\030\354@\276\035\003\213\276\372\342\221>`\302\004?VB*\277\362\374\273?\356\275^?\033<b\277R\t\"?\3462\375\277\373\023\277>\335\236?\277\\\0254?<\361\361>\215\240\327>\003\354\330?/\315\244=J\360\271\276\365~\201? \305:?\366\205\272?\302\t\031\277\254C\373\275)\375\241\277(\367\223\276\263WI?\241\"\247<\236\026\017?\210\277D?\246-\016\277\321\231\264\276\013\026\241?N3\230?\023\003\375\275S\304\324\275\3131@\277\222\221\315>\"\200\253\276\004\356&@3\200\355?}\nA?\275\250\306>\241j\330\277\202Jx?I#\366\276\014p\025\277;\211\030\300\017\235\200=\213\362#=\035.v\277\307:A\277\311\310>\276n\003\260>C\252\031\276\347\321\205><f\022?l\372\017?bmG?n\326\377\275La\276>\364\256\267>7\234\260?f\357\232?l\031J\277k\017\366?\020\363\032?\263\345/\2772\2079?\323\177\372>\270\031\302\276\017\351\206?6E\237>\030\207\024\300\251,\243?\315+\031?\001RT@\315\367\236\277dK\215\277f\227\256\277\274\334b?\317@\350?\255b6\277Vu\204>\257<\224\277\243+\237>\250\214\007\277\032I\006\277,.0?\030\024\023@\223\262\325\276\243\350\210\277\3469`\276V\206\301?\000I7?\370] \300\230O\254?\315{ \277\302\252\353>\3602z?\207\010\020\276\215g\013\277&\302\361?\304\250\343\276\014\037E?pJ(?m\302\306>\036}5?\346b\034\275\244\274\313>7E\036\277\376$\374\273\257\'\241=iC#?Z\331\366\277\034\2444\276V\230q\276\307\313\016\275\323j0\277R\234\\\276\221d\275?\t\201\365\273\303\004\273>\256\005V\276\376\361,\300vO\325>\305S;?\251\344=\276&\022G\277F\036\200\277\262\356\371\276\340\225\335\2760G\247\276\211\036\230?\027\217\372=\261\374\345\276E\350\000\276=)\344\276.8\013?\'\266O?\\\364\257\274`\257\022\277\235\341\206\277\335N)\276\277 A\276\361\014\205\277\010\351\205\276\321\306\211\277\300\337\014?D\366I\277\345\336\206\277\031 \024?\376\304I>\271\020\270?|\346\337>\263\316\276\276\366\364\002\300\217\020\312\276\235\035\302?B\030\340\2760l\307\277\257\302\200?\227\361\352=\036\n\027@\320\331\230?F\340@\276bh)\277,\262\255? ]\217\276a\346\255\276\210t6?\226\021U\277I\021\200\277\361|\024\300J\215J?\274{+\277*\265c>]\267\r\277\275z{>\033a\007?]\334\351\277u\247\332?e\227\032>Vs\366>\031\255z\277\356\260\353?!l\360>\036\213m>([\013\276?\000\250?`\253T\277\254\260\377\276\326k\264?\362\313\326\277\177\240&\277\276\0109\277X\310j>\322\202N\277\022\266\030>\036s\304\277\372\351\177?\335\010\273?CCv>\037}\364>\010x\n@\344\267\233?0\002\202\276cB\367\276\005\231x?\326\226\024?1Dj?S5??J$\314\277m\021=>\022G\245>\245/&\277\207\372\332>\371\314\215\277\262\261\007?\177\302\246?\244\305\267?I|\201\277\241\202\033>\245\032o?hr\254?P9\272=\003~#?z?}\277p\220\216\276\341`\034>\345\274\211\276\242\211!\300\267\002!\277\002\231\034>\0169\260\276\331*\360?\256sW\277Bp0\277\361\3669\277\3275\364\2741\354\346\277\030\226\002\277 r\225?\371[\013@\3709\212\277F1w\276\236\206Z\276\356\355\017@\277/\212\277\207\323F\277\352\314\237\277\352\000\373\277\231&\214\277\240\230\021\277\316\374\275\276r\204\"?\341\341\320\275\332\333\023?\304\025=@\332\231\003\300\231\373\023@e\014\353?\365\206\202=\215A\250\277zh\267\277\232x+?\016\372|?Gq\220\276\200\247=?\245\343U>\214/;\276\006\350\220\277-\222\301?\201(\034>Pt\356\276V\220\322?\034}\353\277\301\374\322>Z\200\001@h\2479>\177\360\377\275\306\023\225>&u\036?7\353\333\276\017\262\247\277\241\276\257>\346^\337\275\334\261\260?\332\202\226\276\275\240\251?\340pu>Qm+>\203P\347\276\2245\362>0\323\321\276\223\261T\277?\272C?\371\010\234=3\2414\277\005\313~?\035T\234\276\027\224\364=v\261\272<\321\352\262=\341z\360\276\266\306\277>\005\331f\276\341\317\206>\325\357d\277\207\314-\276\344\350Z?x\372\250>\304\377\372?\313\2547\277}\266\004\275*\033V?ZX\352>\016\335\210\277\3070(?\306q\r\277\334U\263\276\237\361\241?\004\343\372\277F\355\347\276\353\307\357?\244.\342\277\355=I\277z\t\t\276\360\321\343\277\362\020\330\274\227\264\226\277\316\233\243=\300\331\264\277\237l\245>q|,\2762\313\023\300<\302\016?*\"\006\276:i\203\277\324\027\204\275\323z\215\277\001\272\016?,\234\272=\000\375k?.\274\217?\266\005\177\277\257.\\?\032>Z\276\265\310\322>x\223Z\277\224\2225?\376\007\017\277\013\370\337\276B\3773?8p\023\277]\001\222?E\303\266>,\345\226\277Z\255W?\373Y\366\277,\247\331\2772w\370\276\327\032\013?\003\372\034@<\324s?\243e!?cV\214>\323f\204?\025\217L?\352l\022?/\377\374\2766\375\255\276\2528s?O\3325\276\301\211\"\277\205\001\311=\020t\004\276\350\263\037\277\177\353\321?\t49>\342\243\033\300\031`\370>n\265\030\276\205q\265?\374m\032=\205\340\262\276\352O\321\276\331\316k\277W\331\306=\341\227T\277\352!\245<\332A\227\275\252Z\211>\007J\264\277Z\332\222\277Wj1\300<2\206\277\255\235\203\276\224\333l\274h\311\320?9\355\200\277R\303\031?\365\177\365>Bq\372=\r\307f?L5\227?#\247\270\276\223\271\374>\216\204\374\276\277\351 \277sX<?\352\267\260\276\225\241\204?\310\366\236\277\210\300\250\277o\214\036=\370]\341>r\026\245?RQ ?]\026\001\277R,\272\277\324\244\013@\201?\242\277\322,\316\276L\324\276\276\202\020\001\277\017\347\222?\302\302\363\276G\371&\276s\261\023\277c\001P\277"
      }
    }
  }
}
node {
  name: "Variable/read"
  op: "Identity"
  input: "Variable"
  attr {
    key: "T"
    value {
      type: DT_FLOAT
    }
  }
  attr {
    key: "_class"
    value {
      list {
        s: "loc:@Variable"
      }
    }
  }
}
node {
  name: "Variable_1"
  op: "Const"
  attr {
    key: "dtype"
    value {
      type: DT_FLOAT
    }
  }
  attr {
    key: "value"
    value {
      tensor {
        dtype: DT_FLOAT
        tensor_shape {
          dim {
            size: 10
          }
        }
        tensor_content: "\n\260\315\276\222\365o\277a\215\365\276_\260\010\277\023\177\237\277\345\341\254\276L\252\205\276&$\330?b\234\201?\3764O\277"
      }
    }
  }
}
node {
  name: "Variable_1/read"
  op: "Identity"
  input: "Variable_1"
  attr {
    key: "T"
    value {
      type: DT_FLOAT
    }
  }
  attr {
    key: "_class"
    value {
      list {
        s: "loc:@Variable_1"
      }
    }
  }
}
node {
  name: "unstack"
  op: "Unpack"
  input: "input"
  attr {
    key: "T"
    value {
      type: DT_FLOAT
    }
  }
  attr {
    key: "axis"
    value {
      i: 1
    }
  }
  attr {
    key: "num"
    value {
      i: 28
    }
  }
}
node {
  name: "rnn/Shape"
  op: "Shape"
  input: "unstack"
  attr {
    key: "T"
    value {
      type: DT_FLOAT
    }
  }
  attr {
    key: "out_type"
    value {
      type: DT_INT32
    }
  }
}
node {
  name: "rnn/strided_slice/stack"
  op: "Const"
  attr {
    key: "dtype"
    value {
      type: DT_INT32
    }
  }
  attr {
    key: "value"
    value {
      tensor {
        dtype: DT_INT32
        tensor_shape {
          dim {
            size: 1
          }
        }
        int_val: 0
      }
    }
  }
}
node {
  name: "rnn/strided_slice/stack_1"
  op: "Const"
  attr {
    key: "dtype"
    value {
      type: DT_INT32
    }
  }
  attr {
    key: "value"
    value {
      tensor {
        dtype: DT_INT32
        tensor_shape {
          dim {
            size: 1
          }
        }
        int_val: 1
      }
    }
  }
}
node {
  name: "rnn/strided_slice/stack_2"
  op: "Const"
  attr {
    key: "dtype"
    value {
      type: DT_INT32
    }
  }
  attr {
    key: "value"
    value {
      tensor {
        dtype: DT_INT32
        tensor_shape {
          dim {
            size: 1
          }
        }
        int_val: 1
      }
    }
  }
}
node {
  name: "rnn/strided_slice"
  op: "StridedSlice"
  input: "rnn/Shape"
  input: "rnn/strided_slice/stack"
  input: "rnn/strided_slice/stack_1"
  input: "rnn/strided_slice/stack_2"
  attr {
    key: "Index"
    value {
      type: DT_INT32
    }
  }
  attr {
    key: "T"
    value {
      type: DT_INT32
    }
  }
  attr {
    key: "begin_mask"
    value {
      i: 0
    }
  }
  attr {
    key: "ellipsis_mask"
    value {
      i: 0
    }
  }
  attr {
    key: "end_mask"
    value {
      i: 0
    }
  }
  attr {
    key: "new_axis_mask"
    value {
      i: 0
    }
  }
  attr {
    key: "shrink_axis_mask"
    value {
      i: 1
    }
  }
}
node {
  name: "rnn/GRUCellZeroState/ExpandDims/dim"
  op: "Const"
  attr {
    key: "dtype"
    value {
      type: DT_INT32
    }
  }
  attr {
    key: "value"
    value {
      tensor {
        dtype: DT_INT32
        tensor_shape {
        }
        int_val: 0
      }
    }
  }
}
node {
  name: "rnn/GRUCellZeroState/ExpandDims"
  op: "ExpandDims"
  input: "rnn/strided_slice"
  input: "rnn/GRUCellZeroState/ExpandDims/dim"
  attr {
    key: "T"
    value {
      type: DT_INT32
    }
  }
  attr {
    key: "Tdim"
    value {
      type: DT_INT32
    }
  }
}
node {
  name: "rnn/GRUCellZeroState/Const"
  op: "Const"
  attr {
    key: "dtype"
    value {
      type: DT_INT32
    }
  }
  attr {
    key: "value"
    value {
      tensor {
        dtype: DT_INT32
        tensor_shape {
          dim {
            size: 1
          }
        }
        int_val: 128
      }
    }
  }
}
node {
  name: "rnn/GRUCellZeroState/concat/axis"
  op: "Const"
  attr {
    key: "dtype"
    value {
      type: DT_INT32
    }
  }
  attr {
    key: "value"
    value {
      tensor {
        dtype: DT_INT32
        tensor_shape {
        }
        int_val: 0
      }
    }
  }
}
node {
  name: "rnn/GRUCellZeroState/concat"
  op: "ConcatV2"
  input: "rnn/GRUCellZeroState/ExpandDims"
  input: "rnn/GRUCellZeroState/Const"
  input: "rnn/GRUCellZeroState/concat/axis"
  attr {
    key: "N"
    value {
      i: 2
    }
  }
  attr {
    key: "T"
    value {
      type: DT_INT32
    }
  }
  attr {
    key: "Tidx"
    value {
      type: DT_INT32
    }
  }
}
node {
  name: "rnn/GRUCellZeroState/zeros/Const"
  op: "Const"
  attr {
    key: "dtype"
    value {
      type: DT_FLOAT
    }
  }
  attr {
    key: "value"
    value {
      tensor {
        dtype: DT_FLOAT
        tensor_shape {
        }
        float_val: 0.0
      }
    }
  }
}
node {
  name: "rnn/GRUCellZeroState/zeros"
  op: "Fill"
  input: "rnn/GRUCellZeroState/concat"
  input: "rnn/GRUCellZeroState/zeros/Const"
  attr {
    key: "T"
    value {
      type: DT_FLOAT
    }
  }
}
node {
  name: "rnn/gru_cell/gates/kernel"
  op: "Const"
  attr {
    key: "dtype"
    value {
      type: DT_FLOAT
    }
  }
  attr {
    key: "value"
    value {
      tensor {
        dtype: DT_FLOAT
        tensor_shape {
          dim {
            size: 156
          }
          dim {
            size: 256
          }
        }
        tensor_content: "\007h\215=\246\374q=\266L{\273\206\307\252\275D\302\341=:L\345=\346\367\307=\344g\261<g\315\353\274\233\3530=\000\245S=X\035\223\275\206\225K\275Hu\274=\002\206\342=\251~8<\003@d\274\274\335\257=\202\227V\275\273\255j=\263\301\245\2759hi\275\274w\340=\350\366\266=\266x\246\274\360\324\335=\300\216]\275\\^\340<\224sT\275\336\210\233=<\220\321<T\207\000=\225\027\231=3&\222=I\312\207=e\264\374<\343d\260\272 \337\242=6\351\030=!&\267\275\306\355\300=\232{\\<k0\313\275\213\277\362;K`\267=\304\276};\236\204\254\275\223\253m\275\265\340\010\275\367\260\024\275\004?\313\275X\262\236=\241\251\350=\332o;\275&-\031:\312p\006<o\263\250;\230\301\326=\3020\365=\207\353\315\275\237\202\007\275\313\226\322=p\211W<6\235\320=\237`\034\275q\264\234=\335v\374\273Z\237)\2759E@=\3430\035\275Ma*\275\354t\351\275\351\267\020\275\274\020\235=\027G\366<a\214\303\274\322)\235\2756Ur=\306\321\327=\360\342\304=T?\355\275>\215\201\274\220\352G=\020\221\265\275\336\320\n\275Y\253p=\311\023\357\275z\277M=\357\275\232<X\3171=w\312I<\326\236\221=\234\026\337\275N@o\275\375\377\275\2737\000\204=[\017N<M\025\367<j{\307==\337\316\273\021kb\275x@f<H\316\356\2744|q\275@\227\356=\207F\t\275jL\217\275\nb\201\275\202\327\255\275\032Jr\275\331\352\205\275\026\035E\275\231!\t=\251\332\315=\035\215\335=x\242\357=\237\270\336<\024\233\311\275*\252\037=\366\026\254=\274\264\305\275\254\271\351\273\223g\200\275\332\317\240=\221\246\016\275\225D0\275<ga<W\254\325<}\364\227\275\'\033\017<\021Hw\275\n\010\343=\233h\321=\263\333\272\274\311\334&:J\201o=Eb\211<\345\251F\275v\010\313\275l\2448=\350\342H\275\366]\361\274\304^\350=\342a\216\275\223n\265<\221B\331\275\3649\212=\227\036\023\275\016%\271\275Ta(\275\254s\252=\366\212\234\275D^\323\274\344\232\354\2755\362\356\275\205!\373\274\273n\233:/\013\323=}\272\264\275\036\326\223\274$\257\365\275\202Z\201\275g\013\253\2742\312\307\275\357\224\202\275|\000\364<H\027\212=\000,*=\261A\206\275\233\247\026<E\334\316\275]^i;\362\037\237\275\312\034D<J\305\320=\375\207\245=\277H\256<\241\'\332=J\237\321\275\305\327\200=f\010\367;\243\363\330\275\306\344\334=\235\301\276=>\370m=-?\336=rZ\270=W\263\354\275\021n\222\275\240\315)\275Y\311b=\263\225\316=\037#\200\275\342\341\227<s\216\270=\365\241\023=\343\360\005\274\304\317[\275\321\201\001=b\247\350\275*\3141=k\321?\275\"6B\275\330\371\030=%\031e=\241Y\275=z\234\235\274\354\300\313\275\344\357\366\275\t%\035;\332\360\347=\334\036\332=,v;=\244\331\367<E\345\340=\342\341\277\275\337\311\177=\211\233G\275\213\\\273\275\277\320\005\275i\332\261\275\253\032\377\272\023\326\313\275\245\324N\275\255O\246=\016f\366\275Ev\2439[)\271<j;\220=v\023\264\275>\211\031=TB\305=\203\206\356\275\256\317\237;\302&Y\275\177\247\267<\377Y\201\275\351\217H=\253\002\260=\247\273\033\274U\231!\275\000\353[\275\247#\216\275\266\361\034=0b\245\274\223\205\236\275\034\226\222=\332\375\214\275\\s\001=hd\326=Xh\354=\030\305\210<\342\251\210\275\260\364\205\275\324\021\355\274\002\227y=\3669\356\275\262\305\370<\213\231\362\275]\320\213\275X\360\247\275\331^\315=\322\366>\273w\031\275=\004Y\207\275\022\037\207=\024\315<\274\271w\337\275\2179\241\275\266\244\345\275\362\227}\275\354\377\230\274\344\341\034\275+g\346\275\322/\273\275x\256\274=\225\216\262\275bs\314<X\260\224\275q\241\207=ov8=ut\230\275)\262J=\340W|=\202-\321<\250\273\211=&O\325\275\267\336\212<\035\210\366=\307\265\352\274\216\341Y<\265O\272\274\323\325!=\017\257\260=\375>\337=~\340\212\275[3k\275\2072\241\275D\001\337\275\271_b\274\324\346W\274\366\004\321<g\026y<\337\032\252\275p{\222<\021\302\310;\013w\307=\317\014d\275l)P={\242\332=\327\244\347\275\217\026\251\275ef\325=X\210\372;T\234\345:\303\n\301=+\235\321\274ToA=Aa+\275q\314\212=u7\376\274\264\340e\274\342\341\221\275\225n\013\275\363G\354\274\371\254\343\275\277\002\340<\262AB\273\016m?\273\327\274y\275\341\322u\273\320\251\247=\030U\221\275&<\243\274\314\020\311<2\261\340=D\267K=\303[\337\275|\"H\275\335\3207\274\330\350\233=i\331&\273S~\022\274w\334\361\275\266\222\220\275\337\245\207<R\256_\275\343\n\034<7\216%\2724(\311\275\021~\362\274K\214\332\274\222K\305<\341\316\336\275\253\277\334\275\237\210\320=\347C\220\275\334\307\352=\307\216r=\005T\200\275\223\007\320\274\343 ]\275\355.\252\275q0\331=\260f%\275\022\371\310<|6\303;\306\214\272\275\227\371\000\275\304a#<\'8\217=\213\277\205=h\277\217;\362\332\260=|\250G\275H_\266=\036\034}\275\271d\036=.\216\323=:\234\352\2751\227T\275\0045\212\2745F\355=l/\327=\246\366v=\351v\265\274\241\207\256\2754\317\326\275\353\353\227;-(\261<\332\235V\275b\240\273\275:E\341=\3465\344=9m\324=8n\344\275\273%\307=eG\007=\\@\335=SG\255\275\232\240\271\275N_\256\275\271\215\351=\337\256\312=l\352\247<\365P\220=\310\373\023=#\310\327\275\0262\212\275-\251\240\275:\222\301;Q\326a\273\235R]=\247d\254=\312rb=\2651\272<\356\356\246\274\216a\313=4\032_<\251\204\234\275:\366\223<\240\330\206<ge\251\274\3323\200\2750\033\326\275\216\327\314<\246\215\271=-;\355=\316\360\204<\244\006\234\275\223\006\342\274\016\010\220\274#\273\347=\264\330\211=\024>\315\275P\324\237\275\311o&=\233\310\337=\327\341\331=z\213r=\317Qs=(\343\022;\252\223\017\274\323\031\201=\307\306+=K\370\330<\266;\266\274\024\240<\275\265\005f\275\301\223\244\275\265\203\344=\026\252\211=g\3326=\314N\253\275\317\310\277\275\331\247\357\275AX\216=0\264\323\275=\026\021\275K\300\267\274\257\325\346=8\246>\274Re\276\2757Z\224=|\306\274=\340\220a\275\357\001@\274\013\300\240\275\366%\266\275\312\254\232={PN=\350\353.\274\016\367\270=$G\r\275Zq/\2754\362\343=\240g\232\2750\211\253=Ql\334\275\'@\003\274\260J\"\275\312\375\242\2759\254\321=\226l\204\275\3775\030\275P\025\210\275AW\275\275\274h\364=\325\265\236\275;>X\275\254\241\351\275F\242\310=G\373\200=\016\232\257\275=\327\351=\301\006\272\275\215,\270\275\225@\264\275S\362\360\275g\366Y\275\260:`=\230\362!<\330\202\241=\240\272\234\275K\217\233=BCb\275\351J\237\275\372\0226=(\000\221\275\336\260\307=8\246\351=\230\217\324;9\000\350<\200#\203<m\263\301\275\223\364\267\275\203\035\323\274\321DW\275[\367\036\275\010\302\360\275\247\327\317<\217\331\346\275\357\001\237=0\240\204<,\326@<\016C\212=\016%\325\275\225o\227\275\371l\214\275\343hj=\'\242\205\275\313\024\347\275\356\277\324<\205O\250\275\212K\220=\207\315\255;@\024\021\275\023+]\274\004\265\260=FS\022=>MV\275\275\324\326=B\267D=\037\241\227\274\271!\225=\223\016\277=VD4\273\002\310\347\274q\325\271=\365y\001=J\273\322\275\nM\214\274\273p;\274\220\236V=0\025\021;s\004\023=8\225J\275\301\023\320\2743\314\254=^\025\232=\025\261m\275\\N\366\275\374\200|\275\203\265\005\275g\337\202;\370\304\363=.\243\256\275\006}\320<\363\204\216=\332[2\275\234\236\370\274\214\211$\275\306\357X\271lb\265=\257\255w\275\366\335\330\275xK\304=f\025\346=\303\317D=\305Q-=\211%E=&\216E\274\312\310\311=\t\333\2479>\370{\275\010\231\326\275\001\313a=S\243\271\275O\301\240\275A\325:=\305$\324=\265\227\337\275\356K;=j(\230<\255\353\261=:\317\323\275\201\300\331\275\032\231\247<\t\246\241<\213G\010=(\222\244=\356\223\204\275\232\256\260<\351\036\200<GV\236<\330\013j\275\207\261\343\273\330\350n=\223\211:\274\232H5=\243\233\330\275\356\350\344\275`\367O=G@\304\275\363N\316\275\"7\314=\370\025\235\275K\3378\274g\001B\275\275\tV=\353\262\306\274s\237\323\275\220\323\230=\177\0276=\373fb=#\305\262=\'t\006=\013H*\275\261\210M\275\335+\231\274\262\2119;3r\353\275hw\244=r\322\206=6\035\202=~\336\274=\367\tS\272H0\236\275\037\220\353=L\266\n<\373\335x\274A\344\226\274q\347\277=\201W\301=j\007\225=[\301\033\275\307A\220\275\006\255\306\275\202\311\253\274\310\r\237\275*\353l\274\2743\365=5[\244=\361\232!=\204\224\021\275t\322\023=\026\301\221=\234H\224=\002\360\215=C\024\263=\217\365\027\275\362\310\n=\311S\361\273\202,\276\275\237\332\220\275Bz\205=\230\323\375;\350\306\233\275\261N\326=\353\263\014;s\007\362\275\341:t\275\027.\335\275>\305\227=w(\021\275\257\316\"\275\342\005s\274\211\344\216<Q\004\200\275 tG=\207\017P=\023\352|=`\304\360=;\366\220\275\023i\365;\264\364\236\275\306\323\347=!\340\255\274|j\320=Q\n^\275.\346\275\275\031\341A\275\250p\215=\017\343\273=AM\353=\265\020\206=\266\245\313=\256\277q=}\355\002\275~\036b<\206I5\275\"\235~=Z\032x=\344}\266\275U\342\232=\230#w=1\316L=-\367\206=\010Y\310\273\334\271}=\313\365\215=\3522\306\275.\030h=\333\243\261=V\027\214\274\2628Y\275\034u\274=d\230\r\274\206\210\201=\211\350\222\275\273Su<\327Y\354\275\336\330\263=\341=\240=6\311\226\275h\364&<A\370\361=\261\274\232=\310|\272\275\273\225\025<+<\222=f\257\211\273EF\211\275\361\013\327\275\263\235(;\241\314\254\275y\245\210=\353\274\222<<\256\t\275\177\000\317=\227\273\214=\000!\313;\237\250d\274\025B\242\275;\247\365==\204\270<pz\217\274|*\332\275\035T\270\274\361\032\003=x\334u<\235\242\350<9\312O\274\323\013)=\204\350\251\275\237\345\262<0\314)=\260\223\212\274.R\022\275~\035\235=\265\364\320=_\361\332\274h8\236;,\002\200\274.\352\t\275\203*\335<^V\361;\273(,<3dk\274\t\305\267=[\"\215=A\301,\275\'\273\211=#\203M=S\303\247=\334\233\247\275\020\236\026\275\001\202\224<X\260t\273y\246\351=#\262\340\273c\221\227\275\001\262\334\2752`\242\2750>\\\274\343gn\275\257\264 \275U\313\006=%\364\256\275vi\'=\013\274\200<*\247\324\275\212I\020<\327\357\240=\354\376/\274\217\377\375\273q\2279;\3726\362=\265s,=\004M\313=kO\300\274\207\335J\273w\354\207\275r\304\253<\220\316\256=y\316N=\377\376\014\275*\010\376\274w\000\302\275\021\305\274; \\\213=\235\\#=\327\177 \275\373\2207=(\001\300\275m\364\220\275\353\207\366\274\213\337\352\273\324\317L\2741\305\253=\230d\255\275\374\007\320\275\t\331\254=\372 \210=\375\005|\275\253\374q=\357%\252=OK\263\273M u\273\006\371\332=\260\034\033\275\316\210\254\275\200\005c<hi\337\275yOd:*\356\320<\315\352\257\274DL\027\275\313\276\347:\000\344\273<Y{(=\025g\263<\307T\214=\t\313S=\014\343\304\2753\320\361\274Y\221\002<l\342\206\275\213\372\233=\353\213\237;e\236i\275d\024@<\324\276\203=\013\211\350\275\314\260\'=\336\036Y=t8\210<y1\243\275.\353\253\275\321\371M=\250\272\302\275\327\354\337\2750\276\252\275\342K\253=|k\337=\306\035S\275\230\215\335=\"bh=#\205\266<\364\037\272\275\367\250\343=\374Uu=z;\265\275\326\010y=@\374:\275n\2065\274\035B$\275\257EE=\235\001\352=\340\377\272\274\210\244\216=\277\265\352\275\276\365\265<\200\234 <x\016\013=!\376\346=\200\244\337\275\342\301\332\275/\341 \275\242\2517\274\305\371\254=\250\354\353=\346\214\222=\3521\024\275\340\330Q=8F\031\275\325P\321<\275_\330=\351\272\365\274\371y\313<Po\236\274\370\265/\274\nY\240=\252\252\270\275#\021\212=!<u=\336,\234\274\212\262F\273,\365\200<\371j\315=\005\301\212\274\340\254\206\275~\235\265\275\237W\250\275\231qb\275\251i\345=\260\245\270=peY\274\034\022\372\274\273\322\022\2746<\262\275\355\361\217=\020/B\275\225\335\275\275\347\270\274\275\334\307\357\275\000]\200=\260\006\234\273\360\237\231=\205\312L=+\255(=\261P\302<\223KL=\377\\\236\275\336\2249\275:\225\345=\211\366\216\275\321\276\364=\301\324\264\275#\3706=\333\243\242\275\022\316$\275{c\301\275\361\261\262=i\337;=T\236\321=}\003\221=\036\213\206\274\271\241&=\002\031\215=b\347\364\274\333\256\204=\021_\315\274r\325\033=6\236j\275\327\311\233\275\201\2705=eJ\307=\205d\236\275N\366\204\273\337@\207\274\330\310:=\344\307\355\273\216\371a\274\235\317\274=L4\251=\017\252\343\273\023\233\324<\340z0\275\207\302v\275\034\365\321\274W\200`\274y>\211\274(\231\336=\313\246\326=;\001\365=/\202\346\274\354\237h=\341\326\260\274\241\215V\275[\233\300\275*qd=\321Gs=\021\202\257\275.^ =\217\356\266=f\340\256<\204,\247\275R\314\203\275\327\263\002\274\344\225\303=\354\266)<\244\357\204=\254\000\'\275\376\001\366\275\320p\337\275\331\004J=\264\261k=\010O7\275\010\206\257=~\177\267\273\350B:\275\261%\363\275\226\"\360\274\316<\351<\217\330\356=&\303\360\275\025@\342<\016\025\250=(\253\206\275\276\025Y=hBt\275\306A\341\275\020\021\362\274\022\033\335=\025\214\332\2759\305\375<5\0179\275>u\005\274\356\316\223=\t\252\334=%R\220\275\353\334\324=\225M\243=\227]a=\230a\363\275IgW=\357\231\305=\335\017\334=\363T1=\247z\277;c5\344\275}\261\026=K\373\207=8\305\262=\201\326v\275.2\263\274u-Y\275\261\351\307\275g\262G\275\320(G\274n2:=\300\255\035=>8p\274\317*$=\273\210\"\274|Y\237=\276\325\302;S\240\337\275\345@\234=u\210\277=\204\310\276=\177\026\326\275Q\022\244<\212r\270\275|\216\020\275\020\247\201\275\206\323\257\274}\347\344\275O\202\236\275\217\377\330=\202QQ\274:\364\301==\224\307\275\241[\205=\325\364a;\253\006l<r$\260=\341\037-\275~\005\351=@\302\331\275E*)\275*V\277\275-\246\265=\010\361\247<0\375\305\275\033\027\217=\324$\r\275E6B\275\347k\271<A\211\213=\305\374\225\275\316}\244=R[\025=\224\353\354\275\266\305n=\275\235\222=TV\027\274\321\361\252<\030\220\250=\256\312\221\275>S\177=\251L\205=\254\254\245\275\303\nD=\366\245\237=\344.\310=\366\241K=\331\212\276\275\376\301\010\275\t\233`\275\376\377\247\275\302\257\316\275$n\232\275\240m\240\275\270\347\256=\t\242\250<\326r\227\274f\273B<\217\0273=\317\006\342\275X\263\301=$v\304\274\354\351\233=\034\247\240<&\272\310=.\347\361\275\356_\315<#\033\265=\360\265\355\275@\020@\274\217\276\320<\010\370D\275\277\003!=b\237\241\2757\323\224\275Ls\252\275|\245c\275.a\252=\211\336\343=\221\252\246\274\360\216\260=\027u\353\2756\014\003\2754\257\347\275e+\273\275v\027\311\275\000O\332\275\021\t\224\274@\305\335=\362\223m=\327\005\242\275\367yY=\301\225\037=h\260\345=\221\007\222=\276\243z=^\240\345=\226a\333=\202B\341=\340\365<\275\335\222]\274x\273(\275-\313\177=\363\272\254\275>=\326=X)\322=\002=\251\275\022\210\347\275\334n\241=\314uU=\263\224\346;w\357\342=\345\021d\275Y\374\266\275\274\314\234<u\223\267<T\233\237:\330\300\236<Bi\271=\347\035\341=TD\254=\037\275\224\2754\360\212\275C>\233\275\305g\217=\235\253V=\372\372\036=\275\304?=<\377\357=\270\224\255\2752_\207\274\014\340+=G\243\215<\t\370\"=,\310p=\231\205 =\301k^\275\016.\345\275\235\313-<\342O\214\275>\217L\275\311\266\316\275\276\313\017\275vZ\321=\254\213\324\275\276l7<\220;\333\2758\305\327\275\235\027\366=\n\323\276\275\240\027\204\2736T\031=\200U\200\275X\004\211=#\204_:\242yv\275\361n\023\275\2423\273<~%\242\272T\345\0079\353\241\312\275\3430\352=\357B\324=m|\303\275a\357\355\274?\014\016=)\034\224\274\215R\341\275\366\324\312\275\360\026\344\275\210_\036=\324\337\r=}Kz=\306hk<\020@/=,\270l=\227\005\256\275Q\273\316\275\362\236\277=<N\204=\363\003E=sp7=!S\'=\216m.;\315p\376\274\n[\313\275\017G\200\275\231cE\274O\247\213\275\231\351\366;\327$\250\275`\210?\275xB{<\332\215\275\2754\277\360:\226g\354\275\315+Y\275\361\320?\275\2225\'=\006\222m\275\200@\216=0\367\323=e1\014\274\352`\334=\226\316\332;\332b\024\275!s\334\2749\214\373;\375j\307\275\375\371\271=\037\236\300\273\371!\324\274\032\243\214\275}df=\337\357O\273\204\355\204<\243\254\202=\n\003\220\275{\333\202=\306\351\201<\320\017\023;\344\017\343\275DN\031=]r\177\275\310:\006=\312\251\214=\303\334\271=\260\037\177;\034\014\334=43\030=\033\215\237\275@w\225\274\027\373\342=<\203\312\275K\004\226=\301\351\334\275\367\250\177=\223h\357\275\320\210\331\274\005\342\252=Z\267\275\275%,\225<\\\315\210\275\235N\260=\036\340\361=;i\324=\215\360<=%d\235=1\326.=\313.\301\274\275E\257=\2202A=\211N\302=\327\267\255=\020\216\305\275Z\302\205\275\242?G=v=K=\216L\316\275\314s\277=7\020l=\177\342\255\273\255\332\231\274\010\356\262=a\177\327=\211\333\010=\r\035\362=V\373_<<C\017=\222o\264\275\3462\220<\337?\313=\036\366\213\275)g\343=bV\337\275\265ZJ=\377\377\362\2751\302\320\275\337\377\302=5*\220\275\312\305\225=\252\210\n\275Q`\364=\227c\224\275/\\\345\275\\\363\177=\236^\362=\rX\347\275z\262\353\274\203\376h\275\273\"\362=#\334\340=\037w\264=({\316=9\345:\275j\305\226\275\346\262n<\0018z=\036\023\242\274\204\317\274\274\353\254A\274Tn\222=\350\244\360=*\241\323\275c\373\244=|\270\211=\\%\327\274`\212\345=\345\327(=\016\330\320=\250\347\276<e5\333\273\016\212\222=\377\300\261<Ve>=\036\312\264;\005\"\354=c\370\005=G\244R=\216\376\262=\036\'\250=\230_\331\274n\2505=L(\245=\362\034\355=\203\317\333\275\315Lt=\\\222\037\275\223!\277=v\275\306\275-\251\264=\355b\265=\034\333\365\274R}\243=\237\361\310\275\347\240\335<\025\024\002=\273Z\311<V\265\313=\300\360\240=\325CG\275\016f\320\275\343\312b\275\232\244\t\275\252\2609=\377o\327;\212~\226<\341O{=\324\360\242=\030T ;c\023\037\275\206\372 \275\207\303\265=\037j-\275$)\211=\320\333\361=O\350\327\275.,\303<\252pu=\253x\026=g\357\344\274J\221\235\275\026\242\"<\347O\262=\236\300\331\275\313\310\235\274\316.\236\275\320\327%\275\023\206T=\341nz=\323\202\245\275P6\311=/\320F=\266\204\357\275\327\365\007\275\236\331\262\274E\211d=MI\317\275\230?\n=\261\250\337\275Q+\332=\r\374=\275\234\244\233\273\002y\252\273\206\213\243\275\217c\275\275v\031\223=\037\210\242=\360\034\212=\227\252X=\226\245N\275\304\331B\275\004\252&<>\257\260\275Q\226\341\275q\032\212=9\336\325=O\270\334\2751?\013=\224\334f\275\001\037\345<\214\277\250\2759\273\205=Bu\316\275d\020\352<\220\343\253\2755\031\001=\337,\005=}\260Q\275\373\250\241\275np\211=\2106\306=%FD\27576\342\273\014D\327\275r\271\315\275\325;\313<\014\212\332<\313$\344\275\306\321\332=\326\370\235\275\316+\210=\302\232\214<\330\025\207\275\262\036\227=\036\336\207\275\275\213\001\275\341\255\214\2759,\033<\033\215\020\275\350~F\275\363X\005=\240W\352\275^\315\353<\022\200\245=\322\214X\275\257\211`\275,\007\263<l\023\361\275\004{!\275\244\t\307=\020\245&;E~\220\275b\271\t=\300\244g=-\001\360=\241\214\241\275\234z\360<L\232\257\275m\325\227=\235\007q\275\256,b<\237~n=.\273\325\274\317\275\331=\255j\223=gF\225=Vz\373<\237\030\356=\344\010\021\275\313\214\323\275\375Kd=zt\000\275\366L\343\275j\266\321\275&G\307\275;\347\250\275?\216\327=\023%\250\275\020/\352=\235v\334=\200\233\350=\370\344\332\274^\217\336\275&\021\366=!P\207=r\263\234<\335<\t\275\272\237R\272\31295\275Z\362E\275\036y\241=1\220\216=7\260_<P`R\275o]\261=\002V\300<\310\234T\275\211\272d\275z\270\3728\242\272\035\275\323\373N=e\255\002\275\021\314X=\336\324\200\275\231x\036\275y\340[=@\223\272\275\316\313\322=\242\032\322\274\321\245\245<\314\225\307\275\306T\364\275\274\212P=\033\335\261\275t\273\300\275\310\214\362=\035\253\204\275\324\225\273\275\305\244\r<\0063Z=\321).\273i\255\201\275`E\316\275\307\022W=\313\347\347\275,3n\275z0\251\2753}\037=\254Ji=\375\221J=\027j\036=\262\036\220\274\226\023\241<\306\275%=\275?\262\275\3354\272=\226\344\324\274\330\376\212\275\001C\303\275\355C\203\275%\037\273=F9\244=\333?\204=\245O\211=3j\277=\232\007Q\274\306\224\343\275\271\336><Y\351l=\306\254.\273\251\010\237\275\020C\207\275\365z\212=b\253\177\274\335B\200<\274p\226=\334`\226=\327~\266=\254V8\275TU\217\275)\267\316=u\225H\274o\252\001=\306\220w=\373\337_=\376\004*\275\367~\353=\374\263\250=\300\242\007\275{\000\240=]\331\332<|\351\037\275\237\274\335\275b\021\324=\003\007\331\275\244\327\335<t\2322<\316\206I\275\342\241D\275\264\365\002\274F\373\217=4\021\365:\331\351\330\275\311\234{=\322\002H\275\264\214A\275CU\264=\004\202\374<\335D\177=\001<\212=\255\323\302=3LN=\217\207\240\275\351\255\250=\231\2319\275b\265\010=rR\262\273\260t\375\2747.\016=\327\240\300=\2767|=S`\277\275Y\300#<Y,\326\275\361C\000=\312M\001=\030\324\213<\227Q\002=\025\307&=\213\346\363=\307\277\220=O\177\255\275X\205\t\274C(\330=\243xR<T\363\262=\333\270~\275\022uO<\250m\326\275\2132\334=\000}C\275`\032r\274\306\241\312=\354\353&\275\263\343\331\275\215\365\311\275\215\274P=\264l\222=U\020\314=\305\026\334\275\342\334\362;\335\355\235\275rKq\275\320<t\275\3150\364\275\200\207\315:\260V\226=\237\375\257\275\2309r=\263A6<\276%\255<\334\205L=\n\313\021=W\225\311\275\032X\302=\332 &<\003K\327<Tj\371\275m\257o<\203]\300\274l\330v\275rMe\274\341\271\330<\346|.\275k\372^\275\210U\276\272pv\230=\022\032\301<\271\270\243=]\241\265\2752P\205\275o)\242\274C\0350\275\r[\330=\362ai=\030T4<v&#\273s#\344==\241\366=\335\274\277<\030\210\215=_\021\300=X:\347\275\356\241\241:c\200\253=V\ro\275l\212_=\205\332\330\275\205\230\362\275\350\307\220\275V\313w<bk\212<_\002\232\275\215\321\224=\252\313\223=\221\314\326\275j\275\n\275\342>:\274\350\"\353\271\246y\362<lY\313=\230\340\206=\370I)=$\242n\275\td\316=\247\203u\275\302DC\274\222|\336\275i\207\324=P\241\342\275\212\255\346\274G\351\356=#\000J\275\246.\312=Z\263\204\275\214\002\273<eG\221<\023\275\350=8e6\275\226\031A\274\nD\'\273Z\303\356\275f\3720\275\214\306\320\275\347aZ\275\370l\222=`b\257<\345\022\343=,x\356\274\222\250>\275D\025t\275\347\335\250=\343\357\311=\362u\267\275\267\003n=S\315\312=\033\200z=\340\210\356\271x\013\223\275\276Z\'\275\341T\300\275\322\372\212\275\331)l\274\277\'\217=\214\314\242=\274\371\277\275D\334\225=O\206\323=\265\240\217=\217r\346<\016!\244\275\007\r\324=\326J7<\2772\265\275\321\303\255=-Z\366\274\306ya\275\327gW\275l18\273\013*\345\275\020\001B<\321\226\334\274LE\306\275L\303\317=\343\230\337\274\t\342\350=\014\332\225=\2666\357\274\335\257c\275)\221\233\2757\263,\275=|\327=\033u\370:me8=\270\313D<ll\224\275wk\361\275\367`\301<[%\250\275\365\344}\275&\r\326\275\365 W\275}\030P=9\302\356:E\345r<\352\016=\2745;\3559\235\345==\312f\267\275\240\231\264=;\246\240\275\226A\247\275\"\363e<\273\262\037=`C\024=f\240\366\275\r\032\223=\370\r\231\275\315\377\037=86\365=\000\301V=\240\307]\275\020\343\274;\337/\210\273Oc@=~\260\237=L\234\242\274\210\020\365=\345B\314=\232\305\217=D\362\234\273&\027.\275\2302\220\274)R\315=f\324\006;\252@\206\275\346\263\270=S)\016\275lR9<\245\023\213\271\332\024\207\275\303\275\220\274\256e\241=<,\346\274\205\305\353=DA\247=N{\216\2750\205\323\273\274\337\365\275cH\311=\214\177\224=\370\033i=\264\3729\275D\323\334\275\277J\236\274z\021\n=r\rT;\016p\010\274\372\360\275\275~WO=\3639\016\275\313\204e=g\\\240=\255\244y={\353\363\274\275IF\274\317\022\346=\235#\346<\2725\262\275\370\346\245\275&w6=D\243\367=B*[\275\261\215\227\274\274\005C\274D\237K=\352\316\323\275\005\277\241=@\346\240<\017\3314=i\361G\275\224^\275\274\331\272\206=\236\252\202\275c\222U\275(\352\306\275\003\203\355\274\330\300\326\275m\213\030\275*\333\254\2741\260\035\275\031\013\246=/_\272=\214V\226\274n\363\252<\277%\356\275\003\336\301=Wlu\275\366\226\204=\272\221\\\274c\367\200;7\324\241\275\270\254\\<\247\360#\275*\263\035\274;\237\316;\216\"\316=\213\351\345=G\336><\220\273\234\275\227\033\275\274X\372g\275\217\0010=\225\214\206=\276_\r=\006\375\002\275\244n\221\275\250\231\241<\002\037\222=\237?\233\272\347\216\001=\274s\201\2753##=\033w\266\275\343R\300=\301\220\271\275v\272\253=$\227\360<fs\370=A\030\342<\177K\310<\036g\277=GP\216=\240S\026\275\301\316\036=\254\215\350=\224\023\375\274?\220\332=S+}\275\250=\220=\307\206{=\205\207&=hR\305\273\'\225\264\275\343\321\274\274\313\232(=\354\307\336=\177\306\357;d,\223=P\200\350;\371\326\202\275u\332\370<\204\265\226=\355\336\035=\002\004\371\275h\376\337\274\351\026\252=Vd\212=\356W ;\260V\244=\314\372q\274\035\240\276=3\355E\275\206\253\322=\036\t\205=/Z\355\275\214#F\275#\327\356\275\023\354\035=\363\277\311<\371<\254\275\347\355u\275!\006*\274?\033\352\275\200\250X\275\035\033\360=\270\033\263\275\362\204\030=\204\260T<Q ,=+\236\274<\304u\273\275\362r\316\2756\201\336\275\220\033\303\275\232F\353\274\367\332\313=\250\251_=j\303\240\2758\264\263=\356Q\344=\332\337\223=\240\254j=I\034\351=\005r]=7\315\332=\326yT=\207\"\272\275\361\333W\275\n;\276\275\t\201\302\273\211\333\246\275W\202\260=aDh<\030\304\20094jP\274\302N\307\275\322qg\270(\033\240=\240\277\270\275\314\276e=\226\331\022\275\235W\243\274\265\r\r\275\200\311\364\275\254\333\301\275u\017\217\275(HO\275l\204d\275|\006\004\274\032\223J<\024\036\311\274\001*\234=\277\242\026=T\007$=\343N<\275D&\261\274sQ\246\275qb\277;\307\237!\275\034\021\271<\003\252\220\275\007\005\314\275\320\262\336\275at\277=\226P\261=E\206\226\275q\263{\274\212%\375\273\216\322\343=o\236\235=\017s\224\274\022U\017=w\207\277\2746\005\333\275\240\306\236=\\R\236=\n\246`=\026I\327=\244\240\n=W\341\301<\302\013\246\275\026\206\264=\324O8=\363\000t\275\212\335\314=\333\202\214=c\226\211<b\232\214\275b\\n\275\206\021e\275\377>\337\275\002\343\232\275Sws=\370\377\241=\364B\335\275n\204U\273\312/\367\274w%\024\275\021K\221=-\210\035\275O\023<\275\347?\320=\223.\354<\217\357R\275I\000\235=\330\227\251=\032\345l=K~\243\274y\361\254\275g\320\200\275\005J\331=~\342q\275\270\240\301=\277\212(=\250\237\346=\241\277\245\275\373\007(\275V\372N\275\027$E=\277\005\036=\231k\210\275\260\273\254=\'\203u\275\307\004\206\275\342\247\310\274%\222\243=\350\212X\273\240\037\266=\362\303\345\275\014a\031<||\206=[\024\365<*\244$\274\277\370E\275\326\263\210=S\325\266<Y\035\014=\357\007\222=?\204\264=\305:\034=;\325\264\275\234SA=d\013\270\2722\034I=ym\320\274\254O\022\273\365R\361=\234\224\313\275\251\275\243=\221Q\227<3\231K\275\026\222i\275\203\327\220\275h\317\276=\351h\203=\342O\344=\022\275\257\275\363)\263<\035\354\376<\031A\273=\'\264\343=\240\305\245\275v\034\237\273\033#\017\275\204\360v\275@~\026=\014\335\310=\227\340i\274\204\211\365\275\304\277Q\274v\255\344=\3262\217\275\241n\251\275\270i\212\275t9\272\275rr\215=\031g\375\274E_\315\275\343 |\275z\260\241\275\004(\346\275\002\027t\275\371\354\003\275p\246\353=\000%\026=\2645Y\275\333\370\212\275\267a\240<\226\004M=}\3753\274u\271\022\275\002O\232; r&<\304\000`=\225;\273\274\346i\220=\213\253\354=\303\t;\275\2023\360\275>\000\341==\005\203\275\232\200\227\275Mu \275\2700D=\001\024\364\275\347\231\341=\224Y\355\275\215[5=\345(\355\275\204\361\233;\023\322\311<6F7\273fI\254=\264\245Y\2751\267\223\274\216\014\220\273\260`\223=FY\275\275IB\320\275G\253\326\275.\313\277\275v>\303\275\352\223\271=\026\004p\274\356i\217\275^\201G=\214\204\021\274\025\3500=\006\253\245\271\270\224\013<x\277\252=\215\266\247\275\340\013\370<K\271T=\217\275\365<\201\360\205=\3547\261=\323x\224\275\033\306g=\004\274.\273\2176$<Ha\255;P\326I=\202\202\307=\302\263\276\275\246\263\274<\257\371\317\275\330.\314\275\205\326\221\274obi=\372\313\321=\025b\310=?\356\360=\276u\227\275c\274\301=\016xb=VE\365\2752Q\274=i\003]=%\341\253\275\001\237\322=\333\225\327\275*%\204\274\237Hm\275\037V,\274\'4\206=\306\335\005=\247\243\243\275c\354\206\273\307$\366<>\036\205\274z\341\300\275t\341\320\2751\214\215\275 \013\002=Y\0262\274\263\377\226=*\310\252=g\177\301\275\320\014l\274qSh=CY\014\275\347\005\'=\340\376\300<\025\220\227=\306\266\035=)\251\221\274\301\tG\275\351\247\336=p5b\275\223!\030=\273\322\214=\360i\255<6\217\301\275\246\323^;\270\313\r=\177\016*=`\212\323\275\233p\320<D3\204\275\236\367\352\275\224\004\256\275\244\032\316\275\314=\233=\336\206\360=<\242\322=S\362\342\274^;6\275fe\266\275\004\025\252\275\233\224\360<\261O\267\275Y\202\220=\301\223\300\274\211!\322<\251\030k\275\177!\362\273J\337\222\275\320\016\207;\244D\214\275h\245\t=6\021\210\275\276\030\264\273M\345\315\275\322\261Q\275\007\327\371\274\252\3711=\264\267\265\275\201\270\247=\302\245\326;\301\232V\275\017:\314=\364\233\275</\332I\274\231\031L\274\225\200$\275E\000\231=\021\356\016=\201\201\226=\372\220\247\275h\332\351\275`<\314\273\325i\247\275\340^B<\3558\251\274\243]\273\274|\312 =\377\217q=\306|x\275\2274<=\017\220\372<\327\330\367=)#\277=\353PX\275\206i\213\275?@\302\275\356\034\260=H\324\330\275fj\013=Dx\251=\260\225\362\275,\020f=\263\354\306=\031py=u\n\246=5\352\233\274F\344G\275\272\215\227=6\227=\274\301\271\033\275\022\235C\275\275\245\214:\2708\304\275\212?\260=\346\234n\275\372\003\317\274\350\353I\273IB\037\274\017hA\275:\216\274\274)\220\330\275b\253\351=\034s\255=\201\313\312\275F\343\257=\310\352T=bE\233<-\023\027=C\220\276\275\322b\342=\320\036\202=\026gu<\313S\304\272\203\375\226\275/\322Z\275\202r\204=\264\316R<YsN<!\211\"=\r\215`<\236h\320=\000J\327<aL\033<\331*\310\273b\355\'=\232\320\334\275\262\364\332\275(-0=\316\006\374\274\272\250\225\274\371\t\335\275\r8\315=\313\230\210\275\022\224\322\275\262<\322\274hO\213=}~\275\275\t\3008\275\253\351\272=\245\356\227\2753\343!=#+\354=\216n\026<\271\243\271\275h\3435\275\357\3051\274*\022\235=f\027\265\275s~\300\275\240\304\312=a\371\305<\306\271`=\342\307\234\275\377\362\235\275\362_\'=\330)\215\275\0064\206=\367\251P=\370\216J=\n\234\315\271\341&\373\274L\354\\\275(\364\206=\265\273e=\031\262\324\275&Q\233\275X\356\031\275\030#4\274k\353\246\2747\266\030=2\264\322\275\346\243\362=\241\250\363=\263\276\203\274G\321\363\275\250\223\352\274\222eE\275\0070\314\274\244\224\207\275\352K\263\275|i\252=\0035\021\275\206\223l\275A\354:=\177\377\336=\210\000\361\273\265\311O\275\245`=\275\026%\357<\345\200\373=l]\252\275fp\217=\347\000\215\275fV\311=\213\235\367\2743\327B<\365o\340=\033\200\002\275\024\264\250\274\003<\350=]mp\275mV\304\275w\3368\275\273\315\271\275\031%\260<z\304\213<\345\211\207<\225\364r\274\265\327\350\275^\244\334=\344v\307\275b\002\305=\207-\304<\303C\t\275\236\312\227=\372\233\274<:\200L=a\341\303\275\320?\262<\313\200\317\275a\322\317=\222%\366= e\267\274;\177\265<\250/K\275\371|\030=.\207\353=\340\227\232\2747V\240<\226o\206\275\350?\240=\014\367\342=\236y%=\342x#\275\214:7=X\324\317<\223Q\255\275\325\357Q=4\267\353\275)\264D=\231\213\345\273\020i\265\275y\216\t=\177\253w\275\271\313\360\275\301\034\235\275\215\013\273=mp\242\275`B\207\275+*\307\275<\"A\275\035S\247=A\321<=o\020\260<U\027\355=\225G\255=\021\226\235=\207\315\264\275\265\031\225=\255U\377<\023K\355<\243>\363\274\262\\\265\275\225/\271\275\313=\273\275O?\315==\212\014=\226\225\364=?\326\245\275|\364\020\275\257\210-\275x]\267=\316\237\355\275m\273\274;%\364M\275\not=x\346l\275z\014\326\275\225\261\203\275y\263\"=\013\277\352\275\240j\263<\202FW=H\017\305=\265\350\313\274\220\007\257<tA\231=\377\222\337;\263\033\177\274\375\323\242=Z2\323=y]\340=.\303\275=\322\315\025\274\264\355w=\333^&=\002U\237=\000e\267=\263\330\370=\262,\352\275\251\376\271\275\351!\262\275\220\027\203\275\273\316\032<\322\001e\275\000!\014=\223\333n=-\267\226=\314\222\355=?\350\034=B\"P\274\233\220\002=S\316\273\275\025w\265\275\037qI\275\017\330\004\275-\211\301=%X\327=\357B\214=\201\177\210=\275\267\236\275\344\"\004<\343\004a\275\357\325\277\275\226a\366=\245\250\237\275\371\233\337=\371\364\257<\343n\343\275\362\323\350=\272\010}=\361\355\335\275\242ga\274\343>N\275\250#\210=[/\035=\265N\366\274\034\024\305=>H\256=\270\2260\2757C\220\273\277VA\275\2748\206\275\300]\022\275\376\210\275\275\205\213\332\275g\355\222\274\\\r\2148\344\321\200=+\347\203;\301~g\275a\330\331;\313\360\300\275c\354~=.\226\031\275\234$\262\275\267~\251<\316}L=\317I\216\275V\tp\275\271\347\235\275\270\342\246=\370+q=\211(\204\275\250W\262=QV!=\030\201\310=<\324\270\275\022Q\354=\334\221\271<qC\022=b\021\203=o\252\217=\014dg=\001\016\036=[\254\236\275\317\220\360=\376J\214\275\374zH=\360\211\265\275\226{_\274\244\326\267=%_7\275fg\312=\023\240\020\275:Oi\275\001y\006=N3y\275.\247/\275\233\336\252\275\032\r\226\274\013\372\211\274P-I\275\221P\210=~F\315\275\233\247\260=&k\322=\026\276\232;o7\306=\243RQ\274\354q\366\275\225\256\220<\271\307\334<y\203\227\275\001\215\347\275\253\207\324=\215\253|\275\ri/\275\027\356\341=UR\327\275\037\"\224=pW\217\274\034\025\364<#\343\347=aK\302<~D\022<\025\t\262\275\017\262\265=\356\322\314=\231\353\320=E3\364\275^\300\272\275\271\200 =\037\210\247\272?-\\<i\336\221\275DD\267<V\177\306<^\215\302\275\257\027\250\275)\t\274<\342\342\325\275{+\275=\216x\014\275\275\330\322=\345O\256\275\326\237\257\275`t\232=*\202\272=\003\241\275\2757\200*=\376\336\334\2751\332\177\275k\225{\2752\330\211\272\366=\"=r\233\240=3\310==\366\345\325=\026I\325\275\270\346\276\275\322\255\023\275\257\265\325=4F\253=\246\272\255\275\260[0;\002^\351\274\014\351\312;-H\313=bz+\274\0140\267\275uh\302\275WYQ\275\322$\216\275h\242\305=\201,\326=\345(y\274 TE=|c\222\275|\365\234=n\336k\274\325\202;\275\340O\310\275\257\205\331\275\3253\300:\360\\\342=<\237G=,\344\354=\246QJ\275\'e\014=\360\240\240=\304G#\275*\334\260=\325\037\315=\023\232\210\273\312\356\226=E\342\331<\320\274\244\274u\365\204=\321\232\022\275\305\360 =\331Z\307\274\225\346u=\tN\234=\244\332\326\275\014\205n=E\300\201\270V\230\317\275\2436\335\275\025\267\253\275\3257\255:\245\266\322\275\0044\322\275%=\277;\236\267\230=&\000\027<\244f\214<\331\311`=\210w\"=\316\2417\275,^\325\275\"\311\332\275Q\267\321\275^:\201\274\325\222\332=F\'\022=\006e\362;\3638C\275\345\201\036=\220\362k=\372\036&\275|\034\265\275\246\024\026=\017\261\262=\022\206\345\2751*\223\273\2513>=\'\n\331\275\222\277\002\276\307~\232\275W\036\t=\034\375q\275\274g\262\275\177\013\346<\350B>=\266e\307\275\025\020\003\275\336\371\370<%g+=9_\277<\312\255_\274\244\005 \274V\322\242=\370\014\007=N\227\325=\343R\371=\316\227\267\275f=y\275\214\233\260\273\330\234\211\275\266/\313\275p\252\244\275\305X?=\227y\275=v\023\253=o\t\255=!P\364=d+\032\273GM\343\275n\217\277=\261\272\260\274\261\327o\275\202\275\242\274\232\262\006\275\321Z\242=\352)\343\274\332}\001\275\300\341\324\275\277\230\260=\252h\272\275\354\330\273\275\311\020\203=\366T\240=i\271R;\232\277\217\275\247O\315\274\251uD\275_\304\244=\237l\307;\177\363\324\274\037\033\251\2753y\220\275?\022M<pX\022\274[\307==I0\316\275\271x%<\315:D\275\n\272\251=\330^c\274\340\263\227\275\004\022\360\275Sy\352\275\231T\232\275\001D \274uq\257=\231nQ\275\247I\230\275T\251\230\273\033b\n=u\n\206=!md\275\316/\357\275\007y\355=\340\232Z=I\342\305=\324\374;=\274Jv=h\005i=\217\212Q<\344\217\356\275\243\224\366=\362\330\240<\375\003\300=_n4\275\365\275\243;\356\n\343=<\316\302<w\223\326=\360\224\254=\237\205\014\274X\317\270\275\r:\315=\334\002?=}lk=9\361\274=_T\006\275\034\277\357\275\006\2555\275+\223\351=\027?\247=\014\265\034\275\310\250\355\275\3178\224=B7t\273G\252\277\2753\265\206\275\017\022\214\275CD\314\275\303+9\274Fd\241\274V\327A=Q\356\351=\'\224\302\274\251H\311\275\2557\367<\264|\275<\034nW;k\353\n=\'K\353\274\035\310\257\275n\016?=\017\361\035\274c7\353\275\2658\206=P\317\346\275\364\315\335\275\213-\324\274m\362n=z\222~\275\356\031g;\002,\354\275W\302\250\2756\376\252\272\325\273U\275;\304\226<\006+&\275\r\3412\275\230:\014\272R\210\254\275\310\031\312\274\227\241\263\275\323\311}=62\'=\014\264\365=h]\314\275\334&\213=\261\016\237=\330z\313\275\210\213\231\275\271\370\214\275\376\007\270\274\313\321\207\275C\257[=\225\023\271\275#\343\256\275\321\227x;\351a\271=\263+\310=\312L\303\275,+\307\275V\344\216=\350\240\364=\371/.\275{\336\273\275\204\027\236\275LN\251\275\221\275h;=\025\256\275\020\311U\275\224 \232=_k\254\275\242\341\224=\016&\233=\267\305\311=%\202\361<X\343+<\212\265\033=W\362\224=\033\216\260\273\223p\213=\324\326M\275\316\277\201=\177\036\341=M\366\345\274$0\317\275-6\262\275o\373\221=\232%\032=\033\003$<\3214\263\273\274g\306\274\007\032A\275R\314\303=\266\021&=To\315=\261N8\275\365\254\203=}\036\212=\337\245+\275\311\217\023=\034\373\255\275\247\220\212\274\005\303\303\274\206\321\276=\233&Q<9V2=\177\373\257\275\312M\211\274zGL=\363\016\372<\215+\347;\233xp\275I\352\264=W\036\331=\223\216\312<w\021=\275\206j\274;\177\216;=2Y\007=\002\300\336<\t\226E=\233S\325\273t\256\263=|\235\364=\274\270#\272e\362\244:\014\346\202=2@\323\275.E\270\273\266\003\215<\300 r\275\344\330\271=\252i\333\275{\350|=8\177\217\275\311be\274\2029\224\275\222p\253\275\317zV<\363\024\225\275\320\326\206=\r\316\270\275\262\323\r\275\310<\305=Q#\224=\031\207\341=5w\272=\006\357\353=\202m\261=5\221^=\216\354\260\275S*\316=\303\331\245\274\220\n\330<s,\366\274P.\305=w\037\307=\353M\343\275\377\214U<\270u\354=\320\240\240\274\332F\326\275\002\231\304=M\340\244\275\210\365\321\275V\227\246=K\323\244\275\'\032\000\275s\307F\275\033\252=\275\375\237m=\231x\260\274\271}\001=%\236\364\274\274\351O<\004l\205<3}8<s\226\352=\226\314\260\275-\364\305\275eB\177\275\216\317\250\275d\020\341=xO\257=\237\335\351<S\361\263<\007\267\246\274\006i\234<\311!\237\275\221D\223\275\334\322\225=L\251C=0\350\004\275\217\362\020\275\210\014\212=\244\323\304\275\374\301]=\273\362\006\275l\324\201=\356\361\370<z\020\034<\005\245\020=yp\257=mT\320=C\344\324\275]\316j\275DJ\245\275\253\271\350\275$W\316=W\340\303=]\302\233=\306:\223\275\372M\343\275c\2700<\312I\342;\375\022\304\275\367\363\276\275d2\317\274X\252\342\274\032\365\273=\212\247O=\277\034\000\275\311F\201=\036\017\023\275\200\255\213\275\315\016\330=\266E\000\275\376(\305=\346a\214\274bDL\275\033[\236\274e\340\274\275\200\022\204=\375\276\014\275\353\331\261;x\345\332\275\352\333\330\275\365B)=\200\n\031=R\224+=\032\252\003=\204\261U\275`\014\324\274[f\362=\331Q\370\275H`\315\274\360|\264\274\006\321\244=\360D\324\275\200\"{\275\372l\246<\357\273\352\275\304W\266=\202\300\333=\367\221l\275f6\334\275\251\"\352\275\235\363\350\275\032^\220\275\205m\273\275dI\364\275\035\212\304=]\227\300=\246\360n\274#\311t=kO\n=\2242\261\274\261\2316=V[\233=QO\276\275d+)=\211r(=\232]\256\274\036\375\217\275e\223\321\275\364\316\316\275\334\023!=t<\247\274\227\036\347=\221\255\t\275\203\351\334=\333\273\340\275\207\001\340\275-n\315=\001\022(=oj6=\2654\207<\312\021c\275\002\276\215\274\003\233G=j\260\216\274Zq\341\275\035\326\215\273\347\372\205=\231\202~=\210 \264<\034`\265< \232L<p=\270\275\022\307_\275\372d\364\275\352>\212=\337\002\211\275|4\321\275\350\004\336=\037\314\\=\\\0139=\3401\337\273\342\367j\274\315\214\003\275\230\326\273=9\264l=\321\314c\273\263S\020<\257\200\304=]:\223\275\233X\270=\"\2423\275np\357\275; \217\274j\024\306\275\'R\346=\032\006\024\275\266\005\345\275\025W\300=\251\033\223=\335\305\235\275\227y\235=\340\252I=UNx=\002\333]=\336D\316=]\213\356=\365\256a=\345\035\267=\r\371O\2753)l=\\(\237=\246\216\264\275Wn\263=\272\036I=\\n\212=j/\245\275q\241W<\230\206\346\275[\033\212;\303\200\304\275mk\235=\315\376\001\275-k\350=\341\247\323<\326V\350=wt\227\275\224W\305=\004\241\036\274\267:\246\274\013\304\267\275\230\323==G\250\364\273+p%\275\244\374\322=*6\252\275\346\n2=\2754\304\275#\223\314=\367\355\223=\211\007a\275^\235\220=]Yp\275\017\200\210\274\001\357\272=T\014C\275\304\177\272=\010\233^=W\347\307=\231\3457=\203c\254\274\365\337\276<o\217\206=B!\257\275\313H\t\274qA\324\275\226\326\260=\t.\257=R\323G={t\261\275\363\230|=~\\F\274\246\315\266\273\026\204\376\275\304%\355\275\215\276\224\275n \336\275\242<\245=\231\021\211=,Q\311=\023N\017=8AT\275\333C\301\275#\352\273=\363\266\234=Al.=\234a\247\275H]\345=X\t\026=\217*)\274\355\007\364=\240\t\317\275\037\343\277\275\240m\307=\r\247~\275\362\206\210\275g\322\362=9S\261\275m\372\224\2750`\366\275\342\373N=\000Y]=\264[\373\274!o\214\275\250\010\201=\202\351\014=\332,\347\275z\'u\275!\007\002=\261\001\322\274\251\030\325;WE\323=\003\202\257=7H\000>~\007\034<2\023\273;1\333\257=\006>\327=\374\270\324\272\237\003\341=\366\010\017\274PV\221=\217\310\257=\017\341\001\275\010\372a\275\206\2401=\024\002\215<\237\264\215\274_b\203\274\266\016\313\272(\235\200=|4\250\275(5\025=\310\026\202<\202\006\224\275\230\006C\275DK\023\274a\2464=\243e\347=\331{\364\2752\220Q=\217\263\230\274\212\320 \275\304\031\274=\216\350\235\275\327\263G\274\317\014\277\274v\370\001<\306Xo\274\034rT\275\350M\225\275!E\357\274\220K\226=\215$v<7\323\214\275\263\365\274<1\332\317=\212\273C=\302\256\360;\243/\241\274\331\"f\275o\200\n\2749\\\325\275\200\242e\275\253\372\251=d\344\256=\177z\010=\205\363\251=\353\233\255=+Hq;\323)\332=b\204\347\275k\376\263\275\221(\004\275\320\265\236\274\215\343\352=\337a\272=\211\200\223=\237S,=\353\241\000\272\224\312\215\275O|\272\275U\251\337\274\030\352P=\256\255\013=\r\310\233\275_\210-=\177%\333=\023x\346<j\343p=B\201\247<\336\007\242\275\352\337@\275\344\357\313\275i\312\234=<\317\341=k\rW<c\272\364\275\'N\252\273\254J\315=4\276E=T\223^\274\237\270\276<\261\344\251<CG\341\275\020\344\005\275\313\300\253=\357\032\236\275M)s=n\317\"=\301&\323=\251Z\311=uI\037=\211\372\274\274 ,\031\275\247N\231\275<\300\213\275\240y0\275A\326\312\275\003\364\246=\020M\231\275\023vb\2759\225\233=\366\352c<\200+\260\275\n\2211\275y\2517=\300I~\275P\260\302=\220\226\334=3U\326\275\21369\275\345\355\354=\311\223T\275\306#/\275\021\254U=\303\016\211\275\2662j=v\313\202=_c\341\275N\320\347\274\n\220{=\314c\304=\324\260\262\275A\311\313\275\315\025b=\3172\315=N\\\364\275D\264M\273\201\247<=Wz\275=b~\3149Ri\252\274\270\217\212<X\333\245<S\264#\273I\325\304=\025\016\206=\220\242;\275\237L\322=\301\206\305\275\217\214\342\275\341?\350=o\370\214<c3\324\275\003\363\214=\377\247\244\273\257\277\222<\306\255\371\274\t>\332\274\335n\341=\317 \t\275Xn\241\2755t\267=\003dF\275bg\037=\303\013Q=\250\274\320\275?\364\223=\000\024\355\275g\253\303<$k`=\221\275\271\275\240C\252=\231\262\205\274\330\314\001\275\205\276\326<\240\277\310\275\020\216\201<\257\036\277=\333\354a\275\245\371\364\275\'\245\233\275s\271R=;\024\222\274\036p\322=Cal\275Jc\333\275\241\302\013;\210M\246\274\036\272\213\275\031\212\237=\021\337&=;\312\215\273\372r\211\275\351-\355=hk\206=q\006P;\'\342\002\275\331,\224\273\220\2144\274\344\026N=\323@\363<ss\362\272\303iO\275\334\242\036=L\332\207\275t\255\024\275G\363\324\274I<\322=\036X\306;\036C\372\273\203\263\002\276\225s\274<<.\326\275\034+\306\275\270\n\311=\252\325\270\2757b\226<\340\320<\275\255dR=C\266\266=J\256n=\307\300\302\275@\316\204\275\217H\325\275B\000:=\000\234%\275\235\356\273=0n\241\273\205\215\016\275\215\274\227\275\252\331X\274\013\275\256\274\322F\256\275\237}\341=\324J\304=\035\350\242\275nW\034:\315\247\223\274\274\004\271=\241\342\'\275t\352e=\010V\204=\216\247\017\275\\\236\243=\346:\355\275\363\032\316=\325n\342\275:\031+\275\371\3116=e\223\255=\206\033\211<\006>c\275\373d\352=%\026\241=U?\347\275j\361\272\275T\275\220=\2430J\274\215\271\361\274a\214\224\275>G\336\272\215\272\327\275\324\324\330\275\001G\257\275j3\203\275L\251\216\275\035\266T\274xNG\275f\2155=\330\004\343;\226\261\351\2755\225A=\312\227\342=l\2071\2738\016\272=\344V\025=9\022\204=\214\262\224\275\244\340\305\275\333\216+;\306\242\301=W\'t\274\322\255-\274\376\360\025\274\200\\\216=\300\3042\275&\364x\275\266\255\016\275e\2317\275a\307\376\274\'C\331\275\353y*\275!y\204<\301\237\303=kE\234\275\320\001<=\320^P=a\035B;)(\346=\005\"\274<\216\206\225\275zF\212=\r(l\275R7\253;H\036i=|\345\323=\343>2\275\266;\024\275\376\261\245=_\370\206\275\276\262\224=\334\210|\273D\000\363=\335\210\307=\217\227\305\275zs\252\275\257\024\034=P\336\241\274\362\267\347\275\006\003\335=k\327\251\273\362-\231=\360\021\230<\205J\014\275\332\332\215=D\354\016<\3362\341=b\031\271=\220+\203=\267\317,;c\244\304\274\216L\366=\232\340\000=\270\213\265\275\273t\363;;\231\324=\367k\244\275\312(\232=\270\253\r<\374\311\003\275\005\333\272=\333\354\206=3\336\225=\271\314\346\275y7\327\275\337`\346=v\223o\275{\307\236<?\352y=\357=\343<\t$\037=i_\267\274|\265\233=\001\023\336\274\024\031&=\025\202==\241\177\347\274W\026/\275\352t\223=\033\315\322\275\211\221\217\275\240&.\275\034\245\354=\331\206\375<\031\237\346=8\361\341\275\3413s\275\024\342\224=D\202\216\275NN\334=\273\205\220<;\224\n=\260\000\325\274\307\372\214=\266V\237\275d\277\256=\277)\216=u\257\272<\204\020|=\361[L\274\245\364\361=l$\234<S\225\237\275{-\316=~B\251<\230\314\212\274\350\324\315\275\021\200\306\275.\rz\275\276\366\263\275\3728\221\274\313\205\272=\030\370\357\275a\370\202\275G=\330\275\237,\217\275(`\364\275ox\216\275\".\t=\344\220\254=\266\034\366=\265\003\307=\371*\361=S;\327=ae\370\275\245\345\272\275\370\026\233=\366\276a\275\016\006[=\352\230\353\2751\014Q\275\004\013:\275\220;\352\275\3717u\275\365\205M\274\024\327\260\275\010b\263\275\3068\322\274\277\222\325<M\026\022\275\'\3303\274\373{\356\275\334\306x\275ba8=\212 N=1\001^\275\002OO;\311e\325\2758Gx<\240\236\344\275xD\315=]\241\215=\245\220\265\275S/\223<\177\272?\275\306\010\205<\"_\243=\n\3005;/X\266=\370\254\262\273\261\005\262\275}\234\206\275\264\342\000\275\013\247{={\034\206\274\253P\252<\326\324\340\275J\003\311\274\322)3\275\373\356#=\374(\t\275q\320\215=\257\321g\275\257\r\362\274T\014\335<\230P\242\275\224\231\321\274\200!\343=\272\331\033\275\355\304\002<\327\352D=3d<\275EqL=Q\376k=\332h\325=5\327+<\314\034\"=\327<r:\032\177\224=\267[\037=t?c\275\374v<\275\222\334\337=\320\024\205<\220vq=lr\205=1\345\345<\342\226\234\275aZ*=\300\250\266\275\005\215\306\275\301\320\311=J\325\335=\356\347\201\265^\212\361<\217\226\361\274\3467\335=\275@\352\275\340l\355\274\223\222%=\200Ef\275\266\277]\275f\025\234\275T[\323=\376i\304=\235\177\256\275g\324\227\275<qh\274\245:\215\275\372\274\212=\230\217\271;\305f+=\325a\374\274\305\206\036=p\202\032\275\213\240\215<?$\237\275\247\256\346\275l\3539\274\350?>=\243D\355=\322<\320\275\353\376\267\275\242?9\275\367\256\340==V\217<D\203\266\275\362\356\270\274F\371\363\2745-E=\326Q\341\275\351\000\307\274\215\264\304\275$\361\237=+\027\024=5M\316\275\204\037x\275k\376\033\275\021\327\216=2\364\310\275U\353J=r\313\205=\377\332\350\274\352\251\255\275|*\330=\244\367\031=\275\312\340\275\240j\024=\313\303n\275E\2720=0\255\212=z /=X4h\274\277\005\230=\026\243\342\275\313\213\342\274\332\310\251=Z\010\344\275n?c<\r\003\353=HK\347=\255\325\314=\330\244T\275\242\205Q\275\367#R=\340\333\325=\231e\335=\371\235\261\275\013\033\255\272l\316\305=\007\260<\275\333\303\206\275+\323\213=\264P\034\275=>$=\255\321\360=\203\360P\273\326\241\010\275\023\217\211=5,3\272h\331\"=8\357\201\275mk}=\320\350\206=,=\354=\243\000\201=\326\366\246<My\345\275\377\250\252=\036+I\275w\355\201=\216\014\024\274\274\352n=\035l\021=\254\360\214<\207y\t=Z\253\350=F\361\225\273\346\032\"\274c]\317\275\360\226@=\276\200D\275\342\347\356<v\245\332=A\252\207=~z4\275/Y\331\275\352\021p\2758\031\332<\352\031\306\274\t\273\207;\005+u\275%6\325\274\350\3763\274\323\t\004\275U\206\317\273\275\r\036\275G\214\223\274\220\370\310=\004R0\274F-\311=5&\247\275\301\014\272\2758x\251\275\n\"\260:\2448\006=\340\342\262<\240j\351\2757\207\263\275\\i$=\337n\243\275\327\236\032=\376w\253<\271\372\r\2759\360\265\275!\307\362=a\220\374\274\244s\352\275X\372\204<\312\226\215\273\230FI\275\311j\301<O\216\013\275\230\326Q\275K\352\356\273\006B\267\274\374\321\323\275\n\353\336\2758\024\237=F\003=\2759f\261\275\357 \316=\202?\222\275\210S\215\275\350\0249=(E\340;\202\205\325=\233\276\340\274\302\342\304\275vP\274\275\360\2061\275\343H\241<\256\322\265\274\204\346\t<M\032\261=\001\340\266<\267)\355\275\270s\016=j\364\216\2750\222f=D\250\325\274-\214\341\275\345\376\322\275\010\007\225\275\010\017\\=\357g\321\275\000O9\275|\250\251\275\240\3322=\375Z\226<\207q\256=\221\240*\275K\322\314<D]\245\274\230\000^=\022\217a=\022\237\276\275\225\177\027=\212\002\232=\032{\333\2756W\236\274Il\353\274\307\350\240<\230\017\352=\020\376#;\376\225\367\275\351\243\206\274}\347\331\275\022D\322=\272E\370<8\3071\275\013\316\314\275*\367\226=\314o\247=\331\375/=\027\312t\275\370\233\241=V\323\363=\305\260\r\274\217\301\275=\241\235s<\326/\354\275\020\220\320\274~\000\261=\307h\246\275E\347\231<\264\211\232<\037P\301=:\305\272\274p\335\360<|G=\275\257\230(\274{\321\241\275w\337\224\274\277W\313\275\320Jf\275\034\334\252<\2759O=VI\253=3\255D=F\303#=e\233g\275\361|\260;S5\257=)\0232\274\221\257\005<#\210\374\275\233\371\001\275\237\261G=\t\017\345=\317\336A\275@X\237\274\0065\244=\345\261\177\275\2533\265\275\270q+\275t\377\252;\001t\221=e_\002\274\2546\235<\203\0267\275\024O\020\275?\342\374\275,6\266=\265v\344=\345\331%=\024\362\364<\013\"[=%y\207\274jW\340;8?\217=\034:\334=\'\307G=\217\320\344=\334%!<\357\272\240\275<=\021=\221\202\257=\035\361C\275\334\301\335;h\nS\275\376cG\275\247Gw=\326\351Q\275\326\344\365\274\033\321\226=08\313\275C}\020=\201)(\275\261\004\326\275 E\217<-\306l=\366\022\254\275bO\233;r\342\367=\223\230\346\275\212\363U\275<7\206=eN\233\2751\312\356\275\007\245\013=\025\276\325=\211\203\215=\2038\003\275\021\211\270=\267\347?\275\026n\220<`\010\245\275``\302=\235\031\262\275\031\374\332=\316\267m\274\275\364\364=\273\354\340\274K\007O\275\260\246\306\275\032h\237\275z\365\004\275\322\365\341\275S\212G=\005C\245=\000\025,=gL\273<\t\326\214\275\356\362\256\2754pf\275\\\373\204\275gs\024\275\356\036a=o\'\247\275Kt\335\274\201\026\236<\016\237\316\275\257@\237=\213\025\257\275\375\261\017\275G?k=\255>\232=*\332\265\275Ti\321\275\357\275\020\275?\032\243\275\336\362w\274\267\232\320<D \205\274\256z\020<\"=_\275\234\361\311\275\264\206\277=\332\314\317\275<\201\266=\271\236n\275\351&\356<Z\243q=\031\301\200\274\313\223\361=2V\234=\236h\257\275\245\260\270=\020\346\324=zo\337=\277\212\302=\347K\037=Z\337\260\272\274\251\215=R|\363<\206\257Z=k\025\215\275-\323\222<b\3028\275\"\014\363<M\344\357\275\207]h\274\342\265\253\275\016N\347;\367\022\346\275\006\032\304=nA\272\275\275\r\216\275\307\331\321=x\024\200\273\211\222\200\275\303\210\212\275\260\243\336=\0260\363<&z\243<\223\357\241\275h\024\204=If~=\360\247\023<\024`u=cb\374\274\334\274\254=A\035\275\275\034\275o;\025\340[<\232\333\004\275\306\026\367<\300\305\260\272OQ\337\275\232\376\212\275\034\257\217\274\311,\350\275\317\350\320\275U3\245=\225l\321=<\260V=\030\351\246\275\t<q=\307^\216=8\221\207<Vb\252\275\233\350\204=s\214\252=oO\361\275\256`j=}\236\'=,\246\315=9kd=\312\'\372\275\315\367\321=\250P\347<\334\202\313\274k@\332=E\301A=\261Z\224\273PU\354<d$U\275Ae\324=\275\311\254<\363m`<v-x=\002\026\207\275a\242\245\275\203\210\275=\340*\241=\213\nZ=;\'\326=\340\014u<\327\315\273<\200\241\033<\321\265\273\274[_\344\272R\333\033=\013\261q=0\211\273\275r\016\005\275lm\314;&\332\013=b\364-=\224%\314<rc\245=h%\317\275\367pk\275\303Xp\275\010\245\204=mr\246=\031\030\022\275F\341\262\275?,q=\375\022\265=\223~\246<\231\207A\2752*2=<)\322\275\343h\323\275Y\371\254=\255q\017\275.i/<\350\213\365\275g\r\366\275\002\362{=\304\370\207\275\244\325\206\275t\354\330=\010\356\226=c\353\241=\002\'\243=\303A\234\275\207\233\272<\220I\230\275\233M\351\274\335d\030\272\250,[\275OEQ<\305>\343\275\002z\276=\265R\306\275\315\254\214\272\004\337\331\275p\235;=\370S\243\275s,\301\275\223\305><\270FF\275#\351\245\275mX\232=\302\232\001\275\314\301E=\037\323\002\275\037T}\274\367b\274;%D\030;\333[i\275\251\352\216=-\323\211\275\031\214\341\275\013\217#\275\327*\277\275\"\264i;\310]\336\275\204\007\210\275\014\326\036<\217t\030\274\203\342p=Zv\265=\322\034C<~\370_\275\210\313\262<\336\270h<\204\325\213<\215\332\266\275\367\n\366:\255*<\275E\226\230\275\334\242\326<M\354\016\275\033\231\245\275\234\245\340<\\N\311\274j\'\310\275Zx\216\275\226%\366\275\373\370\317\275\n\210\343=N-\326\275\340X\335\275\367/\267=\363\034\366\275S\346#\274\257\342\252=\262\212l=7jn\275\rd\323;LJ\271=\302\030W=\3161\221\275\t?\352:i\267\267=!\253\223=\032\030\241=\247\235\311;\353\032\210=\010\315S=\021\233z\275\375(9=\014\270\244\273,$\363=c\255\305\275q\213\"\275B\374\255=\372\360\323=\tNd\275&\231\206=\276\035T<\037$\326=\025\366\200\275\026N4\2751,\330\275\264D\221\275\233Ob\272\032\301\351=\032\rf=+\002\035\275\205.\230==\317\344\275\372\335c\275\036\365Y\273\003\327r\275\317\306\242\274pj\234=2\r\325\274\226\330\333\275\216\314\263\275 \344\365\274I\315i\275v\247\225\275lJ\221\275\2405\335;\204\331\363\274)\327x\275\2167\361;\007\212\352\275\311\031\331=\271\031\342<\204S\026\275\260U\277\275O\334\245\275\355x\333\275\322\244N\275\030\022\234\273\233H\331=\213^\241\274(\274\301\275+_\236=P\035\240=\025^\315=\010<\340\275\2334\304<j\257\255\275\023\261\237=\036\270\027=\303y\\\275TZ\013=\"U\031;or\203=\274\333\216=\301\224\343=\307\335\361\275\0006M=\2463(=\016]\017=\322\362\227\275\350.Q=\360\326\253=\020l\265=]u\353=:\030\"\275\223W\336=\023k\273\275{r\256\274<Q\222=\274\236\004\275\216\275\013=\263\272\365\275\305\3066=Eo\263\274\243)\240=(\206\233\272N\326\257\274\356Iy\275\014!]\275)\222I=\177\315\242\275\226\010\036\275I\272\242\275\010N4\275\346\301\\\275\035\0057\275r4\327\273\337\017\270=X\016\340\274#\357\035=\301<=;\247F\274;\310\2648=o\230\022=\242j\274\275\206{\302\2751\'\r\275\210\3326\275\235\023\235\274\027\271\341\273\221O!\2759\347-\275t\302W=s_\343=\344@o\275\026\314\310<\312\341\235\275\204O\355<\036a\034=`\021\316<yU\346\274\211\233\370<\233}\205\275D\205\217\275\347@W=S\251\004:ix\232\275lGz=UB=\275\275\'P=\240;\344<\303\n\206\275\016\325\021\275\327\200\276<\2043\225\274?{\305=VT\333\275\353\221+<\2607\325\274\301\003\212\275o?X<%\305G\275\364\225\242\275_\035\016\275+\344\243=O\351\235=\035\316\374\274a\017\036\274\372\325\304=\325G\252\274\214#7=\302\001\211\273\000n\377<\010\030\223=\367\353\203=\242\266\333\275Fg\323<\224\031\034=\376\227\304\275\217RX=\036\330\357=e\364\344\275\303\001\235\275I\\\352\275\254\241\221\275\241\333\362=\002\335\016\275\2465\325\274\372\027f\273\222\207\334\275Xp\376<r\204\363\274M\352F\275\005}D<\366~\300<\234C\257\275\233\"\202\274\tXT\274\3710l\275 \257\243=\312z\340\275\256[\271<\363;\264\274\220\211\325\275{1\017=Xf\235\275<\257\306<m\177\316=Z\231\004=$\352e=.\022\236\275\374.^=\324+\225=\302X\337\275\264\352\236;\245!\242;\351j\331\273\300\342\250=\306b\221=@)\274<\314\014\256<\031\241\246=\226c\322<_(\345=\312&\267\275\003f\312\275Xpa<4l\332=\350\022\237;\343!\236\273E\216M\275\372\263\310\275]\364&=\334\t\341\275a]\267\275bC\274\275L \332\275\212]\327\275\316\376\271=\225S\227\275~\300\357=\240T\207\274!\310\215\275\2438\300\275}\236\346=*\022\240=T,\260\274\326\026\351=\217\024\317\275#\235=\275\202<\334\275\r@j=z\247T=\373\317\251\274\366\222\233\272\275\341%=\014\205\341\275Z\026g=9L\344\275\277\217\205\2752R\356=\323v\014=W|\300\275\177\260\301\275\3626f\275\256\331\222=,|7=\254\033\034\275V\215s=\316\243\326=Jz\272<\360R\261<\2278\314=\202d@=\327\253\232=\346\302\326=\301R\223\275x\323\226\275}\323\224\274\032\024?\274\016\257U=G\322\333=<)n<\016\351\317\275\337\013\272\275\363\353_=\2125\037\275\332,\221\274\314I`\275W\325\350=\226\346\025\274\003\031\267\275\001\252t\275\266\201#\275\322\256\351\274 \237\016\275\362\264\326=\235\312\366<\372Z\333\274\260e\267<{\373\263\2747\\\370\274\347v\256\275\305\355\306=\335N\353;M!\235\274<\314\024\2754\026\343=\255\202\234=\344\2276=\000\357\357\275\'\264H=GX\221=6\202\312:\t\315\201\274\343\224\034=|\r\242\274\351\336\270\270\177\323\010\2756\251\363\273F\240\321=Z\300\265=coq=\024\r\323\275\216\332\235<\352e8\275\226I\232=P\233\363=\331<\323=\361~?=\271\005\346\275\005\036\361\275\362\017\370\274\030\317\022\275\257\215\347=\'\327\037=\2656\245\274\342Y\203=8\237\277\274\270b\263\275\225\320Y\275\356!\024\275%\301\307=\023a\256\275\376\370\325\275F\360K=:\301\354\275\351Rr\275\207\225\'=&f\024=\032\351\334\274\236\312\365\275\300\220\204\275\247\311\216\275FM@=\372\331>;\224\356@\275n\274^=x1\272\275\256\026a=\364\000\250\274jS\252=\2372\236\275\n\020\217\275\207g\316\275\276!z=\300\233p\275%R\336\272\376\342\237\275\231\303\346=\253|\230<h\320\314\275\362H\337=\031-\242=A4\355<\263\3647=$\206\225\274\257\250\370=\364}\325=\335\026\204=e\271\214=\354.\310:$\n\310\275\214\376\024<Yy+=lT\346\274Jm\016=B\017\344=_-\n=\306#\014<\240\245\361<\025=\t=\314\004\331\275\336G\346=\237K%\2748SR\275\374\3265\275\362G\327<\377\374\004=\256F\254\275\257w&\275Y%1\274\003\251\373\275\374$\313\273\261^\337=\324\200\272\275\242g\232=\2616\315\275\351\001\271\275\036\355\201<\231\223\275<\212E\246\275\344\316\323\2744y\r\275\327\007\264=\"\373\237;\332\357\206\275\375c\261=\275 T<\001=\315=\tf0\275\266\277\231\273`\326\302=\356\177%=Dd\336\275<\204l\274/\300\212<\256\317\340=\201|\315\275\222\021N\275Y5]\2750\203\214\275\272S\235=\263>$=\235\350h\275\326\212\360\2750\326?\274\357\354\355<\332\327\032\2759\375=\275l%\351<\3518,\274\005\350\325=\214\313\222=\3433\275=\023\213\347\275%\'\235<\233\321\205\273\355\304\225\274\0162!\273]\260\220\275s\343J\275\223\371\337<\224\353\340=\3149\220\275&5\226=\327\025\003=\222\212\364=c\222\245=\202h\371\275\027\226\240=P\224\341\275|\010\342<\346y\221=Y\337\314<&\264\245: `\364\275\260\rE;`\306!;\014V\325=S\023\324=mp3\275\272\017\312\275\230\n\275\274\321\n\253\271\351^\\<&\373.\275@\026\331<,@\207\275i\257\216<\300A\325=\221\237o\275\311:b=G\203\351=\336\217s\275a\223|\275c\030!<\341\366\367=\264\007E=^J\033\275\3125\315;\231V\321=|\252\207<t!\327\274\324\036\336=!\346\235\274F\332\321=n\207\020=\223\250\354=\202\002p\275\030\014\320=3\024\313=\265\304\325;\256\"\374<e_y=\244Fj=Q\354\206=A\334 :\362&\317=\234x\354\275\021\352C<\305\237\370\274@\n\227=\020\"\211\275z)=\275\301\314b\274\327\250\270=\213H\216\275 \"\305=\002\355\353\275\334\203V\275KX\246=\273\'\342\275\313\242\037=\337\037\323=\307P\245\274k\223\254=\271\017\266\275\255\033\206\275\004\230\317\275Z\026\233=\242v\357=\244\033\314=\244j\352=\020\262n;\334e\211=\016\374\277\275/V\213=\254\267\320=\310\004!\273{\327\254\275\356\304\270=\336\003d\275\035]\256<\221K.<\n\327\200=\016t\361\275g\334\220\275\306\r\366<\\\252\246=ER\331\273\221c\035<\211\330\023;\240>7\275\263\216\177;\245\304\037\2755\356\202\275W\201\207\274\347\224\000=c\331L\275d\337H\275\273H\344;\372\376\'\275\220\005\010=\002Z\322\274I\350\033=\370H\305\275\240&\230\275\367f\352<\030\026\214=D\033w\274\033{\377<\363\271\035\275_r$=+\341\324<\000s\320\275\366$A=\373X5\275\353\325\205<#\225\373<\202\230\275\274\024\372\317=\3138\341\275;w\250<\316\202\311=IZ\251;\213\215\231\273\346D#=:\222\267\272\375H\301\275\270\200\"\274,y\354=?1\304=\'\202\224=\251\r\206<T\001\302\275\007\020\204\275J\022\210\275\373w\253\275+\016\353==T\345=\321\252\002\274\230Qn=\200\365\256<f+{=4f\220\275\207\357\023\275\371.;\275\222\274e=\033\307\217=\305\365\301\2750\225\211=f\270\033\2741+\016=R7\244\275\204%\276\275M&%\275\216+\333\275]%\355=d-p\275k\342\035=\301^\226<\006\021\356<w\271\215\274\206\357\025=?N\226=\363\272n\275\245&\301\2752\270\216\275\300\375\274\275\312J\364\274e\354\24199\324;\2741\245\023<a\036\261=\206\233\350=@\215\336=nC\313\275\350\362J<\200\243\005=\233\317\215\275\227\251\355\275\346\231\350< /N\275-S\235=\270\356\225=c;\255=\212p\264=\3516\324=\227\351\225\274|\377\013\2756\367u<=b\367=?O\254=\007\031\253\274\206)Y=F\300\332\274/\325\302=\352G\356\275\275\225\235=gH\354\275i0\244;jm\264\274\375\227\207\275\224XF<\020T\320\275\2350n\275^\034W\275d5\030\275&\236\271=(&\357=\355\342Q\275\312Ql\275\033m\225=\342\324\326\275Gy\205=\364\037I\274\210\233\214\275o\372\231\275\331r\307=\362N\200\275\336@\r\275\253x\245\275\234[\037=\364\367\000\275\007\356h=\370\3224\275m\333\331\274\324\364\202\275\021\207\245\275%\037<<2\2708=\210\275\320=s\037K=\317\033.=\264\r\207=\360\203V\275\004\336\333=\001q\363=\242`h=\001o\030=\214\300\253\275\224\372\350\275\300\335\361=\371\317\203\2757h\214=\305\004\333<\014\317\210<\254\266\333=\216\307\354<A\337W\275\306>\312=U\342\010\275\247\322\342=\252c\354\274\310\340w\275\203d\344=\311\352,=\373{A=\306\223(\274q\003\036\275\363\\\205\275\2168\031=yj\267=|;h<x\311W<\270\246I=\231v,\275\020\342\212\275\031\267\235=\307\312\300\275**\216<@V\275\275\310\026\346\275\360@\016<:\'\322=\'\237#=\242\177c<~\237\235=\217\341\200\275G|\335=\022s\335\274\313}\327=\265\265\233\275\335\237\311\275H\022\377\274\215\307\034\275}Th\275o\002n=K~\243=\035\216\360\274<\366N\275\000\337\273\275\332\304\334\272\365\321\320=\312\300\020=\341KI\275\256\302F<\036\273@=\223\257\231=\336\312\270=h\216\256\275\330\350\365\275\230\370M=\213\341\251=+\270\205\275rK\007=\363@\325\272|\306\005<m\374.=\262\374\202\275)\037|=\030\355a\275\227\231\234=E\246>\275\022Y\336\274\003\207\263\275\177\233\215\274}t\213<I\3467\275h\317\227\275`\327\244\275\246\261\351\275\330H\225\275\242\022>=8Od\275\010\255\361=\202\216\331=\231\235\270\275\217\350\323<\r\336\315\275\205.J=a\335\332=\245\233\n=\r\234\217\274\326^o=\006\375\243\273\230l\336\275\3615\330\273\021\220\334<\3135\026=\364\351\373<\363\205\356\275hS\320\275G\024(\274\001\320i=\326\311\346=k,\302\275\001K\217\274|\r\016\275\255\314\217=LI\345=_\254m=\206\334d\275|%\221\275\313\037\233=\300\335\374\274N\255\210\2755C\206=<.\321\274G\350\223=YA@<1\324\227\275/\013\301=\003J\365=\260d}=j\2113\275\374\232\324\275=\3022=Rj.\275l\237\003\275U\035%;\2359\233=\370\226\252=\361\366\253\275\304\232\361\274\365Qe\274\371\273\264\274D\360\250\273\210Q&\274\242I\270\275\325\357\316=\340\215\255=\257\247\327\274\337\261\240\275\261\222\316=\304\016\251=\2448\353\274 L\241\275\240\272\302<\252\354\230=\206\330c=,;\333\275s\214\264=\020X\303=89\202=\353z\360\275\314\334N\275\313\360\342\275s\303\353\274\3476\323=YV\243\275\001\317L<\352W\267\275\210g\241\275\013\375M\275\2257\343=M\275\320\275\2424\357\273%g\324\275\3607\206=\253\264\315\274Y\233\344=Dj\351\275\322v\204\275)\334\007=\320!\337\2747y\264\275P\200\365<}\307\266=\010S5\274)\245\354<\t\215\250\274\3250\366\273xCV\274=\246\317=>mn=&\334*=\037\231~\275u\003\324<\370\361\365=\263\231\227\273\202\026\254\275\263\177}\273\244\271\310\274\021\321\207=\320~\006\275\336\305\233=\215\232\320\274\373\210\305=0?:<\023\025\230\275Zz\256\275\002_\253\275\202\211k<b\324\232=w\267\321<\336o\265:\"\\\301<\243\347\360\275\276<F\274\361\270\263\275\302\004\236=\260\247\35285\332\311\275J$\'=\217l\177<\305\233\326\275\250\031\322=\331XT=\365\330y\275\005\343{\273\356-\355=\013\247\003=\242,\341\2736\221\274\274\027\006\201\274\253\323\267=~\336\261=uL\300=\300\214\343\275\033\300\355\274l1G=\345\306\373\274\357\301\205\274:\231:<u\006\267;\242\306\245=\3559\340\275dZ+=\322J\365\275Y(\342=\316\026~\275\214Z\244=\000\300\224\275|+P=\272\323T=-\313\340;\344*\267=\253q\206\275L@\256\275\265\3431\275%\316\341=\337\226\316\275$s$\2752]\253<\025\3726=\257\371\232\275,[}=<\351\037=_\362\352<\004\241\236=v1\365\274\001\211L;#\200\364=8\037`\275\231\322\333\275Q\232\272=\373/\346\275\t7\243<\336\323\300=m\245\325\2750\257\253\275\336;V\275\242\\\351<T\343\330\274\307#\275\275\307\222?\275\016\317,\275\006U\355=$\203\305\275\226Y\205=>\034\260=\312#\332\274r]c\274[\235n<\227\310\004\275\035-|=\234\031\260=\335\n\031\275\324v>=5P\233\275\226\212\325\275\016\353\247=\346\334?=|1\313\275\366\355\210\275\005K\347\275\313\273#\275q%\364=\312i\317\274CG\033\275Gr\220=U@\363\274x\210\345\275L\374\300\275o\305x=\016\350\210=y\020\207=\230\233\207<D\202\231\275E3\233=\016\326\230=\361\302\261=J\030\200=\343j\274=|\302\206\275\326\215)=Ww7\275\301\272\210\2755\3423\275 \246@=\244\233G\275\006\221\240\275\310\314\250\275\346\020\332\275L\357-=$\352u<\265\307\332\275G\220\002\275Sd}=\226c\352\275\343\326N;\014$W=kK\'\275\036\3301=W\257\001<i\374\254\275\377\362\221\2744q\330\274D\362\026=t\344\206\275\212s\352;\330\234\357\275\320\220\215\275\257\026\334=j\372g\274&e\214=\374\201\030=\362\002\324=\264\364\251=\274\313\252=D\262\224\275M\330\310\2753\223\021;\200(\327\275\207\301\361=V\236v=%\343\356=\2623\257\275z\312\304=U\302\331=vpQ<hw#<\226\363\235\275\321\372\005<\250d\311=\326\250\222=\335&\034=\237\3464\275\250\337\244\275\r5^\275\370\262\307\274Z\\\177\2745H\227\275\033X,\275\0045\325=\356\305\032\275*O\357=\302y]<l\225Y=\014P\347\275-8\003=\336\004\203\275\234u\210=S\306\016\275\267\357\363\275\210\363;=\206g\243\2751\300\263\275\350M\"\275\372^\250\275\316\255\273=\000\013\022=\351\331-\275\341\333\244\2756\361=\275z\254\245<\265N\365\275b\217X;?o%\275\25544=S\216\222\274\243J\302\275\006\205\277\275\372F\350=\006<g\274~\355K<\374\032e=O\226\362<\334\375\337\275\370\346<\275\016T\345\275E\236G\274)\210\251=\256\216\301\275\360\276{\274\366\033\241=\010C\321\275$\377\312\27500\255\275!\251\240=\352\003\360\275\224\337\316<r9{\272v#\032<\304n\245=(\337\r\274\200\276%\274\036\327\226\275\325\347\224=*\317\331=J9%=\342\335;\275H\243i=MP,=\310\3124=F@\362=c\024/\275\231<\324\274\232:\325=j\322D\275$\334\236\275\205\364T\275\250*/\275\253\243\235\274\221\266\324=\363p\215;\302\265(\275Y\'\035\275a5\217\275\177q\360\2741\354\277:l\034\310<d\331\226=\\g.\275Y\202\365=\221n\250\274\241\224\255\274\020 p\2758l$\275\0141\230=\257t\344=\372\035u\275<\356[=\340}d=_@ \2755\254\242\275\373\276\203=\372\221\350\275\034\211\203\275\242\305\300<\265\260\317=\307:\204<\370\2154\274/O\265\2755\277\021;\230\211\301\272l\334\021=>\006y=Np[\273\202\200\276\275\000@\230<!\362\302\275\373\322\222=\2076e=n0\346\274\323\277\315=\361\313\303\274v^\205=\r\021N=yP\373\272\0016\207=\315t\235=K!R=\006}\207=\300\247\265=\366\260\272\274\347\236\n\275\004Z\324\274\321K\363<\334\200\330\275\353\247u<\214Y\364\275\214\'\266<\223\303\226\275#tq\2755~\350\274\2634D\274\213+\364\275T\001\214\275U\250\262\275a\310\361<\304P\220\274A\356\242=\350\356\371=([\016=\025sv\275\333\216\t=\370\255\311=\331qM\275$\222\005\274\245\212\032\275\001\037\243\274\340\035x==\210\233=H\221\255\274w\367x\2754\354\320<0\326\302\275\003\241G=\230\004@=\276\226+\275\362[\204<\"\346\270\275\273\276\351\273\305\316b\275\344\2074\275\325\306\271=W\213\215<V\355\312=j\022\311\275l\354U\275\317e\357;l5\350\274@^\207=\206\'\030\275zV\226\275j9\310=\320\037\346=_\232p<ip\314\274\266F\002=\025\004\324\275Z\353\343\275\347#\316\27589V\275D\325\247\275\274\301#\275#\035\344\275]\336\240\274\371@\245\275*\306\244\275\277\225\361<7\202p=\"\322P\273\264\212_\275\255\347\323\275\202\214\255\275\247\336\213=l\312\313\275\247\016\312=\235\271\346\275\365\343\270\274\204\236X=\031\024\377\273e\376c=\341M\214\275\r\275\210\275O8\006<\227\014\225\275\374\206\200=s*l\275&\255\254<\237\255\301=\322\262\275\275z\324a\275\027\252\201\274\2605\201=\277tE\275Rw\326\275\355\336k\274f\316\001=\233\250\241=#\255\005\274\336O\367=#\327\312\275\340#\227=K\257\213=\226\2405=\332s\316=\222R\324\275Q\263\t\275\032n\236=\n4\253\2756 \313\275\262\330\226=\340\237`=\301\310\310\273\306\371\253=\305p\363\274\3074\031\272Gv\256=\212=\367\275\343\362\367<0\027\363\274|~\212=\"#\231\275qJ<\274C\275`\275\244u6=\207\326l\275;\266\313\275\023C\211=\213\031\307=\335g\344=\241\261\250\275\2461-;\220$O=\320xF=r;u\275\234Fx\275B\301\331=\236?\360=o\201\036=\227\206\355\275$\332l=\232K\267\273\332\276\334=\001\230@\275\245T\325\274(\000\201<\273/i=LF;\274o\311?</\344\255\275\366\240\366\275)\r&=\013\341\"\272\230\325\277=\255\207A\275\324\307\025\274c>C\274\0052\025=m\256\327=\317\356\305=\326d(=\374\021O\275\315hA=\336\264\224=-\320\337\273q\254\202=m\331\230\275~\002\207\2755*\265=\370)\367\274\314\362\225\275\264\347\326;P\340X=\277\010\201\274\203\233_\273\375\374\361<\033\230\343\275\375t;=\302\347\247\275\265}\365\275\214\333\343=\310\006\003\275\320\304\345\275{7\216\275\261L\211\275e\024\324=k\267\350=\0219\242=\233P\242=\"\376\202\274%\245\200<F\364\265\275C\366\267=\3149@\274\231)\337\275J\204\261\275j\246\256<{\376\030\273=\316\327=|\372\350\275d\341\021\274?\020\370\274\256\334\213=\325\330\336<K\332\265=)\367x\275\340\033\005<@\277\203=\350\230\312=\316\354\200=\367&\220=\243\020\365\273@\320\230=E\022\222=\327\034\234=)6\273\275\022\374r=NF{=\231\215\264\275\006\363\210\275\tU$=\3112J\275/\357\316=%\2239\275yg\264=\265\240\217=M(\322\274\357P\025\275>\217\331\275vZ\323\273\316\320\216\275\243\277\360\275\013\260g=\372i\326\275\374\266\207=M\010(\275\230_\010\275 \235\322=\253\247\314=\036\317\275;\027\005\220=\215\356\340<>\300w\275\347\031\355=\227 Y<~\215\354\275\360{\214\275\224\030N=):M=@`\261\274U\024\260\274JE\203=J\275\242\275\032\277\325\274\177\367\334\275\364\200\246\275l\363\302<\n3\230=\207Ur\275VK\260=\345\336\331<\252j\317\273N\213u=\277\326\260=71\244=\034<\302\275tx\271=\356>\247=K\357\247<\230\224\206=.M^=6\336\322=\' \032=\274\035\357=\020\206\215=\366\363\225<\326\325\300=EJ\004\2753\342\310=qwv=\253\221P\274c\221\\\274\257\362\235=H\374\202\274\373\237\343\274\306\264A=\037\232v\275\371=`=I\253\323\273\206v)\275\315\005\337\275\311}%\275\363\260\210\274\302\020-\275Ft\353=n3\353=,\331V\275\263\250\301\275E\225\231\275\227~\236=R\251\030\274\005\006\263=\270\027X\2754\240\334=\310\022\314=\370\\8=\026\325\254\274\021\024\302\274\300\242\226\275\345\302\327\273\"\221\026\275a\256\220\275\276.\317\275\3163\342\274\316\334\036=\005\204 =q\341\254=\211\3611\275A\210\r=\262-\220<ow\363;Y\233\366\275Oo@\273X]\022=AE,=\242\211\266\275\007]\025\274\343\327\275\274\177T\322=\030A\261=\254\213\016=\315b\361\275w[\322\275\362$\321<\3550\241=\3177\001\274\352C\034=\230\037\327\275\t\264\022=@\317\257\274. \314\275\272;\232\273\266$\274=\271\230\311<a}\236=\307b\033=\260\224\272=A\252\205=\002\210I\275$\362-\275\242=\314\275\3201\215\275\2420\330<tn\227\275\275\n\335\275\360%k=\027\212\020=s_\350=w\214\311\275\247w\014<.\325\344=\311\305\230=\263@\n=\221\206\014\275*kd\275=*c<\207a\321=c\316u==\233\232\275\006\035\343=\335\254\307<\376\232\211<g\212\307=\373\0222\275\371\227T\275\366\026\252\275\004\356\325\275\255N-\275\371\374\013=\270!\330<\204\317\345=-\037\323\275qL\027\275\356R\312\274$\253\216=\311\242\240:\366\253\320=HD\005=\371I\231\275\271\252\261\275[\324\326\275\263\031\257\2743\274\016\274\332o\026\2753\215\'\275\021\240j<\320\267\240<6\023\352=Y\342\272=\r\205\332\275!9\346=\344\203\306=\037\316\365;\336\235\031\274\375\264M=d:g\274\323/L=\214\024\344\275\311\262\266;\250\314\217=\301Q\312=\230\200\277\2752\367\231< \212l\275\332#\025=\204=\020=&\275f\275\3021\214\275\346\353/\275\242]\310=%\017\236=\306/\311=\277\345|\274\312\231\003\275|7#\275\270w\266=\027\374\325\275^\325\333\275!\367P\275\221\213\357=p\024\211\273\325\216\013<\363p\323=\013\252\035\275hn\362\275\267\270\203\275Yym\275\343\261\361\275YZ\030<.\252\020\275<\267o\275\304A\032\275\177\002K=M\324G\275\036>\223:i\371g\274C\243\345=C\237\272=\252_\206=\315\333\222\275\325\"\370\274\317&v=/y!;\341,l\275\211q\275\274\265kV\275\217y\001=\010\277\t\275\364\021\256\273\312:_\275_K\336\275\276\273\334<@\247f\2752\241\205=i\255\330\274l\335\330\274\307\362\335\275\245\353\214\275\001\003\016\274\303\375\276\275\177\240\216\272\r\025\212\275\302\262h\275b\217\355\275\272;\236=^\273\310\2743\247N=\303g\356\275\357\035\233=\344\374r\274\321kg\275\316\033Z=\341\320\251\275-\307\263\2751\230\303\275\210M\206=M\346k=t\010\264<\326C\330\275\221\010e\275X\230f<\374 \\=\242f\260\274\351J\333=y\037\315=\310k\310=\270\321\335<\2137\036=\253O)=c\364_=\333\321P\275\375:\322=\350\222r<_\226>\275\203\231\023=\"\261\233=\236G\274=\206\342\325\274\333\030\325\275T[\334\271\021 \200<\201\265\266=`k1=\212a\210\275\235)\321<.\032\315\275\276\002\321\270\020\335\352=\022\220@=s\276\"<\231\343\273\275\335\356\247\275\\\216\202=\217J4=\341u\301<\317!~\275(~l\274\275,\034:\037\307A=\273=\335=\377\301\323=\t\247\333=\364\004\271\275y\242\233=a\364<\274U\354\261\275\006\3335=K\242\224\275\250L\354=\002I\370\274\225~\236\273~h\207=\000\263\303\274\361\372|\273#\3051=\323\313\260\275\021\330\255\275\216\233\254\274\213\267\027=\201{\204<#-\203\275\267Y\262=\030\365\221\275\\b\231<\310\236\323\274\031\370u\275%\327\232<di\323\274[\332\264\275\247p\323\274\261lg;~\304\220\275\226\315:\273\236\255\021=\275\355\364\274\205\317\216<\373\255`\274\002\257\216\275\327n\272=\220\346\"\275Y\246\306=\276\347\213<\376\361\314\275\246\246\241=\025d\277\275f6\243\275\026\304\023\275\345%\207<\000\006\270=\255\006\214\275v\345\312\275\303q\340\275\000\376\034=\303\350r<n\361\246=\340\347\221=\013\245\303<\232\264\344<<\017\006=\001v.=h\217\210\275\224\204Z\274yIR=\330u\252\275\306P\325=\244~a\275>|y=\335\262\257=\372\0222=7\277H\275\333\271z<\224\254]\272\026\374]\275\267\244\260\275\353\257\333\275\243\362\210\275\336\006\226\275\302^ =\200=\244\275\237c\221=p\255\212\275\273L\235\274\371\261P\275\271\025\307=7\024\245\274\344_]\275\207\'s=,\001\222=\305l\366\271\200\366\354=\211\371\263\275\307\244\340<\025%\212\274\027.{\275\223\334\236\275\322\035\215\275F\356k\275a\215R\275\241\270\341\275}q\310\2758]\274\275\257\263\241\275P\370\263\274M?\342\275\364\241.=2\014\316\275}\240\314=\'\0263\275\211\025\306=gk\245<\307\345\377\274\34433\275\265U\306\275Q\010\243\275\213\253\036\274\255\275G\275}\247\263\273\376\266\237=8P\311\275HC\247\275\206\\\347=;\241@<\035\003v;G\241\201=\350\030\276\275\277\354\265=\325$?\275\371\320\342\275\352\272>\275\327\357]\275u\257\355\275\010\316\220\274\215YG\275\227\202\231=\256\312\332\274\001\265\235=\321\311\223=\361\355\322\275\020\365Q=\274M\277=\214y\211=\330]6;\375\212*<\317^\212<\224\341X=\354M\333\274\2552Q\272\257\251\034\274sF\222=i\222\016\275\364\303Y=\367D\210=\271F\231=\030S\202\275i\374\316\275\305\020\234\275}\2537=Sg\031\275\243\031\254<\305\353\315=?\322\013=*\242\225=6\346j9\372\371\037\273\271\004\253\275\257\243\336\275\320\252T\275\314\020\030=g>\265\275\352D\240=\232q\007=i\261\346\275\013\013\256\275y\332\217\275\243\021\204;\360\351\322\273k!\030\275\205\270\314\274\301\356\200\275\254\245\270\275\372}\r\274\254-\344=1\002p:\366\246\365\275\361R\204\275\352 \214=\023^\363\273\273\001\002=\331\'\010\2751f[=\3117\001=\024\025\351=k$K=\362%\207\275\023Y\245\275t\237\221\275\214\214\315=\177\353~\275\230Z\357\275\001Z\210=+\271\256\275\264\307\206=\200\256\231;\031\251\265={\326\300\275\337\275\274\275sy/=\t!\337=\205&\004<x\267\027=Ol?<\211\211x\275\371X\262\274\010\356\017=_\267\345=mG\257\275\247[\353=\210\353\313\275\3603\300=\031\'\"\275\\\206\003\275\345\347\370\274\232fW<\362\207\347\275\344\243\306\274\364\305}=\347z\262\275\331s\333=\360\025\353=s8\205=IN\234\275m\255\332\275\355\352\227=\016.U\275\014\240.\275\200G\232\275\006\310\321\274V\n\255\275A\246x=\2731\301\275hW\247\273\034\217\241;\236rk=\013\317\231\275p?\275\275c\364\221=\263}\354=g\322\215\275\014G\277\274>\033u\275\312\317\220\275h\360\224\274\304\266\305\275\352\003\003\274{D\307<\014\206\231\274\206J\242=s[9=\\\322`=\313L\212\275\304\324\256\275x\274\377\273\246\371\340=a>\301\274\272a\261<\206O\247=c\261\207\275(}\363;A\005C\275\250\261\361\274\363\306\010=\010\351\327\275;\304\234=\037\027\274\275\211\211\034=\355M\255<\023q\257=\363\374\277\275_\003z=O\225\244\275\315\251\324=\221\013R<\030_\376<\260\327\212=\360\020\022\275n\241\213=\263\036\307=\236\273E\274\312w\334=D\007\260=S\315\032<\233P\252=\265\335\350<\267X\030\274\257\005,\27545\305\274%\010\021\275\212C\372\274\365\333\030\275\033\037\201\2743\351\361\275)\371\020\275\275\260H=\r\030j\275\237B\355=\334\201\317\275$l\344\274C\261\347<\345J\246\274d\375N\275\336^\366\275\036,\256=\255\366\315\275&O\346=\355Hy<\373}X=:\374\255\275\226\024a\275\313\356<;E\375\023<Q\340\366\275\307\240\362\275eh\t=f\375\237\275%e.=\370\343l=\034\365\311=\251\302\364\274C\023\275=n?R\273)\222\355=]#f\274[\332\235\275E\212*=\341\014R<N\370\316\274\034h\327\274DTB;\206\260\230=\277\232\307<\037\347\306\275\261\272\237<\277X\340<\234#\330\275\253M}\275N\255\355\275\035\030\271\275\275\345\323\2744,\322=g=\235=q\2016=\3502\004\275\326\'\214=\316\345\010\275\253\207\366\275\207\262F=y\256\237\275h1\273=2\363\206=\356k\354;U&\342=<\354\016\275q\240\204\274\215\037\223\275x\223\351\275\\/\200\274\024\266\316=\356\007\224\274\257\220U\275[\267\242\275\033\203\223<|\033\n=\207\021\310=&6\233=\314\252\037<\275\301J\275[\'\304=\273\225\361\275|\302\014=\022\242\241=i8\274=V\'\207=\234d\253\275\261.\356\275wc9\275\372\314\310;\230\025\246\275\034\377\340\275x\253\334=\024s\251\275\n\216\271\275\235D\316\275\332\331v=\240c\272=\017\335v<\204\263\366\275\374\252\023\274\337k\361\275tt\340\275+\340\303\275Y\304\334\275\255\374i\275\305\313u<\352[\205<M\260\235\275\032i3\275M\013\320=\3761Z\275yQ}=\374\254\206=\177\017\305=\273K\356=\227\353\362\274\310A\303=\346\316\317\275\231\r\360=3\256I\275\357\037l<e\305c=jv\232\272 \t\363\275`7\354\275%\342\372;=~\366=\305\006\344=\020-\331<o\"\220=\272<\346=\363\023\210\275k\344\234=X\246y\275|8K\275\260\246\207\274\221\211\034\275\014\033\253=\322\275\326=X\023t\275ck\211\275\200p?\274t\021\355\274\211\227\222=IIm\275-\363\022=!\034\320=\247\343\250<\206\351b<\250&\201=\322\220\246=\255\212{\272\202\3036=\177\266\350<\244]\235<ig2=\351\375A\2750\016\243=7\004\333<\267I\204\275\376J\177=\257`\300\275\222\372\014\275\273W\022\275\022-\343=\341\026\264\275\264\335\273=\033\365\350\2756\267\262=Mb\312\275p\265\252\275\357_\202\275V#\204\275>\321\303\275p\360\277=\360\232\240\275\014\355\340=\266;\204\275\266\202\347\275\233\010\035\275\225\372\337\274\246\035\255<M\210\275=\026\\\337=\032`\305=\276\321\262<\305\376\256=\372\371\275\275\3323\343\275\3155\332\274\212=\372\274\r\303\261=`\375\356\275\232\244\204\275D\366\350\275p<\212<\373\372\037\275\305\362\241=\001\270\343\274\301\245\307=\272\021(=\326\357\326\273\227\023\205=h/\005={\3137\273\026\215\317=B X\275\217\305\265;\343\237\230\275\313\254\305\275:b\007=\024\274>=\000\021=\275v\025\036=$b\270=\237\324L\275\371Y\010\275\345B\237=\265q\230=\022O\312\275\000-\254=\255\255\233\274\360^\'\275\262\241B=\236\023\211\275\246\372\325<<\371\344\275\"\336\000=\255\240H\275\312\026b=\237wl<\352\224\247<\350\276\332<\303^\367\273\022\242\374<\330\340\017=\272\337\363=\005[\272=\320`\334<\221\360\272=\225\370:\275\321\323\231\275\206\251\236\275\327\214\263\275\261D\312=\373\035\357=bu\'=Y\033\250<\204e\214\275\311\213\017\275\n\253\372<\253\001\214\275\373B\266=C\324\033\273:pn\275_\343\340\2753\253\303\275\260y \275uId=\016\344\363\274(IN=\026\035\024<\376\276\307=%\317m=\300.`\275g\350\"=E\313\232<\221\370\222<\220@#=\300\026+\275*\230\240=\341f\257\2750)\n\275\233\230\307\2756\212\270=\177j\346;3\212\341=\3473Y<\022\312B=\371\302v<\032\005\247\274\004\336\222;r\205\343=0>`\275\004\021\231=\242\267o=\242\022\365<?\225\211=\334\261\347;\324\375+\275\265B\221=\316i\345\275\362,\355=\035\267!\273\345!O<\324\307\250\275\031\235\264\275\007\205-=s\225\'=\376\372\032<V\320\361=\366\023\256<_\264\205=10\265=\265\017\265<\214\243\340<C&8=\235\"\207\275\256\327\361=\201\016e=\367\301\354=\206\375\221=\202\035\257\275\037\363\346\275d\267\214=-\374\330\275\253\266\242=\200L\276=BJt\275\036w\352=b\241\2159t\305\247\275\\\330\222:\342|\007=X\315\025=[\342\010\273\245\231\234\274\177\034\235\275\n\322\316=~\213l=I-\223\275\002\021:<\377\233\355\275\234\016\332=\236n\301\275\033F\363\275&\213\030\275\314S\360=}o\330\274\213\332\024=\214\023\215=\364\002(\275\224[\255=I9w\272\346\305\302<\315\357\316<{u\275=Q\245\017\275\264@\353=H\267\351\275a\332e=5\003\277=U4\364=\211\310\347<d\260\201\275\227C\211\275\276X\301\275\361\272%=\222\207\201\275P\216\355\274kr\316=\315\344\253=rn\\=s\032\334\275\250[\256=Z\344\026=\2411\031=\324\246\223=\335\203<\275\324O^\275P\364\313\274\257\366N=h\025\002=g\216M\274\024\346\346\274c\016\277=\300\252\273<\364\233\'=\360y\244=\214\254\212\274\267\275R\275G\"\323\275\241$\362\275l^\267<\025_\207<i[\242\275_\300\224<?\300\222=${t\275\331\322\255=\324\262\255=\035\362\305=\207\363\257\275\326\3674=y_\230<T{\232=\201\204\013\275\204\343\274=\325A\355=\375\230\010\275\252\017W=\202\215\325\273\005\235\006\275s\336X\275\007\315\267\275\314\037q\275\312\242\365=S\315\330\275\373\272i\275\271\\\227<\355^\035\275gX\325<\362\374\234=\244\220m<\266\n\264<%c\362\275pOk=\264\004\335\275\262y\212=\377X\244\275\310;[\275\016\250i=\374\213\257<\352\317\227\2750\260\013\275\314\234\342\275\3046\232\275\245\177\005=\000v\021=\374/\266\274(\024\037\2753\007\257<\373\2403\275\324cj=\226\340\232\275\303\255I<.\347\361=H\242\\=\0252S\275\261\010\342=4\241\344\275\242\245\351\275~\030\207\275\355\357\016\275\326c\370<\266\341\316=\"\272\201=]\330\241\275\000K\227;\243\241\227\275~O\313<\0215\206;J\235\236\275\207e)\275\261!\302\275v\216\340= \306\276=\002\307\213=\021\333\025=i\205\264\274\265\301I\274\372\271\223\275\313^\237\2730\353\315=\340\336\224=00}=UAA=\230\341T=\022F\'=\n\305\252\275^\303\252=\203li=\224\221\250=\332\320\205<L4%\275\0275\222=w\277\355=\323\260\236<\024%\343\274\244\nV\275\312\3072\275\332b\274=\261)`=\331\316\316\275z\207?=\273\375e=F\241P=v\222\032;j\037\232\275\312\031\225\275\227\347\252<\323\267\340;E\020\311\275\n\313\255\275@*\202\275\244\330\203=Q\035\244\275Q\257\"=M\251\207=Lr\201\275\374\360\207=\221Ok\274l)\362<5sM\275\254\203\350=\020K\306\275\367B\205=$\226\243\274NH\314\275\326\270\324=z\237\320\275;]Q:\367\366x\275\177%\252=kfu\275x6\255<}\356\035\2752\252\335\275\333\200\215=E,\202<\221\t\351=\313\376\010\275\266\215G\275C\353<=]\331\232\275\334\301\300\274\245\265\357=G\376\217=\241I%=\226N\334=\327\020\353=\021\205\304<\325z\205\275\217U\234\273A\246\230\274\336]8\275 